{
  "input_sequences": [],
  "inputs": [
    {
      "name": "b-tagging",
      "variables": [
        {
          "default": 0.9152346253395081,
          "name": "abs_eta",
          "offset": -0.9152346253395081,
          "scale": 1.5857011427071068
        },
        {
          "default": 739525.3125,
          "name": "pt",
          "offset": -739525.3125,
          "scale": 8.214642024383522e-07
        },
        {
          "name": "JetFitter_isDefaults",
          "offset": -0.0,
          "scale": 1.0
        },
        {
          "default": 2718.589599609375,
          "name": "JetFitter_mass",
          "offset": -2718.58935546875,
          "scale": 0.00048218675460296465
        },
        {
          "default": 0,
          "name": "JetFitter_energyFraction",
          "offset": -0.32032233476638794,
          "scale": 2.855511886508778
        },
        {
          "default": 0,
          "name": "JetFitter_significance3d",
          "offset": -12.558414459228516,
          "scale": 0.04990529864954675
        },
        {
          "default": -1,
          "name": "JetFitter_nVTX",
          "offset": -0.1057075634598732,
          "scale": 1.0764698915048838
        },
        {
          "default": -1,
          "name": "JetFitter_nSingleTracks",
          "offset": -0.3063364624977112,
          "scale": 0.8109954034356527
        },
        {
          "default": -1,
          "name": "JetFitter_nTracksAtVtx",
          "offset": -0.7794366478919983,
          "scale": 0.5345669200216361
        },
        {
          "default": -1,
          "name": "JetFitter_N2Tpair",
          "offset": -1.92830491065979,
          "scale": 0.208897366808943
        },
        {
          "default": 0.06687803566455841,
          "name": "JetFitter_deltaR",
          "offset": -0.06687802076339722,
          "scale": 17.806907079459926
        },
        {
          "name": "JetFitterSecondaryVertex_isDefaults",
          "offset": -0.0,
          "scale": 1.0
        },
        {
          "default": 0,
          "name": "JetFitterSecondaryVertex_nTracks",
          "offset": -1.1220579147338867,
          "scale": 0.8886606308228053
        },
        {
          "default": 568.4579467773438,
          "name": "JetFitterSecondaryVertex_mass",
          "offset": -568.4580078125,
          "scale": 0.0017765546615313133
        },
        {
          "default": 118808.359375,
          "name": "JetFitterSecondaryVertex_energy",
          "offset": -118808.3671875,
          "scale": 1.4557426043271585e-06
        },
        {
          "default": 0,
          "name": "JetFitterSecondaryVertex_energyFraction",
          "offset": -0.13485682010650635,
          "scale": 5.2891243013327625
        },
        {
          "default": 24.330001831054688,
          "name": "JetFitterSecondaryVertex_displacement3d",
          "offset": -24.329998016357422,
          "scale": 0.02101868087540099
        },
        {
          "default": 14.268242835998535,
          "name": "JetFitterSecondaryVertex_displacement2d",
          "offset": -14.268242835998535,
          "scale": 0.036738548476688775
        },
        {
          "default": 4.368703842163086,
          "name": "JetFitterSecondaryVertex_maximumTrackRelativeEta",
          "offset": -4.368703842163086,
          "scale": 0.8648912592514387
        },
        {
          "default": 3.9297611713409424,
          "name": "JetFitterSecondaryVertex_minimumTrackRelativeEta",
          "offset": -3.929760456085205,
          "scale": 0.9667971656041082
        },
        {
          "default": 4.1470046043396,
          "name": "JetFitterSecondaryVertex_averageTrackRelativeEta",
          "offset": -4.1470046043396,
          "scale": 0.9459327220849697
        },
        {
          "default": 5.43855094909668,
          "name": "JetFitterSecondaryVertex_maximumAllJetTrackRelativeEta",
          "offset": -5.438551425933838,
          "scale": 0.8574641711647564
        },
        {
          "default": 2.321021318435669,
          "name": "JetFitterSecondaryVertex_minimumAllJetTrackRelativeEta",
          "offset": -2.321021318435669,
          "scale": 2.425659524169426
        },
        {
          "default": 3.444274425506592,
          "name": "JetFitterSecondaryVertex_averageAllJetTrackRelativeEta",
          "offset": -3.4442741870880127,
          "scale": 1.5907390351164135
        },
        {
          "name": "SV1_isDefaults",
          "offset": -0.0,
          "scale": 1.0
        },
        {
          "default": -1,
          "name": "SV1_NGTinSvx",
          "offset": -0.8359458446502686,
          "scale": 0.4476683336140397
        },
        {
          "default": 1676.5120849609375,
          "name": "SV1_masssvx",
          "offset": -1676.511962890625,
          "scale": 0.001349833532339858
        },
        {
          "default": -1,
          "name": "SV1_N2Tpair",
          "offset": -1.56724214553833,
          "scale": 0.2113422819603564
        },
        {
          "default": 0,
          "name": "SV1_efracsvx",
          "offset": -0.18031297624111176,
          "scale": 3.836378954907178
        },
        {
          "default": 0.09980292618274689,
          "name": "SV1_deltaR",
          "offset": -0.09980292618274689,
          "scale": 4.245541046776709
        },
        {
          "default": 17.781478881835938,
          "name": "SV1_Lxy",
          "offset": -17.781476974487305,
          "scale": 0.04606393025604944
        },
        {
          "default": 29.724599838256836,
          "name": "SV1_L3d",
          "offset": -29.724597930908203,
          "scale": 0.025273371293266515
        },
        {
          "default": 42.372032165527344,
          "name": "SV1_significance3d",
          "offset": -42.37202453613281,
          "scale": 0.021786513378297494
        },
        {
          "default": 0.26488280296325684,
          "name": "DL1_pu",
          "offset": -0.26488280296325684,
          "scale": 4.274291760285814
        },
        {
          "default": 0.4411565661430359,
          "name": "DL1_pb",
          "offset": -0.4411564767360687,
          "scale": 4.388853940379245
        },
        {
          "default": 0.2939606010913849,
          "name": "DL1_pc",
          "offset": -0.2939606010913849,
          "scale": 6.336615474331693
        }
      ]
    }
  ],
  "layers": [
    {
      "activation": "linear",
      "architecture": "dense",
      "bias": [
        -0.0006587964599020779,
        -0.0015562342014163733,
        -0.0014829366700723767,
        -0.0009463383466936648,
        -0.0028769050259143114,
        -0.0009820798877626657,
        0.004987494088709354,
        0.005641781724989414,
        -0.004847745411098003,
        0.0012254082830622792,
        -0.0036403427366167307,
        -0.0012156112352386117,
        0.0013174782507121563,
        0.002031711395829916,
        -0.004471703432500362,
        0.0006967912777327001,
        0.002323743887245655,
        -0.0002715412119869143,
        -0.001303714932873845,
        -0.00312276603654027,
        -0.00033301900839433074,
        -0.0007752382662147284,
        -0.002247060416266322,
        -7.121711678337306e-05,
        0.0002993358939420432,
        0.005388743709772825,
        -0.0003398520639166236,
        -0.001441508182324469,
        0.0008439646335318685,
        0.002972626592963934,
        -0.0016971422592177987,
        -0.00013466179370880127,
        0.0013046468375250697,
        0.0060125235468149185,
        -0.00018969934899359941,
        0.004529613070189953,
        0.0015342995757237077,
        -0.0013255600351840258,
        0.004860701505094767,
        0.0034729130566120148,
        -0.0055128224194049835,
        0.0007603131816722453,
        -0.0037009399384260178,
        0.0013534296303987503,
        -0.0003839046985376626,
        -0.0009246844565495849,
        -0.0035042865201830864,
        -0.002023678971454501,
        0.000692951784003526,
        0.0006036331760697067,
        -0.0020847395062446594,
        0.0034473531413823366,
        -0.001987649127840996,
        -0.00019652894116006792,
        -0.003362740157172084,
        -0.0015520501183345914,
        -0.001476521953009069,
        0.0004743064637295902,
        0.0019633760675787926,
        0.0025565328542143106,
        -0.006379100494086742,
        0.002548051765188575,
        -0.00036392195033840835,
        -0.0015903383027762175,
        -0.0002335476310690865,
        -0.0032482303213328123,
        -0.0035308832302689552,
        5.841135134687647e-05,
        0.0014415278565138578,
        0.0016576882917433977,
        0.0010605842107906938,
        -0.0020684460178017616,
        0.001324400887824595,
        -0.0008875543717294931,
        0.0010501275537535548,
        0.0005144058959558606,
        -0.0009890937944874167,
        0.00016737618716433644,
        0.0020680183079093695,
        -0.003334782784804702,
        0.002785713877528906,
        -0.001067856210283935,
        0.002347253728657961,
        0.001340375398285687,
        0.0022521510254591703,
        0.00048822304233908653,
        -0.0057979486882686615,
        -0.0006912000244483352,
        0.0013776147970929742,
        -0.0006402733270078897,
        -0.004211552906781435,
        0.006727310363203287,
        -0.002873009070754051,
        0.001164685352705419,
        3.1351799407275394e-05,
        -0.0018420764245092869,
        0.0021794834174215794,
        -0.0029234113171696663,
        0.0034517182502895594,
        -0.0009058832656592131
      ],
      "weights": [
        -0.13552053272724152,
        -0.21824347972869873,
        0.05248719081282616,
        0.2104043960571289,
        0.11952148377895355,
        0.039986349642276764,
        0.22550922632217407,
        -0.179890975356102,
        -0.23653313517570496,
        0.01788203977048397,
        -0.06638011336326599,
        -0.06588754057884216,
        0.0576324500143528,
        0.1828596591949463,
        -0.005365366581827402,
        0.022338131442666054,
        0.1285896748304367,
        -0.31213754415512085,
        0.03777973726391792,
        0.2740773856639862,
        -0.04331546649336815,
        -0.21354246139526367,
        0.0937204509973526,
        0.005201703403145075,
        -0.24003657698631287,
        -0.10382553189992905,
        0.15639612078666687,
        -0.05889617279171944,
        -0.09991006553173065,
        0.18250145018100739,
        -0.08146831393241882,
        -0.17238301038742065,
        0.05687403678894043,
        -0.14889170229434967,
        -0.006092778407037258,
        0.1049904152750969,
        0.07715290784835815,
        -0.2988722622394562,
        -0.03362571820616722,
        -0.25991079211235046,
        -0.12458527088165283,
        -0.12666267156600952,
        0.2790146470069885,
        0.12303302437067032,
        -0.06853548437356949,
        0.03635979816317558,
        0.0925208330154419,
        0.2282014936208725,
        0.08109574764966965,
        -0.21389596164226532,
        -0.030260605737566948,
        -0.2541944086551666,
        0.11360045522451401,
        0.12684127688407898,
        0.09533631801605225,
        -0.08793888986110687,
        -0.07857457548379898,
        0.022284219041466713,
        -0.028209153562784195,
        -0.0028967885300517082,
        0.1299390196800232,
        0.32801464200019836,
        0.05244862288236618,
        0.14914120733737946,
        0.22434279322624207,
        -0.21231728792190552,
        0.01776120439171791,
        -0.0721423476934433,
        0.22598351538181305,
        0.1942451000213623,
        0.02368781715631485,
        -0.05608493089675903,
        -0.024130314588546753,
        -0.03993374481797218,
        -0.013602874241769314,
        -0.3035638630390167,
        0.2345302253961563,
        -0.05726189538836479,
        0.14092037081718445,
        -0.20785483717918396,
        0.14821134507656097,
        -0.12773998081684113,
        0.17560236155986786,
        -0.11314668506383896,
        -0.21319766342639923,
        -0.21775831282138824,
        0.03408287838101387,
        -0.00657977070659399,
        0.09521275013685226,
        -0.3672283887863159,
        -0.22063350677490234,
        -0.24264264106750488,
        -0.10936196893453598,
        -0.2488364428281784,
        -0.08235697448253632,
        0.055880460888147354,
        0.17146240174770355,
        0.10792209208011627,
        -0.18532505631446838,
        -0.11518755555152893,
        0.053423237055540085,
        -0.13870686292648315,
        -0.005622415337711573,
        0.09639392793178558,
        0.1592501848936081,
        0.12985767424106598,
        0.12606452405452728,
        0.11820292472839355,
        0.16431672871112823,
        -0.09566208720207214,
        -0.2004283368587494,
        0.28055599331855774,
        0.019488394260406494,
        0.2373339980840683,
        -0.10479281097650528,
        -0.005228075198829174,
        -0.28286054730415344,
        -0.08618022501468658,
        -0.08689717203378677,
        -0.08964255452156067,
        0.2554946541786194,
        0.19895367324352264,
        -0.048017099499702454,
        -0.06667553633451462,
        0.20819544792175293,
        -0.10053147375583649,
        0.0013363760663196445,
        -0.1194877028465271,
        -0.006843651179224253,
        -0.23775136470794678,
        0.11271175742149353,
        -0.05349988490343094,
        -0.04778318107128143,
        0.24441225826740265,
        -0.18007440865039825,
        0.10343386232852936,
        -0.1989009827375412,
        0.012876478023827076,
        0.260816752910614,
        -0.05902939289808273,
        0.12753897905349731,
        0.061128295958042145,
        -0.062457118183374405,
        -0.2061576545238495,
        0.03226671740412712,
        0.059800226241350174,
        0.11653712391853333,
        -0.28635239601135254,
        0.20104877650737762,
        0.19319672882556915,
        0.05073295906186104,
        0.06172047182917595,
        -0.2705545723438263,
        -0.24978461861610413,
        0.015675757080316544,
        0.121328204870224,
        0.16495831310749054,
        0.06309778243303299,
        0.1833459436893463,
        -0.16045749187469482,
        0.15237252414226532,
        0.18806877732276917,
        -0.033395733684301376,
        -0.05428937450051308,
        -0.06097684055566788,
        -0.02067219838500023,
        0.12117894738912582,
        -0.11365112662315369,
        0.2795296013355255,
        -0.01307586207985878,
        -0.13984230160713196,
        0.0062473067082464695,
        -0.12847214937210083,
        0.1422039121389389,
        -0.05061037093400955,
        -0.27895358204841614,
        -0.11825398355722427,
        -0.056391313672065735,
        0.20546449720859528,
        0.1626921445131302,
        0.09906285256147385,
        -0.014191772788763046,
        -0.13872823119163513,
        0.13778112828731537,
        0.0328536331653595,
        0.04304151609539986,
        0.059447530657052994,
        -0.09980326145887375,
        -0.2575577199459076,
        -0.08114861696958542,
        -0.011644557118415833,
        -0.2549845576286316,
        -0.20631706714630127,
        0.1168060153722763,
        -0.18438762426376343,
        -0.15261168777942657,
        0.10046689957380295,
        0.23969148099422455,
        -0.15384793281555176,
        0.11402150243520737,
        -0.15487919747829437,
        0.17248502373695374,
        -0.14173215627670288,
        0.13776811957359314,
        0.19910196959972382,
        -0.1702914834022522,
        -0.09429145604372025,
        -0.06485587358474731,
        -0.08842550963163376,
        0.2551826536655426,
        -0.15883029997348785,
        -0.11244075000286102,
        -0.2168266326189041,
        -0.1509208083152771,
        0.15795724093914032,
        -0.20493648946285248,
        0.11283860355615616,
        0.0528063029050827,
        -0.1514914482831955,
        -0.13691125810146332,
        -0.07957608997821808,
        0.04952370002865791,
        -0.16173578798770905,
        0.07968511432409286,
        -0.24270163476467133,
        -0.19890554249286652,
        -0.17450246214866638,
        -0.278879314661026,
        -0.11148655414581299,
        0.04670748487114906,
        0.11823057383298874,
        -0.24823983013629913,
        0.08677694201469421,
        -0.004798827227205038,
        0.11963097006082535,
        -0.1899477243423462,
        -0.1536206752061844,
        0.00045162596506997943,
        0.27053818106651306,
        -0.30759164690971375,
        -0.0777931809425354,
        -0.12630057334899902,
        0.2799248993396759,
        -0.09903279691934586,
        -0.19953829050064087,
        0.1137753576040268,
        -0.0038166167214512825,
        0.12093722075223923,
        0.0015610599657520652,
        -0.14377492666244507,
        0.1259790062904358,
        0.1373322606086731,
        0.08695928007364273,
        0.1552315205335617,
        0.18499250710010529,
        0.1253635287284851,
        -0.08487212657928467,
        0.1725025773048401,
        0.020821943879127502,
        0.024454321712255478,
        -0.0698506236076355,
        0.06364293396472931,
        -0.37783676385879517,
        0.14403556287288666,
        -0.1205945685505867,
        0.06509120017290115,
        0.010306795127689838,
        -0.1947464644908905,
        -0.08903222531080246,
        -0.12603053450584412,
        0.211072638630867,
        -0.10910746455192566,
        -0.07058871537446976,
        0.06272471696138382,
        -0.09943858534097672,
        0.14964914321899414,
        0.041796982288360596,
        0.09550878405570984,
        0.26274004578590393,
        -0.039303816854953766,
        -0.24640698730945587,
        -0.014941706322133541,
        0.09741410613059998,
        -0.06281323730945587,
        0.015930812805891037,
        0.20642153918743134,
        0.21990738809108734,
        -0.28908589482307434,
        0.09759535640478134,
        -0.17027941346168518,
        0.0612596832215786,
        0.016791829839348793,
        0.010108189657330513,
        -0.05928017199039459,
        0.10608261078596115,
        0.035933561623096466,
        0.22502721846103668,
        -0.19026201963424683,
        0.01884467899799347,
        0.05652645602822304,
        -0.27227506041526794,
        -0.10004398971796036,
        -0.038798097521066666,
        0.07708645612001419,
        -0.1355779618024826,
        0.10505196452140808,
        0.1520795077085495,
        -0.3058542311191559,
        0.08717689663171768,
        0.035930830985307693,
        0.030981820076704025,
        -0.08069726079702377,
        0.3365703821182251,
        0.37953993678092957,
        0.11930263787508011,
        0.026585901156067848,
        0.19068193435668945,
        -0.12853646278381348,
        -0.1422242671251297,
        -0.09675557911396027,
        -0.31686165928840637,
        0.24115678668022156,
        -0.24428336322307587,
        0.12956444919109344,
        -0.1102256178855896,
        0.15841294825077057,
        -0.33721116185188293,
        0.04506973177194595,
        -0.3375246822834015,
        0.25405532121658325,
        0.0810379832983017,
        0.14143256843090057,
        -0.16775238513946533,
        0.1278107464313507,
        -0.0022195985075086355,
        -0.3495643436908722,
        0.2325248271226883,
        -0.17509567737579346,
        0.21973441541194916,
        -0.1746755689382553,
        0.03508974239230156,
        0.1092386469244957,
        -0.2210020124912262,
        -0.1056663990020752,
        0.05262226611375809,
        -0.16764453053474426,
        0.1783463954925537,
        0.059112798422575,
        -0.006208231672644615,
        0.10190357267856598,
        0.015107612125575542,
        -0.059320446103811264,
        0.08060462027788162,
        0.09161407500505447,
        0.047954462468624115,
        -0.09208819270133972,
        -0.15102951228618622,
        -0.023482738062739372,
        0.057758573442697525,
        0.17527951300144196,
        -0.2704522907733917,
        -0.17204806208610535,
        -0.17991667985916138,
        0.09657987207174301,
        0.24937628209590912,
        -0.14278823137283325,
        0.29598918557167053,
        0.08432701975107193,
        -0.07026536017656326,
        0.11618531495332718,
        -0.10348809510469437,
        0.010265628807246685,
        0.007984813302755356,
        0.010714376345276833,
        0.13342329859733582,
        0.2931402027606964,
        0.02428499609231949,
        0.07658523321151733,
        0.16388896107673645,
        -0.16150081157684326,
        0.08109942823648453,
        0.13017494976520538,
        0.02326471172273159,
        -0.060592688620090485,
        0.26319724321365356,
        -0.23358485102653503,
        -0.007164594251662493,
        -0.04026373103260994,
        -0.04233306646347046,
        -0.05380754917860031,
        -0.17881938815116882,
        0.0015244396636262536,
        -0.097446009516716,
        -0.12252875417470932,
        -0.12648750841617584,
        -0.16198104619979858,
        -0.05771050974726677,
        -0.16775263845920563,
        0.0185270756483078,
        0.0015439203707501292,
        0.002513306913897395,
        -0.16155992448329926,
        -0.03168818727135658,
        0.2376439869403839,
        0.289770245552063,
        -0.05602748692035675,
        0.10380026698112488,
        -0.12501220405101776,
        -0.14551086723804474,
        0.14459629356861115,
        -0.10679054260253906,
        0.12032722681760788,
        0.20403853058815002,
        0.09513695538043976,
        -0.25470948219299316,
        -0.0559692420065403,
        0.19698233902454376,
        -0.07522566616535187,
        0.060450874269008636,
        0.23836155235767365,
        0.22673603892326355,
        -0.15461589395999908,
        0.26321083307266235,
        0.2255455106496811,
        -0.03737014904618263,
        -0.3980742394924164,
        -0.031001372262835503,
        0.16633939743041992,
        0.050031717866659164,
        0.08766138553619385,
        -0.14581578969955444,
        0.07177958637475967,
        -0.05140853300690651,
        -0.4370998740196228,
        0.16461913287639618,
        -0.11055228114128113,
        0.2009640634059906,
        -0.11549003422260284,
        0.03395857289433479,
        -0.08430484682321548,
        -0.13105037808418274,
        0.019903093576431274,
        -0.11752448976039886,
        -0.008036256767809391,
        -0.21838226914405823,
        0.037577733397483826,
        -0.05660350248217583,
        -0.11378524452447891,
        0.1270751953125,
        0.16668763756752014,
        0.11020579189062119,
        -0.15132547914981842,
        -0.1891031116247177,
        0.09954862296581268,
        -0.16936489939689636,
        -0.11363614350557327,
        -0.054444823414087296,
        -0.08297155052423477,
        -0.04901871830224991,
        0.09629548341035843,
        0.037961527705192566,
        -0.40915969014167786,
        -0.2848269045352936,
        0.13392266631126404,
        0.028176292777061462,
        0.08316797018051147,
        0.2187553346157074,
        -0.037225041538476944,
        0.15992876887321472,
        0.13516683876514435,
        -0.02998201735317707,
        0.19636602699756622,
        0.04871281981468201,
        -0.11147689074277878,
        0.04278738051652908,
        0.25131353735923767,
        0.0767216831445694,
        0.11455735564231873,
        -0.15927140414714813,
        0.15380354225635529,
        -0.07390051335096359,
        -0.03758052736520767,
        -0.056099437177181244,
        -0.11245971918106079,
        -0.5026454925537109,
        -0.5397304892539978,
        -0.18508566915988922,
        -0.03749889135360718,
        0.21813003718852997,
        0.07859084010124207,
        -0.14374923706054688,
        0.2635522782802582,
        0.15088418126106262,
        -0.041111644357442856,
        -0.189240500330925,
        -0.07955637574195862,
        0.0697719156742096,
        -0.16353946924209595,
        0.17735692858695984,
        -0.17364469170570374,
        -0.10108349472284317,
        0.04088866710662842,
        0.09909338504076004,
        -0.21518729627132416,
        -0.09919450432062149,
        0.28879109025001526,
        0.19000175595283508,
        0.01446574553847313,
        -0.08343642204999924,
        -0.19358688592910767,
        0.29880547523498535,
        0.18228407204151154,
        0.05678830295801163,
        -0.2347625344991684,
        -0.0511542446911335,
        -0.1346467137336731,
        0.005056589841842651,
        -0.033677808940410614,
        -0.4083951413631439,
        0.0894361361861229,
        0.18897852301597595,
        0.21481050550937653,
        -0.0033295515459030867,
        0.20240284502506256,
        0.15050265192985535,
        0.15479792654514313,
        -0.024862021207809448,
        -0.045552659779787064,
        0.2656736969947815,
        0.11589621007442474,
        -0.007121758535504341,
        -0.10512788593769073,
        -0.11312628537416458,
        0.057511381804943085,
        -0.01069799717515707,
        0.18553288280963898,
        0.19622929394245148,
        0.17268279194831848,
        -0.02718012034893036,
        0.14805035293102264,
        0.18147793412208557,
        -0.28398317098617554,
        -0.16004306077957153,
        0.0063368272967636585,
        -0.20370319485664368,
        0.014811170287430286,
        0.018673764541745186,
        0.26350831985473633,
        0.19984522461891174,
        0.013901753351092339,
        -0.08117165416479111,
        -0.045523736625909805,
        -0.01239391416311264,
        0.08637520670890808,
        0.04157949611544609,
        0.1431245058774948,
        -0.06374511122703552,
        -0.34653598070144653,
        0.11427034437656403,
        -0.018362022936344147,
        -0.06116168946027756,
        -0.15049505233764648,
        0.021441461518406868,
        -0.05565961077809334,
        0.29669103026390076,
        -0.21500910818576813,
        -0.05722730606794357,
        -0.25226014852523804,
        -0.24149534106254578,
        -0.11666590720415115,
        0.14367327094078064,
        0.04814155399799347,
        0.053787317126989365,
        0.14070114493370056,
        -0.022104734554886818,
        0.12738780677318573,
        -0.14360760152339935,
        -0.09227696806192398,
        0.09979412704706192,
        0.11999600380659103,
        0.1319195032119751,
        -0.24084119498729706,
        0.14666707813739777,
        0.14908082783222198,
        -0.11507248878479004,
        -0.20184989273548126,
        0.26652538776397705,
        0.03696804493665695,
        -0.07100199908018112,
        0.14867961406707764,
        0.12640580534934998,
        -0.1597556173801422,
        0.060217179358005524,
        -0.011061630211770535,
        -0.22336985170841217,
        -0.023917971178889275,
        0.12014394253492355,
        0.10865963250398636,
        0.23004387319087982,
        -0.09260958433151245,
        -0.1536598652601242,
        0.15357837080955505,
        -0.08438785374164581,
        0.13227123022079468,
        -0.0271023940294981,
        0.1576479971408844,
        -0.11396253854036331,
        0.09693492949008942,
        -0.06870407611131668,
        -0.2931715250015259,
        0.15651540458202362,
        0.22072173655033112,
        0.07550764828920364,
        -0.09170463681221008,
        -0.0681418851017952,
        -0.17985349893569946,
        0.03719567507505417,
        -0.1637100726366043,
        0.04861525073647499,
        -0.09947603940963745,
        -0.2491072565317154,
        -0.19482208788394928,
        0.21831481158733368,
        0.1918208748102188,
        0.12553100287914276,
        0.2491070032119751,
        -0.2662885785102844,
        0.20262116193771362,
        -0.19761012494564056,
        0.2214011251926422,
        -0.14743220806121826,
        0.003346029669046402,
        -0.1270374357700348,
        -0.0963682010769844,
        0.19119893014431,
        0.15947625041007996,
        -0.40609973669052124,
        -0.14316938817501068,
        0.09785427898168564,
        0.15511968731880188,
        0.03381297364830971,
        0.05701252073049545,
        -0.16535885632038116,
        -0.16594186425209045,
        0.1723410189151764,
        -0.22887971997261047,
        0.2702317237854004,
        -0.1595126986503601,
        -0.09164617210626602,
        -0.2745630443096161,
        -0.1741171032190323,
        -0.16295179724693298,
        -0.1713537573814392,
        -0.24669909477233887,
        -0.16512157022953033,
        0.05054439604282379,
        -0.09535523504018784,
        -0.19545878469944,
        0.06761368364095688,
        -0.07264856994152069,
        -0.10540593415498734,
        -0.030238866806030273,
        0.023483669385313988,
        0.1652364581823349,
        -0.08178726583719254,
        -0.18372422456741333,
        -0.03217508643865585,
        0.07096537947654724,
        0.08493171632289886,
        -0.10259809345006943,
        -0.12040796875953674,
        0.09199332445859909,
        -0.1212790310382843,
        0.16645316779613495,
        -0.28275978565216064,
        0.02677738480269909,
        0.33597391843795776,
        -0.49445927143096924,
        -0.1258365660905838,
        0.12082326412200928,
        0.0006044499459676445,
        -0.26676779985427856,
        -0.0865674689412117,
        -0.11476747691631317,
        0.03735519200563431,
        0.246588334441185,
        0.1717415750026703,
        0.2494405210018158,
        0.24494005739688873,
        -0.19616009294986725,
        0.18915724754333496,
        -0.13107429444789886,
        -0.024664515629410744,
        0.1885170042514801,
        -0.029785672202706337,
        0.029040591791272163,
        -0.015439988113939762,
        -0.03919602930545807,
        0.11261808127164841,
        -0.1550767868757248,
        -0.11717285215854645,
        0.029012974351644516,
        -0.00484174769371748,
        -0.2364678829908371,
        0.014248541556298733,
        -0.3213871717453003,
        -0.10459458827972412,
        -0.05374930799007416,
        -0.0020995158702135086,
        -0.24820241332054138,
        0.2512436509132385,
        -0.009046164341270924,
        -0.10203180462121964,
        0.12406359612941742,
        -0.020724277943372726,
        0.06666453927755356,
        0.05131444334983826,
        -0.17153432965278625,
        0.13290078938007355,
        0.1214602142572403,
        0.05699063837528229,
        0.028679771348834038,
        0.07083705812692642,
        0.09958349913358688,
        -0.5437044501304626,
        -0.1169506162405014,
        0.09423590451478958,
        -0.1386345773935318,
        -0.23635752499103546,
        -0.11152732372283936,
        0.07482179254293442,
        -0.0731828436255455,
        0.06479260325431824,
        0.13118970394134521,
        0.040701087564229965,
        -0.019850458949804306,
        -0.23499898612499237,
        0.25380992889404297,
        -0.09240889549255371,
        0.2567973732948303,
        0.08996641635894775,
        -0.11928265541791916,
        0.16118045151233673,
        0.024918178096413612,
        -0.08339507132768631,
        -0.158718079328537,
        0.16697944700717926,
        -0.09062755852937698,
        0.18204088509082794,
        0.10188660025596619,
        0.004117656499147415,
        -0.15008701384067535,
        -0.027016716077923775,
        0.07926584780216217,
        0.03790862485766411,
        0.04994647577404976,
        -0.1597525179386139,
        -0.03486863523721695,
        -0.0745338574051857,
        -0.03064066544175148,
        0.3514649271965027,
        -0.23318694531917572,
        -0.03143655136227608,
        -0.28512534499168396,
        -0.13573674857616425,
        -0.10916547477245331,
        0.05023634806275368,
        -0.1808580905199051,
        -0.19072996079921722,
        -0.006532212719321251,
        -0.22099243104457855,
        -0.07696612179279327,
        -0.08909641206264496,
        0.1615319699048996,
        0.15934669971466064,
        -0.11656427383422852,
        -0.11113253235816956,
        0.1407129317522049,
        0.23584605753421783,
        0.07745074480772018,
        0.05246640741825104,
        0.06010517477989197,
        0.0999956727027893,
        -0.1371765434741974,
        -0.09550531208515167,
        -0.238095223903656,
        0.1492300182580948,
        -0.0021093585528433323,
        -0.5028416514396667,
        0.005518293473869562,
        -0.04960275813937187,
        0.04209885746240616,
        0.019270746037364006,
        0.010344230569899082,
        -0.09120548516511917,
        0.08527785539627075,
        0.01545963529497385,
        -0.07132400572299957,
        0.0825691819190979,
        0.0908224955201149,
        -0.03719261661171913,
        -0.012925681658089161,
        -0.17613725364208221,
        -0.07149478048086166,
        0.16799786686897278,
        -0.20499050617218018,
        -0.1746467649936676,
        -0.294782817363739,
        0.1785871982574463,
        0.10234350711107254,
        -0.1356893628835678,
        0.07754513621330261,
        0.08897452056407928,
        -0.10889497399330139,
        0.13640853762626648,
        -0.0544799380004406,
        0.08621077239513397,
        0.2374676913022995,
        -0.14637215435504913,
        -0.08374191075563431,
        0.30341455340385437,
        0.029300915077328682,
        -0.033200569450855255,
        0.23534107208251953,
        0.15383002161979675,
        -0.2894856035709381,
        0.08877790719270706,
        -0.07246322184801102,
        0.06228765472769737,
        0.02600862830877304,
        0.029728645458817482,
        -0.0676378458738327,
        0.19088999927043915,
        0.15299886465072632,
        -0.023516817018389702,
        0.20072785019874573,
        0.345018595457077,
        -0.19872386753559113,
        0.15126392245292664,
        0.16243593394756317,
        -0.06465784460306168,
        0.2661474049091339,
        -0.2611982226371765,
        0.011739145964384079,
        -0.13419242203235626,
        0.07804039120674133,
        0.23522087931632996,
        -0.0036603030748665333,
        -0.14359328150749207,
        -0.09919357299804688,
        0.1632145494222641,
        -0.0299435555934906,
        -0.1972777396440506,
        0.2381056398153305,
        -0.09160411357879639,
        -0.011587388813495636,
        -0.23604555428028107,
        -0.12207049131393433,
        0.1328577995300293,
        -0.09358365833759308,
        -0.20852170884609222,
        0.02638920210301876,
        -0.06229788437485695,
        -0.279970645904541,
        0.18863114714622498,
        -0.019332461059093475,
        0.08737020194530487,
        -0.16720661520957947,
        -0.13951176404953003,
        0.2153659611940384,
        0.19530507922172546,
        -0.0016729054041206837,
        -0.05731489509344101,
        0.028084533289074898,
        0.1804150938987732,
        -0.1257360577583313,
        -0.08479209244251251,
        -0.07775720208883286,
        -0.17763814330101013,
        -0.3524889051914215,
        0.1459040641784668,
        0.09916145354509354,
        -0.02187962457537651,
        -0.24382688105106354,
        0.007016228511929512,
        0.07613992691040039,
        -0.2516309320926666,
        0.10980405658483505,
        0.018833855167031288,
        0.020242132246494293,
        -0.2786899507045746,
        -0.05910421535372734,
        -0.12069196254014969,
        0.23172277212142944,
        0.03867316246032715,
        -0.21117755770683289,
        0.20170775055885315,
        0.1215272918343544,
        0.11653359234333038,
        0.14396989345550537,
        0.13961316645145416,
        -0.25478777289390564,
        -0.11233952641487122,
        -0.4152207374572754,
        -0.03921185061335564,
        0.11882373690605164,
        -0.31149187684059143,
        0.21945565938949585,
        -0.03525824099779129,
        -0.10610996186733246,
        -0.11468885838985443,
        0.23515385389328003,
        -0.2419002503156662,
        0.12525302171707153,
        -0.07304470241069794,
        -0.007120617665350437,
        0.0301349014043808,
        0.15832103788852692,
        -0.011207569390535355,
        0.1745234876871109,
        0.050617966800928116,
        -0.03912879154086113,
        0.21037493646144867,
        0.014008041471242905,
        0.19698913395404816,
        -0.14744079113006592,
        0.07052012532949448,
        0.08982697129249573,
        0.1324927657842636,
        0.005372609943151474,
        0.062042560428380966,
        0.3203166425228119,
        0.022017231211066246,
        0.09485644847154617,
        0.21563345193862915,
        0.1728709638118744,
        -0.003908473066985607,
        -0.22947566211223602,
        -0.12521377205848694,
        -0.10817298293113708,
        0.0075003523379564285,
        -0.17748378217220306,
        0.22662000358104706,
        -0.2688072621822357,
        0.3315625488758087,
        0.06176261976361275,
        0.1462428867816925,
        0.027139822021126747,
        -0.006255863234400749,
        0.11169147491455078,
        -0.1379924714565277,
        -0.12207654118537903,
        -0.06370843201875687,
        0.056895993649959564,
        0.004565274342894554,
        0.02987859956920147,
        -0.058393143117427826,
        0.15143857896327972,
        0.268465131521225,
        -0.21986931562423706,
        -0.0204668827354908,
        -0.023710010573267937,
        0.09549770504236221,
        0.1402457356452942,
        -0.17730359733104706,
        0.011290797963738441,
        -0.2878792881965637,
        0.1775914877653122,
        -0.08645302057266235,
        -0.11194035410881042,
        0.058791354298591614,
        -0.06253103911876678,
        -0.07414229959249496,
        0.02405727282166481,
        0.3471337556838989,
        0.23083600401878357,
        -0.1484260857105255,
        0.2783927023410797,
        0.1615929901599884,
        -0.09306535869836807,
        0.053410667926073074,
        0.040928296744823456,
        -0.2581102252006531,
        0.3101595640182495,
        -0.1732211709022522,
        0.27121031284332275,
        0.05405799672007561,
        0.10989195108413696,
        0.03768790885806084,
        -0.01766734942793846,
        -0.06577096879482269,
        0.05791745334863663,
        -0.14160966873168945,
        0.3534345030784607,
        0.2375451624393463,
        0.09603443741798401,
        -0.1719096451997757,
        0.12392842024564743,
        -0.03175647184252739,
        -0.15534520149230957,
        -0.14620864391326904,
        0.03345699980854988,
        0.08430774509906769,
        -0.09230851382017136,
        0.18166732788085938,
        -0.03165289759635925,
        0.24181745946407318,
        0.06582727283239365,
        0.05804764851927757,
        0.09336327761411667,
        0.03410820662975311,
        -0.11502533406019211,
        0.22910736501216888,
        0.0810956284403801,
        -0.11727806180715561,
        0.28404495120048523,
        -0.225531667470932,
        0.11926983296871185,
        0.1056983470916748,
        -0.10360506176948547,
        0.17533034086227417,
        -0.2675706148147583,
        0.10794231295585632,
        -0.018274590373039246,
        -0.023741664364933968,
        0.09222114086151123,
        -0.057567670941352844,
        0.25515055656433105,
        -0.07365600019693375,
        0.2568933069705963,
        -0.02807007171213627,
        -0.1662077158689499,
        -0.060278553515672684,
        0.1470363438129425,
        0.23238088190555573,
        0.06388097256422043,
        -0.26526784896850586,
        0.22975003719329834,
        -0.05012548342347145,
        -0.05060437694191933,
        0.017269691452383995,
        0.06484786421060562,
        0.1463170349597931,
        0.07108686119318008,
        -0.1612285077571869,
        -0.5011560320854187,
        -0.22839567065238953,
        -0.21680337190628052,
        0.18762950599193573,
        0.1777612864971161,
        -0.09153809398412704,
        -0.09237582236528397,
        -0.1143137738108635,
        -0.006496598478406668,
        0.02488577365875244,
        0.05256658047437668,
        0.1595044583082199,
        -0.046092040836811066,
        0.04638296738266945,
        0.01051920372992754,
        -0.43452882766723633,
        -0.11343195289373398,
        -0.1872832030057907,
        0.06350985914468765,
        0.22044910490512848,
        0.172169029712677,
        -0.11006446927785873,
        0.026818370446562767,
        -0.00530468113720417,
        -0.0035896862391382456,
        -0.15517164766788483,
        -0.08221635967493057,
        0.22711046040058136,
        0.13013502955436707,
        0.05618916451931,
        -0.09107128530740738,
        -0.018065040931105614,
        -0.09698963165283203,
        -0.15780840814113617,
        -0.20048567652702332,
        -0.14901414513587952,
        -0.01575758308172226,
        0.13243615627288818,
        0.16327568888664246,
        -0.042555563151836395,
        -0.01137554831802845,
        0.08837229013442993,
        -0.0068020327016711235,
        0.018414882943034172,
        0.09140923619270325,
        0.002764532109722495,
        0.07819698005914688,
        0.00033034634543582797,
        -0.04784552380442619,
        0.10628039389848709,
        0.06879348307847977,
        -0.2172958254814148,
        -0.47538942098617554,
        0.08119791746139526,
        0.2624903619289398,
        0.16349947452545166,
        0.14914245903491974,
        -0.17756758630275726,
        -0.07945188879966736,
        0.07188121974468231,
        0.036510854959487915,
        0.1015382707118988,
        -0.20172592997550964,
        0.17351208627223969,
        -0.137984961271286,
        0.16215701401233673,
        -0.17767488956451416,
        -0.30257439613342285,
        0.15561427175998688,
        0.03601711615920067,
        -0.10255591571331024,
        -0.034729231148958206,
        0.31668683886528015,
        0.10411106050014496,
        -0.022530538961291313,
        0.029673947021365166,
        -0.086859330534935,
        -0.03125504031777382,
        0.1463257074356079,
        -0.12733307480812073,
        -0.05836585536599159,
        0.08713556081056595,
        0.15881596505641937,
        -0.0997600108385086,
        -0.16437408328056335,
        0.18418988585472107,
        0.26882204413414,
        0.14850814640522003,
        0.24256177246570587,
        -0.24215543270111084,
        0.22869014739990234,
        0.08453521877527237,
        -0.14123964309692383,
        0.14432008564472198,
        -0.02024121582508087,
        -0.23546257615089417,
        0.002141111996024847,
        -0.008517418056726456,
        0.1377527415752411,
        -0.08321408927440643,
        0.14416193962097168,
        0.10675930976867676,
        -0.15095224976539612,
        -0.11551151424646378,
        0.05081265792250633,
        0.03941858187317848,
        0.08363991230726242,
        0.13692814111709595,
        -0.1299215406179428,
        -0.1817319244146347,
        -0.26282158493995667,
        -0.17335204780101776,
        0.14165222644805908,
        0.04623519256711006,
        -0.1259094625711441,
        -0.07839226722717285,
        -0.05600233003497124,
        -0.16669580340385437,
        -0.058806974440813065,
        0.04254002124071121,
        0.1872614622116089,
        -0.17777378857135773,
        0.11461523920297623,
        0.2765327990055084,
        0.019022084772586823,
        -0.1476544290781021,
        -0.2892914116382599,
        -0.04654601588845253,
        0.2713313698768616,
        -0.031359195709228516,
        -0.23442858457565308,
        -0.15949100255966187,
        0.12852932512760162,
        0.06081647425889969,
        -0.08845216780900955,
        0.16728541254997253,
        -0.2508755624294281,
        0.17541398108005524,
        -0.17285606265068054,
        -0.0364307165145874,
        -0.006635915953665972,
        -0.13441601395606995,
        -0.03786744549870491,
        -0.16488181054592133,
        0.14494425058364868,
        0.11577176302671432,
        -0.08442093431949615,
        0.2008180320262909,
        -0.1065530851483345,
        -0.05837535485625267,
        -0.16788749396800995,
        -0.026963351294398308,
        -0.03801623359322548,
        0.17520681023597717,
        0.07602312415838242,
        -0.06489202380180359,
        0.015131342224776745,
        0.10585172474384308,
        -0.03829319775104523,
        -0.6231158375740051,
        -0.6657633781433105,
        -0.026122644543647766,
        0.2090398073196411,
        -0.10387372970581055,
        0.022776838392019272,
        -0.005946938414126635,
        0.07875000685453415,
        0.05904964357614517,
        0.07351186126470566,
        -0.1085110753774643,
        0.08515742421150208,
        -0.22300134599208832,
        -0.047857340425252914,
        -0.09463902562856674,
        0.023843368515372276,
        -0.02587934397161007,
        0.057798489928245544,
        -0.008111441507935524,
        0.08413469046354294,
        0.20544885098934174,
        0.1563292145729065,
        0.17425675690174103,
        -0.11287574470043182,
        0.2982928454875946,
        0.10992760956287384,
        0.2344711571931839,
        0.05910497158765793,
        -0.041756223887205124,
        -0.02016453631222248,
        -0.04917265847325325,
        -0.15870298445224762,
        -0.11061457544565201,
        0.056007299572229385,
        -0.05312948301434517,
        -0.2656443417072296,
        0.07388854771852493,
        -0.06033819541335106,
        -0.09656607359647751,
        -0.051599614322185516,
        0.12315243482589722,
        0.05889391154050827,
        -0.13905267417430878,
        0.16477207839488983,
        0.1364554613828659,
        -0.3166365623474121,
        0.08549322932958603,
        -0.0681450292468071,
        0.24878838658332825,
        -0.4225408136844635,
        -0.17315486073493958,
        -0.016446515917778015,
        0.1687278300523758,
        -0.12196280062198639,
        -0.09840710461139679,
        0.1333073377609253,
        0.11165904253721237,
        -0.19487161934375763,
        0.07129058986902237,
        0.14053769409656525,
        -0.040659043937921524,
        0.09432010352611542,
        -0.08061423897743225,
        -0.294384241104126,
        -0.23404087126255035,
        0.16075929999351501,
        0.08828506618738174,
        -0.05457356199622154,
        0.07058533281087875,
        -0.07932797074317932,
        -0.2938900887966156,
        0.24241383373737335,
        0.002936118980869651,
        0.24219730496406555,
        -0.10380491614341736,
        0.18017132580280304,
        -0.11364313215017319,
        -0.28758132457733154,
        -0.2471998631954193,
        -0.085015669465065,
        -0.12939076125621796,
        0.12982220947742462,
        0.1434115171432495,
        -0.043870892375707626,
        -0.26317042112350464,
        -0.2788800597190857,
        0.1410750150680542,
        -0.05379558727145195,
        0.01061199139803648,
        -0.15031030774116516,
        -0.08486252278089523,
        -0.0009814846562221646,
        -0.17495959997177124,
        0.2481711506843567,
        -0.06400156021118164,
        -0.10909625887870789,
        0.016998879611492157,
        -0.0174977108836174,
        -0.28778672218322754,
        0.11925911903381348,
        -0.19067099690437317,
        0.1643507331609726,
        -0.37081536650657654,
        -0.10284184664487839,
        0.2349763959646225,
        0.13953201472759247,
        -0.27504071593284607,
        0.17279183864593506,
        -0.008328178897500038,
        0.023481138050556183,
        -0.09154534339904785,
        -0.0525597482919693,
        0.0841880813241005,
        -0.013383363373577595,
        0.1754758208990097,
        -0.12804703414440155,
        -0.43554505705833435,
        -0.08178097009658813,
        -0.06016458198428154,
        0.17977742850780487,
        0.13985717296600342,
        0.1594989150762558,
        -0.05998265743255615,
        -0.0811583399772644,
        -0.1328025907278061,
        0.14239203929901123,
        0.13121111690998077,
        0.13430693745613098,
        -0.13291794061660767,
        -0.3558652102947235,
        0.06270090490579605,
        -0.13685612380504608,
        0.00866520032286644,
        0.20933078229427338,
        0.22340364754199982,
        -0.0859307050704956,
        0.02586023323237896,
        0.044874414801597595,
        -0.12273252755403519,
        -0.12522011995315552,
        0.12515366077423096,
        -0.17679744958877563,
        -0.4985412657260895,
        -0.005797609221190214,
        -0.19486026465892792,
        -0.1904885470867157,
        -0.21101398766040802,
        -0.11520670354366302,
        -0.044301263988018036,
        -0.05862922593951225,
        -0.11598655581474304,
        -0.014940052293241024,
        -0.23278550803661346,
        0.033336080610752106,
        0.19030684232711792,
        0.09048359841108322,
        0.219923198223114,
        0.03730723261833191,
        0.07494810223579407,
        0.013028324581682682,
        0.04285312443971634,
        0.05048853158950806,
        0.07343847304582596,
        -0.31469449400901794,
        -0.1634027063846588,
        0.11190473288297653,
        -0.05467553436756134,
        -0.2500404417514801,
        0.27485185861587524,
        -0.09236829727888107,
        -0.188849076628685,
        -0.1919705718755722,
        -0.12708932161331177,
        -0.09474532306194305,
        0.10089793056249619,
        0.1776612251996994,
        0.0224118921905756,
        -0.09299782663583755,
        0.07453850656747818,
        -0.03230242058634758,
        0.09345459938049316,
        0.024348175153136253,
        0.13807620108127594,
        0.16766926646232605,
        0.17266878485679626,
        -0.11486474424600601,
        -0.19982966780662537,
        -0.016238322481513023,
        0.2461613416671753,
        -0.1792493313550949,
        -0.04740762338042259,
        0.09345033019781113,
        0.19706183671951294,
        0.19628065824508667,
        0.02191590890288353,
        0.0048080915585160255,
        -0.043914150446653366,
        0.0004923158558085561,
        0.06189020350575447,
        -0.16166575253009796,
        -0.04189136624336243,
        0.27021485567092896,
        -0.16702935099601746,
        -0.013888318091630936,
        -0.11754067987203598,
        -0.1291031390428543,
        -0.17731109261512756,
        0.07864781469106674,
        -0.040994975715875626,
        -0.08032692223787308,
        0.18806016445159912,
        -0.13596200942993164,
        -0.009553724899888039,
        0.07851944118738174,
        -0.21389779448509216,
        -0.04666147381067276,
        -0.14161835610866547,
        0.24239304661750793,
        -0.0035227378830313683,
        -0.04040885716676712,
        0.18609055876731873,
        0.04578770324587822,
        -0.005655311048030853,
        -0.10999545454978943,
        -0.09477628767490387,
        -0.05425411835312843,
        0.19170257449150085,
        -0.2560979723930359,
        0.22233548760414124,
        0.23965784907341003,
        0.0979933813214302,
        0.017945874482393265,
        -0.0792381539940834,
        0.1940477341413498,
        0.06505107134580612,
        -0.14011350274085999,
        0.02792183868587017,
        0.10315749049186707,
        -0.015963733196258545,
        -0.10272785276174545,
        0.20309457182884216,
        0.0013855502475053072,
        -0.13510367274284363,
        -0.132011279463768,
        -0.2439442127943039,
        0.16958723962306976,
        -0.08933048695325851,
        0.03316092491149902,
        -0.06954819709062576,
        -0.14123590290546417,
        -0.13675282895565033,
        -0.004648033995181322,
        0.05125066637992859,
        0.22944335639476776,
        0.15356145799160004,
        -0.16969893872737885,
        -0.1756776124238968,
        -0.12748971581459045,
        0.045160576701164246,
        -0.043961234390735626,
        -0.14452967047691345,
        -0.26162439584732056,
        -0.1565849781036377,
        -0.006349588744342327,
        0.17630286514759064,
        0.02789623849093914,
        0.2142162024974823,
        -0.22638729214668274,
        -0.2375258356332779,
        0.1724051535129547,
        -0.1346600502729416,
        -0.16020388901233673,
        0.2957826852798462,
        0.08705900609493256,
        -0.11308824270963669,
        0.2276069074869156,
        0.31886011362075806,
        -0.11893051117658615,
        -0.04489230364561081,
        0.14757134020328522,
        -0.11543162912130356,
        0.20400689542293549,
        -0.18298155069351196,
        -0.08719729632139206,
        -0.014186188578605652,
        0.006975128781050444,
        -0.1670595109462738,
        -0.06818318367004395,
        -0.027908138930797577,
        0.09404001384973526,
        -0.03590208664536476,
        0.15084855258464813,
        -0.021052083000540733,
        -0.07087013125419617,
        -0.1295672506093979,
        -0.2001938670873642,
        -0.2218538075685501,
        -0.26180413365364075,
        -0.008356324397027493,
        0.13145558536052704,
        -0.09547372907400131,
        0.11606597900390625,
        -0.15768666565418243,
        0.06373714655637741,
        0.24188882112503052,
        -0.19093146920204163,
        0.17865236103534698,
        0.06482958048582077,
        0.019084997475147247,
        -0.1043081283569336,
        0.14149722456932068,
        -0.09196250885725021,
        -0.09656931459903717,
        0.29067233204841614,
        0.2565743029117584,
        0.17054252326488495,
        -0.08224256336688995,
        0.068008191883564,
        -0.022362854331731796,
        0.018250761553645134,
        0.05731657147407532,
        -0.2506297528743744,
        0.007604263257235289,
        0.18559876084327698,
        0.022780153900384903,
        -0.44287601113319397,
        0.06341305375099182,
        -0.10295462608337402,
        -0.20180971920490265,
        0.17072787880897522,
        0.026287371292710304,
        0.04715011268854141,
        -0.036800846457481384,
        -0.14809544384479523,
        -0.3295087218284607,
        0.23622073233127594,
        0.06199807673692703,
        -0.03383036330342293,
        -0.04107126221060753,
        0.24674275517463684,
        -0.18463388085365295,
        0.24845489859580994,
        -0.028538379818201065,
        0.11070369184017181,
        -0.17955639958381653,
        -0.022201327607035637,
        0.025762364268302917,
        0.19317269325256348,
        0.24292929470539093,
        0.004203122574836016,
        -0.13127249479293823,
        0.16783563792705536,
        0.15322770178318024,
        0.03347092494368553,
        0.06368188560009003,
        -0.23711703717708588,
        -0.2115461230278015,
        0.24821294844150543,
        -0.05161074921488762,
        0.15061037242412567,
        -0.06682179868221283,
        0.08588609844446182,
        -0.2740974426269531,
        0.2867051959037781,
        -0.03180401772260666,
        -0.02967935800552368,
        -0.04062298685312271,
        0.06401898711919785,
        -0.015918586403131485,
        -0.21621045470237732,
        0.17434442043304443,
        -0.18722498416900635,
        -0.11493854224681854,
        -0.25207993388175964,
        -0.022545304149389267,
        0.17469950020313263,
        0.029491335153579712,
        -0.0761774331331253,
        0.009082270786166191,
        0.21130096912384033,
        -0.003006512066349387,
        0.08972377330064774,
        0.015078027732670307,
        -0.025066813454031944,
        -0.16706785559654236,
        -0.23127037286758423,
        -0.014037612825632095,
        0.13782264292240143,
        0.08978739380836487,
        -0.03332824632525444,
        -0.18614855408668518,
        -0.12987753748893738,
        -0.02125556766986847,
        0.04101010039448738,
        0.20263759791851044,
        0.17010769248008728,
        -0.04714806005358696,
        -0.07896694540977478,
        0.22027380764484406,
        0.14106221497058868,
        0.1653469055891037,
        -0.139590784907341,
        -0.1358577460050583,
        -0.16295790672302246,
        0.30510830879211426,
        -0.26194286346435547,
        0.1552225649356842,
        0.06585464626550674,
        0.06512702256441116,
        0.23652857542037964,
        0.12975236773490906,
        0.1414092779159546,
        -0.28073203563690186,
        -0.1398015022277832,
        -0.10100718587636948,
        -0.10358621180057526,
        -0.07718212157487869,
        -0.12211010605096817,
        -0.28655165433883667,
        -0.1527581810951233,
        -0.20448718965053558,
        -0.1496654599905014,
        -0.03739264979958534,
        0.022568130865693092,
        0.2255987972021103,
        0.1198570728302002,
        -0.15776659548282623,
        -0.2526436746120453,
        -0.16909585893154144,
        -0.09333444386720657,
        -0.13975536823272705,
        0.19294732809066772,
        -0.06820115447044373,
        0.05099296197295189,
        -0.26450902223587036,
        0.048482514917850494,
        -0.13103316724300385,
        0.1709655225276947,
        0.051944565027952194,
        0.11591093242168427,
        0.3065457046031952,
        -0.0396202951669693,
        0.13452014327049255,
        -0.28432461619377136,
        0.2534603774547577,
        0.06319542229175568,
        -0.08264462649822235,
        0.14741793274879456,
        0.1835460215806961,
        -0.016648706048727036,
        -0.019930493086576462,
        -0.01448286883533001,
        -0.1792813390493393,
        0.1760360449552536,
        -0.41625162959098816,
        -0.1864866465330124,
        0.13885971903800964,
        -0.008154363371431828,
        0.14809530973434448,
        0.1340688019990921,
        0.0013396646827459335,
        0.10853517800569534,
        0.1762230098247528,
        -0.1209774911403656,
        0.08012876659631729,
        -0.21257026493549347,
        -0.4658574163913727,
        0.1916268914937973,
        0.13635697960853577,
        -0.06355828791856766,
        0.00821605697274208,
        0.047363825142383575,
        -0.15067382156848907,
        0.03496212884783745,
        0.15988987684249878,
        -0.08145139366388321,
        -0.09789783507585526,
        -0.002972267335280776,
        -0.10163907706737518,
        0.013424734584987164,
        -0.11691458523273468,
        -0.05647249147295952,
        -0.3891089856624603,
        0.15922482311725616,
        -0.00612302590161562,
        -0.15841342508792877,
        0.2195136696100235,
        -0.05879468470811844,
        -0.06816450506448746,
        0.1703413724899292,
        0.09343946725130081,
        0.14823311567306519,
        -0.5089054703712463,
        -0.031516171991825104,
        0.018387211486697197,
        -0.07348775863647461,
        -0.15801481902599335,
        -0.08194129914045334,
        -0.038959257304668427,
        0.17519761621952057,
        0.20439068973064423,
        0.270504891872406,
        0.02117224782705307,
        -0.1946655809879303,
        -0.13216936588287354,
        0.06298279017210007,
        -0.1594783067703247,
        -0.15306241810321808,
        0.1814555823802948,
        0.008333819918334484,
        -0.14434176683425903,
        0.017969025298953056,
        0.0026779964100569487,
        0.054562557488679886,
        -0.2524554133415222,
        0.004147902596741915,
        0.2014954686164856,
        -0.3673946261405945,
        -0.03988377004861832,
        0.051805321127176285,
        0.06074843183159828,
        -0.1662403792142868,
        -0.03911761939525604,
        0.15370658040046692,
        -0.17158806324005127,
        -0.24551518261432648,
        0.12398317456245422,
        0.008233170956373215,
        0.14199046790599823,
        0.02228504791855812,
        -0.029962999746203423,
        0.17694006860256195,
        -0.09023061394691467,
        -0.005096857436001301,
        -0.05888083577156067,
        0.04519621282815933,
        0.07528862357139587,
        0.232407808303833,
        0.20589785277843475,
        0.051016971468925476,
        0.07828571647405624,
        0.03645066171884537,
        0.003081678645685315,
        -0.147301584482193,
        0.060923680663108826,
        0.25617483258247375,
        0.033937614411115646,
        -0.14142654836177826,
        0.024161938577890396,
        0.07971420139074326,
        -0.16058215498924255,
        0.15228988230228424,
        -0.02515513263642788,
        0.16187992691993713,
        0.23794764280319214,
        -0.19733299314975739,
        0.20305326581001282,
        -0.24388067424297333,
        0.03228097781538963,
        -0.09000083804130554,
        0.0689445212483406,
        0.1620168685913086,
        -0.13799408078193665,
        -0.20055395364761353,
        0.08181530982255936,
        -0.08530403673648834,
        0.05915166437625885,
        0.008782356977462769,
        -0.23911800980567932,
        -0.1454096883535385,
        -0.17781361937522888,
        -0.2266232967376709,
        0.19928796589374542,
        -0.13527968525886536,
        -0.21341869235038757,
        -0.13408300280570984,
        -0.15932169556617737,
        0.03735165297985077,
        -0.16019631922245026,
        -0.14330632984638214,
        -0.331486314535141,
        0.2836649715900421,
        -0.17781682312488556,
        0.027676314115524292,
        0.2142280489206314,
        -0.06738672405481339,
        -0.09182819724082947,
        0.010854111984372139,
        0.05562923848628998,
        -0.17270830273628235,
        -0.0534314289689064,
        -0.24042600393295288,
        0.1768285185098648,
        0.0770096406340599,
        -0.0386158749461174,
        0.28094547986984253,
        -0.0017501343972980976,
        0.16577689349651337,
        -0.0630902424454689,
        0.10201612859964371,
        0.143550306558609,
        -0.1150682121515274,
        -0.18862150609493256,
        0.17574161291122437,
        0.08713704347610474,
        0.0125713050365448,
        0.05540946498513222,
        -0.07671231776475906,
        0.09966481477022171,
        0.24129627645015717,
        0.19650021195411682,
        -0.3605540096759796,
        0.05626268312335014,
        0.25461071729660034,
        -0.07801961153745651,
        -0.22693471610546112,
        -0.24359168112277985,
        -0.06713952124118805,
        0.16439324617385864,
        0.07858080416917801,
        0.3068317174911499,
        0.14249004423618317,
        -0.12939764559268951,
        -0.17642340064048767,
        -0.048254210501909256,
        0.12008519470691681,
        0.05826525390148163,
        0.3032880425453186,
        0.01465018279850483,
        -0.1384461373090744,
        -0.03037169575691223,
        0.06474825739860535,
        -0.05876609683036804,
        0.15211182832717896,
        -0.025569399818778038,
        -0.15510079264640808,
        -0.17169709503650665,
        0.016506332904100418,
        0.2051667720079422,
        0.08287440240383148,
        0.3176417648792267,
        -0.1437455713748932,
        -0.2295040637254715,
        0.04869513958692551,
        -0.12058667093515396,
        -0.2470199167728424,
        -0.08761724084615707,
        0.23492462933063507,
        0.06745396554470062,
        0.015089436434209347,
        0.1396891474723816,
        -0.051766280084848404,
        -0.11619002372026443,
        0.03299076855182648,
        0.12220191955566406,
        0.18732382357120514,
        -0.0719153955578804,
        0.20366854965686798,
        0.16281799972057343,
        -0.11732199788093567,
        0.0035567362792789936,
        -0.4348200857639313,
        -0.06882691383361816,
        -0.13483946025371552,
        -0.2832106947898865,
        0.06743090599775314,
        0.07679854333400726,
        0.20722869038581848,
        -0.04339225962758064,
        0.00837953295558691,
        0.20045341551303864,
        -0.4700814187526703,
        0.2338378131389618,
        -0.14180386066436768,
        -0.1423245370388031,
        0.057733044028282166,
        7.887302490416914e-05,
        0.05595330521464348,
        0.08579998463392258,
        -0.03428772836923599,
        -0.06271093338727951,
        0.20732052624225616,
        0.07334398478269577,
        0.21157614886760712,
        -0.13766467571258545,
        0.06720851361751556,
        0.1461709588766098,
        -0.2445332109928131,
        0.07874041795730591,
        0.1700447052717209,
        -0.217075377702713,
        0.24286280572414398,
        -0.3187299966812134,
        -0.007030140608549118,
        0.08810742199420929,
        0.14734946191310883,
        -0.010700765997171402,
        -0.16298776865005493,
        0.14214223623275757,
        0.1247059777379036,
        0.24651530385017395,
        -0.10418739169836044,
        0.1948050856590271,
        0.11267852783203125,
        -0.0667591542005539,
        0.04559076204895973,
        -0.13816069066524506,
        0.11219040304422379,
        -0.11495741456747055,
        -0.38828688859939575,
        0.01068883202970028,
        0.2376055270433426,
        -0.064727284014225,
        0.06386464089155197,
        -0.2070770561695099,
        -0.003893689252436161,
        -0.20448482036590576,
        0.0557839572429657,
        -0.145165354013443,
        0.09237997978925705,
        -0.05929744243621826,
        -0.1843029409646988,
        0.03381013870239258,
        -0.1567482203245163,
        -0.06305357068777084,
        0.10460416227579117,
        -0.18146532773971558,
        -0.10682488977909088,
        0.10394207388162613,
        -0.05238714441657066,
        -0.037571780383586884,
        -0.24081206321716309,
        0.10518231242895126,
        -0.14398157596588135,
        0.20603305101394653,
        0.1402258723974228,
        0.3177284598350525,
        0.17882482707500458,
        -0.24427904188632965,
        -0.010538927279412746,
        0.042848363518714905,
        0.3330758810043335,
        0.15385454893112183,
        0.048965923488140106,
        0.14853060245513916,
        0.2180115282535553,
        -0.07665414363145828,
        0.12912200391292572,
        0.12586337327957153,
        -0.26096460223197937,
        -0.060432154685258865,
        -0.0279069896787405,
        -0.1803961992263794,
        -0.03614967688918114,
        -0.26516130566596985,
        0.14741511642932892,
        -0.052475929260253906,
        -0.13184219598770142,
        0.20276004076004028,
        -0.014642853289842606,
        -0.027536775916814804,
        -0.08010917901992798,
        -0.1051073744893074,
        -0.1964612901210785,
        -0.19261403381824493,
        0.13302795588970184,
        0.1813773363828659,
        0.16066701710224152,
        0.18174885213375092,
        -0.10178416222333908,
        0.0896281823515892,
        0.25111132860183716,
        -0.18310220539569855,
        0.1076958179473877,
        -0.011704031378030777,
        0.09162218123674393,
        0.03585803136229515,
        -0.029945705085992813,
        0.27322661876678467,
        0.1768588274717331,
        -0.10531129688024521,
        0.08448672294616699,
        0.0022363734897226095,
        -0.04325895383954048,
        0.25051289796829224,
        -0.18599769473075867,
        -0.21320822834968567,
        0.2797074317932129,
        -0.07643991708755493,
        -0.0349854975938797,
        -0.18255063891410828,
        -0.09569766372442245,
        0.07944870740175247,
        -0.008814346976578236,
        0.18190298974514008,
        -0.09139188379049301,
        0.1072893738746643,
        -0.2097899615764618,
        -0.01968013122677803,
        -0.36865103244781494,
        0.06565918028354645,
        0.004329543095082045,
        0.17442727088928223,
        -0.07004717737436295,
        0.09773076325654984,
        0.04560042545199394,
        0.0502210408449173,
        0.20929011702537537,
        0.008150413632392883,
        0.12597227096557617,
        0.17100709676742554,
        -0.3080403804779053,
        -0.13860392570495605,
        0.013439415022730827,
        -0.09567242115736008,
        -0.12962345778942108,
        -0.026324765756726265,
        0.0789555013179779,
        -0.17060457170009613,
        0.21887731552124023,
        0.12000909447669983,
        -0.17827492952346802,
        0.22438153624534607,
        -0.03921780362725258,
        0.18488304316997528,
        0.0874328538775444,
        -0.04474316164851189,
        0.12723083794116974,
        -0.2521953582763672,
        -0.0905441865324974,
        -0.18250800669193268,
        0.05111173540353775,
        0.018719414249062538,
        -0.07547309249639511,
        -0.03301586955785751,
        0.17604054510593414,
        0.0005742505309171975,
        -0.05534578487277031,
        0.053611189126968384,
        0.07042161375284195,
        -0.28435811400413513,
        -0.031029313802719116,
        -0.2939080595970154,
        -0.1492905616760254,
        -0.14547303318977356,
        -0.18634732067584991,
        0.22023560106754303,
        -0.05438137426972389,
        -0.1771184802055359,
        0.2722533643245697,
        -0.14666904509067535,
        0.2458590865135193,
        0.1886429488658905,
        -0.038395822048187256,
        0.05356839299201965,
        0.08440469950437546,
        -0.08667313307523727,
        0.01372565422207117,
        0.00017917902732733637,
        0.004822310991585255,
        0.06189833953976631,
        -0.04724162071943283,
        0.06148581579327583,
        -0.08187104016542435,
        -0.122879259288311,
        -0.008211380802094936,
        -0.05466736853122711,
        -0.2507384717464447,
        0.14389221370220184,
        -0.029147759079933167,
        0.15203019976615906,
        0.12905757129192352,
        0.053722016513347626,
        0.1147349625825882,
        -0.13100068271160126,
        0.27147409319877625,
        -0.20768281817436218,
        0.008329244330525398,
        0.20188091695308685,
        -0.2691960334777832,
        0.23214584589004517,
        -0.094754658639431,
        -0.14095915853977203,
        0.040906697511672974,
        -0.1987450122833252,
        -0.04237334057688713,
        -0.008882955648005009,
        0.16233280301094055,
        0.12839922308921814,
        0.1858990639448166,
        -0.1519007384777069,
        -0.1274314820766449,
        0.11019647121429443,
        -0.014354810118675232,
        0.15178334712982178,
        0.07917477935552597,
        -0.14666806161403656,
        -0.08213279396295547,
        -0.3483724296092987,
        -0.08191374689340591,
        -0.2486213892698288,
        0.0050575267523527145,
        -0.013833071105182171,
        0.23024287819862366,
        -0.16525901854038239,
        0.06828092783689499,
        0.2684924602508545,
        0.18875180184841156,
        0.14528505504131317,
        -0.11284072697162628,
        0.024104494601488113,
        -0.27564436197280884,
        -0.07659035176038742,
        -0.00644550658762455,
        0.16091875731945038,
        0.13488373160362244,
        -0.2393345832824707,
        0.09267809242010117,
        -0.09381328523159027,
        0.04308030754327774,
        -0.17469123005867004,
        -0.03052915260195732,
        0.07941756397485733,
        0.14698265492916107,
        0.260090708732605,
        0.013225505128502846,
        -0.11103066802024841,
        -0.012020235881209373,
        -0.1399068683385849,
        -0.08458248525857925,
        0.03270275890827179,
        0.013404824770987034,
        0.03412918746471405,
        0.059530362486839294,
        0.12066266685724258,
        -0.2502318024635315,
        0.13796083629131317,
        0.059306416660547256,
        -0.17864486575126648,
        0.12724560499191284,
        -0.1599196195602417,
        0.07863003760576248,
        0.08655272424221039,
        0.20300287008285522,
        -0.0613800473511219,
        -0.28015148639678955,
        0.22384311258792877,
        0.25054606795310974,
        0.22508102655410767,
        0.09919968992471695,
        0.19497579336166382,
        0.09527140110731125,
        0.029595106840133667,
        -0.14661215245723724,
        -0.05018707737326622,
        -0.26555442810058594,
        -0.18926507234573364,
        0.03428993746638298,
        -0.140081986784935,
        -0.043353889137506485,
        -0.22595971822738647,
        -0.17892487347126007,
        0.30161723494529724,
        0.024120911955833435,
        0.0662967637181282,
        -0.018742680549621582,
        0.037507232278585434,
        -0.1549016386270523,
        -0.22838103771209717,
        -0.12568271160125732,
        0.22522880136966705,
        -0.21719345450401306,
        0.21466831862926483,
        0.23029109835624695,
        0.13220030069351196,
        -0.15974463522434235,
        -0.06571852415800095,
        0.18159504234790802,
        -0.03491044044494629,
        0.06134349852800369,
        0.15202602744102478,
        0.15425021946430206,
        -0.12573544681072235,
        -0.25172680616378784,
        -0.11212325096130371,
        0.0727170780301094,
        0.18942216038703918,
        -0.021638594567775726,
        -0.07496053725481033,
        0.04926668852567673,
        0.1427178531885147,
        0.0032297680154442787,
        -0.018582448363304138,
        0.054824408143758774,
        0.10747016966342926,
        0.06066393852233887,
        -0.3678818345069885,
        0.18230357766151428,
        -0.014327319338917732,
        -0.008884002454578876,
        -0.03722815215587616,
        0.01689295843243599,
        0.1362447589635849,
        0.10676345229148865,
        0.07035122811794281,
        -0.015388738363981247,
        -0.19681738317012787,
        -0.10491366684436798,
        -0.24807298183441162,
        -0.18259453773498535,
        -0.003204123582690954,
        0.10862234234809875,
        -0.18427608907222748,
        0.10278244316577911,
        0.08614630997180939,
        -0.03266489878296852,
        -0.04800991714000702,
        -0.13221432268619537,
        0.19964155554771423,
        0.17267917096614838,
        -0.11549784243106842,
        -0.030467545613646507,
        0.13143160939216614,
        0.23792225122451782,
        0.2977491617202759,
        -0.06304588913917542,
        -0.0904175415635109,
        0.2636757493019104,
        0.03271320089697838,
        -0.3518049120903015,
        0.04744337499141693,
        0.15705622732639313,
        -0.12054803967475891,
        -0.37453508377075195,
        -0.08677586913108826,
        0.042364247143268585,
        0.14591215550899506,
        0.010561484843492508,
        -0.06399983912706375,
        -0.009313534013926983,
        -0.09924107789993286,
        0.08294365555047989,
        -0.07909643650054932,
        0.23321563005447388,
        -0.107463039457798,
        0.17826905846595764,
        0.1489631086587906,
        -0.12546378374099731,
        -0.15507762134075165,
        -0.036056771874427795,
        -0.05094536021351814,
        -0.027102630585432053,
        0.19984181225299835,
        0.12947522103786469,
        0.06920354813337326,
        -0.2380305528640747,
        0.11403682082891464,
        0.024503031745553017,
        -0.03214222937822342,
        -0.10643377900123596,
        -0.17600984871387482,
        0.1608680933713913,
        0.016671672463417053,
        0.15090516209602356,
        0.10348846018314362,
        -0.10135538130998611,
        -0.23993375897407532,
        -0.044272687286138535,
        -0.25528669357299805,
        0.19740666449069977,
        0.04750213772058487,
        -0.034769367426633835,
        -0.25853583216667175,
        -0.044752541929483414,
        0.09066142141819,
        -0.09917059540748596,
        0.003911150153726339,
        0.09299973398447037,
        -0.0118777547031641,
        -0.3199748694896698,
        -0.020582277327775955,
        0.034622643142938614,
        0.012845941819250584,
        0.09061788022518158,
        0.12140242010354996,
        -0.1859038919210434,
        -0.31637629866600037,
        -0.1413765698671341,
        -0.2058025598526001,
        -0.23411275446414948,
        -0.0726943239569664,
        -0.26622840762138367,
        -0.3355672061443329,
        0.0830102264881134,
        -0.16515959799289703,
        0.2560805678367615,
        -0.20695887506008148,
        0.15087181329727173,
        -0.16525186598300934,
        0.026929136365652084,
        0.19660887122154236,
        0.07682062685489655,
        -0.10379499942064285,
        -0.11170870065689087,
        0.016435980796813965,
        0.1298777312040329,
        -0.2349388301372528,
        -0.014634598046541214,
        0.21691067516803741,
        -0.011654636822640896,
        -0.0331425666809082,
        -0.008186349645256996,
        0.06430570036172867,
        -0.21754734218120575,
        0.05017713084816933,
        -0.3687695264816284,
        0.0578983798623085,
        0.02218497358262539,
        0.1782727986574173,
        -0.049778860062360764,
        0.01300637237727642,
        0.09236621111631393,
        0.054457832127809525,
        -0.21553821861743927,
        0.09641484916210175,
        -0.04615257680416107,
        -0.3002837896347046,
        -0.2612239420413971,
        -0.04024052619934082,
        -0.0724240243434906,
        -0.03461553901433945,
        0.005796793382614851,
        -0.10714278370141983,
        0.1846015751361847,
        -0.23558372259140015,
        0.15228359401226044,
        -0.07455381006002426,
        0.019428908824920654,
        -0.0028635507915169,
        0.062001634389162064,
        -0.1638602912425995,
        0.24026556313037872,
        0.2094896137714386,
        -0.08725938946008682,
        0.16683319211006165,
        -0.1452428698539734,
        0.10652053356170654,
        -0.08109576255083084,
        -0.036629896610975266,
        0.19175007939338684,
        -0.060120612382888794,
        0.3268892467021942,
        -0.2291882038116455,
        -0.18786688148975372,
        -0.10761392116546631,
        -0.11591027677059174,
        -0.12200955301523209,
        -0.01281830295920372,
        0.28596678376197815,
        0.009807145223021507,
        -0.10624907165765762,
        0.09317686408758163,
        0.07165724039077759,
        0.06874223053455353,
        0.08816756308078766,
        0.18553702533245087,
        0.03663792088627815,
        0.2374647557735443,
        0.13998280465602875,
        -0.0961182564496994,
        -0.17969399690628052,
        0.07142026722431183,
        -0.1520776003599167,
        0.31961140036582947,
        0.2658485472202301,
        0.013977785594761372,
        -0.11606350541114807,
        0.18906643986701965,
        0.1052066907286644,
        0.022681521251797676,
        -0.26618558168411255,
        0.1709013730287552,
        0.1779462695121765,
        0.19746458530426025,
        -0.11340762674808502,
        0.03498454764485359,
        0.05190559849143028,
        0.03840367868542671,
        0.11002842336893082,
        0.03402040898799896,
        -0.06895069777965546,
        -0.011225110851228237,
        0.23277950286865234,
        -0.10115185379981995,
        -0.1297522783279419,
        0.08989381790161133,
        -0.16022688150405884,
        0.18137910962104797,
        0.18956471979618073,
        -0.05307146906852722,
        -0.18221604824066162,
        -0.05021828040480614,
        -0.42854392528533936,
        -0.18168115615844727,
        -0.0902043953537941,
        0.08853692561388016,
        -0.004879881162196398,
        -0.08892174810171127,
        -0.010649262927472591,
        0.148720845580101,
        -0.14475403726100922,
        -0.658828616142273,
        -0.2254231870174408,
        0.2256489396095276,
        -0.08187930285930634,
        -0.10459060966968536,
        -0.11050684750080109,
        0.026394443586468697,
        0.02678239904344082,
        0.044590774923563004,
        0.031444042921066284,
        0.2020280957221985,
        -0.046514950692653656,
        0.03413388878107071,
        0.020379595458507538,
        0.03849799558520317,
        0.059535857290029526,
        0.11232578754425049,
        0.15505345165729523,
        -0.16141988337039948,
        0.011249573901295662,
        -0.02964738942682743,
        0.1914633810520172,
        0.0701741874217987,
        -0.05481087416410446,
        -0.15234389901161194,
        -0.03055890090763569,
        -0.08442732691764832,
        -0.15770745277404785,
        -0.07470683008432388,
        -0.04686180502176285,
        0.06681443750858307,
        0.07464698702096939,
        0.11406440287828445,
        -0.06921394914388657,
        -0.04950173199176788,
        0.12905895709991455,
        0.024568479508161545,
        0.22318176925182343,
        -0.3500373661518097,
        -0.005351472645998001,
        0.11862009018659592,
        0.11891202628612518,
        0.11521510779857635,
        -0.008664724417030811,
        0.17147421836853027,
        -0.27076804637908936,
        -0.18015056848526,
        0.026693537831306458,
        0.08131146430969238,
        -0.05453915521502495,
        -0.2772787809371948,
        -0.07219554483890533,
        0.04564426466822624,
        0.15254901349544525,
        -0.14057858288288116,
        -0.058056849986314774,
        -0.17612028121948242,
        -0.04964394122362137,
        0.041469600051641464,
        0.2072705775499344,
        0.0836833268404007,
        0.18007192015647888,
        0.04581467807292938,
        0.19718417525291443,
        -0.17377744615077972,
        -0.18138892948627472,
        -0.00752485916018486,
        0.1667209267616272,
        0.06454930454492569,
        -0.0166071355342865,
        -0.06655526161193848,
        0.14734530448913574,
        -0.2075720578432083,
        -0.017059730365872383,
        0.21624943614006042,
        0.10725615173578262,
        0.09757594764232635,
        -0.15656046569347382,
        0.06653211265802383,
        -0.22645317018032074,
        -0.022975362837314606,
        -0.09973964095115662,
        -0.11827511340379715,
        -0.043421387672424316,
        -0.15013070404529572,
        -0.16496491432189941,
        0.20910438895225525,
        -0.05689394474029541,
        0.03562299907207489,
        0.0923885926604271,
        0.08568545430898666,
        0.270962119102478,
        -0.10222113132476807,
        0.1401115357875824,
        -0.18887080252170563,
        -0.19195009768009186,
        -0.07537553459405899,
        -0.09745826572179794,
        -0.02754093147814274,
        0.15714959800243378,
        -0.23365667462348938,
        -0.034134574234485626,
        -0.16655878722667694,
        0.10718949139118195,
        0.26802191138267517,
        0.13931086659431458,
        -0.057949163019657135,
        0.05848618596792221,
        -0.20942477881908417,
        0.19276107847690582,
        0.14346244931221008,
        0.1372414529323578,
        0.2213730663061142,
        -0.16622015833854675,
        0.10448046773672104,
        0.13412761688232422,
        0.19497081637382507,
        0.18948999047279358,
        -0.060221098363399506,
        -0.07854193449020386,
        0.02156485989689827,
        -0.08003618568181992,
        -0.45566990971565247,
        -0.22721531987190247,
        0.003465699963271618,
        -0.014584596268832684,
        0.020105542615056038,
        -0.07597967982292175,
        0.07652074098587036,
        0.06384875625371933,
        0.12382754683494568,
        0.2574297785758972,
        -0.061596501618623734,
        0.2510667145252228,
        -0.0008955964585766196,
        0.17400194704532623,
        -0.05919822305440903,
        -0.003606250276789069,
        -0.03855520486831665,
        -0.015205730684101582,
        0.16854815185070038,
        -0.05483655631542206,
        -0.1923583298921585,
        0.10369108617305756,
        0.21075549721717834,
        0.043834198266267776,
        0.19251570105552673,
        0.18236523866653442,
        -0.001874326728284359,
        0.16607803106307983,
        -0.021653462201356888,
        -0.0051024374552071095,
        0.14443381130695343,
        -0.09753131866455078,
        -0.21084484457969666,
        -0.10883697122335434,
        0.08324276655912399,
        -0.14290295541286469,
        0.19066829979419708,
        0.1624714881181717,
        0.0395221933722496,
        -0.19699148833751678,
        -0.006413424387574196,
        0.07200787961483002,
        0.056570302695035934,
        -0.3962804973125458,
        0.23237773776054382,
        0.23171629011631012,
        -0.19617411494255066,
        -0.08959818631410599,
        0.011124960146844387,
        0.13702088594436646,
        0.03640338033437729,
        -0.04700561985373497,
        0.011910587549209595,
        0.07726415246725082,
        0.08108364045619965,
        0.11276202648878098,
        0.2428651601076126,
        0.26934096217155457,
        -0.16026535630226135,
        0.19385115802288055,
        0.18366527557373047,
        0.1303958147764206,
        0.09741053730249405,
        0.04630378633737564,
        -0.02313281036913395,
        0.235089972615242,
        0.36930370330810547,
        -0.1891925185918808,
        0.1134779304265976,
        -0.07334616035223007,
        0.2741321325302124,
        0.20055709779262543,
        -0.10398784279823303,
        -0.1429877132177353,
        0.08209129422903061,
        0.02603238821029663,
        0.1358383148908615,
        0.060000866651535034,
        0.016267523169517517,
        -0.20714877545833588,
        -0.06497851014137268,
        -0.06687961518764496,
        0.1782602220773697,
        0.16282138228416443,
        -0.12889868021011353,
        -0.026537137106060982,
        0.1410026103258133,
        0.11668585240840912,
        0.016654081642627716,
        -0.08909089118242264,
        -0.26190075278282166,
        0.19474729895591736,
        -0.32245680689811707,
        0.18516696989536285,
        -0.28582635521888733,
        -0.009819232858717442,
        -0.11327613890171051,
        0.0033151800744235516,
        -0.0891152024269104,
        0.2666153013706207,
        -0.01974773034453392,
        0.1820758581161499,
        0.05207793787121773,
        0.3059629499912262,
        -0.2226751744747162,
        -0.06309807300567627,
        0.2688462436199188,
        0.018694158643484116,
        0.05388612672686577,
        0.015776440501213074,
        0.14182808995246887,
        0.0913463830947876,
        0.2750021815299988,
        -0.04011461138725281,
        -0.16322295367717743,
        -0.24478356540203094,
        0.06506434828042984,
        0.021719513460993767,
        -0.04469921067357063,
        0.033947862684726715,
        -0.1416897177696228,
        0.029221205040812492,
        -0.004510283935815096,
        0.0340147539973259,
        -0.0002519874251447618,
        -0.09374220669269562,
        0.10308333486318588,
        0.1253610998392105,
        -0.21477435529232025,
        0.051858920603990555,
        -0.35690343379974365,
        -0.2094849795103073,
        0.23936526477336884,
        0.004150028806179762,
        -0.049421992152929306,
        -0.10642563551664352,
        -0.22727586328983307,
        0.08828459680080414,
        -0.24672415852546692,
        -0.21343645453453064,
        0.21886120736598969,
        -0.17794756591320038,
        0.27959010004997253,
        -0.04914321377873421,
        0.14000609517097473,
        -0.039715442806482315,
        -0.050244126468896866,
        0.0032191763166338205,
        0.015498013235628605,
        -0.09781944751739502,
        0.012076514773070812,
        0.01592881605029106,
        -0.010638440027832985,
        0.08495352417230606,
        -0.025865687057375908,
        -0.1268349289894104,
        0.18783476948738098,
        0.040590234100818634,
        0.044686514884233475,
        0.0057974872179329395,
        -0.04729324206709862,
        0.013327255845069885,
        -0.3386191427707672,
        0.10286803543567657,
        0.05890786275267601,
        -0.25202423334121704,
        -0.06279025971889496,
        -0.1787768304347992,
        -0.007127722725272179,
        0.04813014343380928,
        -0.14331665635108948,
        0.13332809507846832,
        -0.05346732586622238,
        0.19021178781986237,
        -0.21693074703216553,
        -0.08130382001399994,
        0.12594252824783325,
        -0.009980469010770321,
        -0.12419114261865616,
        0.020763345062732697,
        -0.04673348367214203,
        -0.014120700769126415,
        0.03663242235779762,
        0.18589968979358673,
        0.14034077525138855,
        -0.07479195296764374,
        -0.27093595266342163,
        0.07960645109415054,
        0.20226295292377472,
        -0.2824786603450775,
        0.18252356350421906,
        0.2374827116727829,
        -0.1764173060655594,
        -0.16730500757694244,
        -0.1279352903366089,
        0.12793636322021484,
        -0.15612120926380157,
        0.028962524607777596,
        0.24421505630016327,
        -0.2023572474718094,
        -0.17628197371959686,
        -0.15206846594810486,
        0.1529960185289383,
        -0.5005212426185608,
        -0.03337715193629265,
        -0.0036367212887853384,
        -0.13512417674064636,
        0.023946033790707588,
        0.05355321243405342,
        -0.017719371244311333,
        -0.17383995652198792,
        -0.07215025275945663,
        0.049830228090286255,
        0.07597465813159943,
        0.27003535628318787,
        -0.11319852620363235,
        0.03428741917014122,
        -0.03064769320189953,
        0.13741913437843323,
        0.05129534751176834,
        -0.047025300562381744,
        0.17966172099113464,
        0.07350025326013565,
        -0.05343107506632805,
        -0.03710988536477089,
        -0.06237006559967995,
        -0.04414760321378708,
        -0.16824759542942047,
        -0.04177441447973251,
        -0.037013065069913864,
        0.06579010933637619,
        0.15980005264282227,
        -0.016058912500739098,
        -0.2649245262145996,
        0.2280421257019043,
        -0.024912459775805473,
        -0.11400233954191208,
        -0.11743596196174622,
        -0.1488846093416214,
        0.21326389908790588,
        -0.05721966549754143,
        0.05529359355568886,
        -0.017539216205477715,
        0.014189614914357662,
        -0.04573652520775795,
        0.07504810392856598,
        -0.11115188896656036,
        -0.012187349610030651,
        -0.03750196844339371,
        0.044156771153211594,
        0.26809021830558777,
        -0.03919794782996178,
        0.06090812757611275,
        0.06094017252326012,
        -0.030509181320667267,
        -0.15091156959533691,
        0.04584981128573418,
        0.09916094690561295,
        -0.23879610002040863,
        -0.1647511124610901,
        -0.06551303714513779,
        0.15977637469768524,
        0.1510407030582428,
        0.08945006877183914,
        0.24962086975574493,
        -0.32465338706970215,
        0.21242690086364746,
        -0.3019884526729584,
        0.08978156745433807,
        -0.24325218796730042,
        0.28764092922210693,
        -0.11590734124183655,
        0.22267860174179077,
        -0.12728065252304077,
        -0.008605322800576687,
        0.08258596062660217,
        -0.01017018873244524,
        0.058568164706230164,
        -0.05417608842253685,
        -0.21768628060817719,
        -0.027065161615610123,
        -0.10886906832456589,
        0.008346464484930038,
        0.02643401548266411,
        -0.04479316249489784,
        -0.24699296057224274,
        0.3038320243358612,
        0.2662058472633362,
        -0.0640597939491272,
        0.15688195824623108,
        -0.17522966861724854,
        0.023900771513581276,
        -0.20487788319587708,
        -0.01459308248013258,
        -0.10260596871376038,
        0.08717376738786697,
        0.10789584368467331,
        -0.14775967597961426,
        -0.08038029819726944,
        -0.14475494623184204,
        -0.41801801323890686,
        -0.0977235808968544,
        0.07186895608901978,
        -0.19738085567951202,
        -0.17365998029708862,
        0.23738321661949158,
        0.040976546704769135,
        0.012513531371951103,
        -0.30521896481513977,
        0.060627102851867676,
        0.10972724854946136,
        0.23066167533397675,
        0.13929954171180725,
        0.07539382576942444,
        -0.03476462513208389,
        0.010768041014671326,
        -0.12434222549200058,
        0.23243942856788635,
        0.01407564152032137,
        -0.16874496638774872,
        -0.05290257930755615,
        0.1776496320962906,
        -0.1900399774312973,
        -0.04663176089525223,
        0.03585556894540787,
        -0.19651168584823608,
        0.4551992416381836,
        0.18094027042388916,
        0.07122744619846344,
        0.027233188971877098,
        0.1417471021413803,
        0.11817201226949692,
        -0.029386620968580246,
        -0.16682031750679016,
        -0.09962400794029236,
        0.1450793594121933,
        -0.06416033953428268,
        -0.0005138536798767745,
        -0.060432154685258865,
        0.15020015835762024,
        0.14143377542495728,
        -0.19378291070461273,
        -0.08879268914461136,
        -0.17893417179584503,
        -0.19732415676116943,
        -0.0968572273850441,
        -0.3484134376049042,
        -0.11796918511390686,
        -0.05015737563371658,
        0.16449837386608124,
        -0.29239538311958313,
        -0.012475200928747654,
        -0.05371219292283058,
        -0.09589904546737671,
        -0.008979653008282185,
        -0.10821852087974548,
        0.19273245334625244,
        -0.11424501985311508,
        -0.03445221111178398,
        0.006223033182322979,
        -0.029185285791754723,
        -0.005575727205723524,
        0.1758270114660263,
        -0.07007232308387756,
        0.07888699322938919,
        -0.10473314672708511,
        -0.017242420464754105,
        -0.1462717354297638,
        0.18965508043766022,
        -0.18592379987239838,
        -0.1005222499370575,
        -0.07632668316364288,
        0.011055747978389263,
        0.15073169767856598,
        0.23758645355701447,
        -0.04930306598544121,
        0.17830215394496918,
        -0.30095359683036804,
        0.18048983812332153,
        -0.05156753957271576,
        0.07220682501792908,
        0.3055570125579834,
        0.10971545428037643,
        0.2376045435667038,
        -0.23227351903915405,
        -0.005071477964520454,
        0.13043305277824402,
        -0.06587410718202591,
        -0.02117614448070526,
        0.2209920585155487,
        0.029558276757597923,
        0.23844695091247559,
        0.19439083337783813,
        0.09014766663312912,
        0.03760945424437523,
        0.07049551606178284,
        -0.0906650573015213,
        -0.14105120301246643,
        0.09606939554214478,
        0.02383226901292801,
        -0.011244448833167553,
        -0.25817278027534485,
        0.013067166320979595,
        0.002206307603046298,
        0.11813195794820786,
        -0.17119498550891876,
        0.01999686472117901,
        -0.1397220939397812,
        0.18195264041423798,
        0.016384519636631012,
        -0.3269125819206238,
        -0.25383418798446655,
        0.21627652645111084,
        0.18890823423862457,
        -0.06918327510356903,
        -0.10921670496463776,
        0.06837588548660278,
        -0.22131279110908508,
        0.03225347027182579,
        0.2128361612558365,
        -0.15937785804271698,
        -0.12768132984638214,
        -0.09580451250076294,
        0.14761078357696533,
        0.07856617867946625,
        -0.02517399936914444,
        -0.10293392837047577,
        0.33952078223228455,
        -0.21357831358909607,
        0.10127782821655273,
        -0.09339400380849838,
        -0.14043956995010376,
        0.1542222946882248,
        -0.14832568168640137,
        -0.05995894595980644,
        0.10720456391572952,
        0.011956637725234032,
        0.14356142282485962,
        0.15829095244407654,
        -0.027446523308753967,
        -0.07214680314064026,
        0.29090097546577454,
        -0.22765423357486725,
        0.19212274253368378,
        -0.0006348338210955262,
        -0.2554202377796173,
        0.19882172346115112,
        0.20588429272174835,
        0.027349771931767464,
        -0.10650260746479034,
        -0.08199327439069748,
        -0.002329318318516016,
        0.23887233436107635,
        -0.1310894936323166,
        0.20279672741889954,
        -0.0515495203435421,
        -0.1340826153755188,
        -0.07106742262840271,
        0.0916716530919075,
        -0.006966621149331331,
        0.1759885549545288,
        -0.13344037532806396,
        0.17063216865062714,
        -0.27679193019866943,
        0.01142674870789051,
        -0.12095098942518234,
        0.24014779925346375,
        0.21101699769496918,
        0.09438478946685791,
        0.20943567156791687,
        0.002496269065886736,
        -0.07795964181423187,
        0.100786954164505,
        -0.29436933994293213,
        -0.22141292691230774,
        -0.1249140053987503,
        -0.035973336547613144,
        -0.15396030247211456,
        0.10218270868062973,
        -0.07707837969064713,
        0.18444746732711792,
        0.02874377742409706,
        0.061093226075172424,
        0.10814223438501358,
        0.12557852268218994,
        0.1847589761018753,
        -0.053291454911231995,
        -0.060740333050489426,
        -0.2694410979747772,
        0.13980886340141296,
        0.09030116349458694,
        -0.052079737186431885,
        0.235193133354187,
        -0.10782026499509811,
        0.16331125795841217,
        -0.0016653637867420912,
        0.132207989692688,
        -0.06658995896577835,
        0.044894203543663025,
        -0.06028468534350395,
        -0.26223042607307434,
        -0.2749887704849243,
        0.15005694329738617,
        -0.030132664367556572,
        -0.013730095699429512,
        0.26836028695106506,
        -0.045503027737140656,
        0.1051265150308609,
        0.1558852344751358,
        -0.11524750292301178,
        0.03636815771460533,
        0.00879974476993084,
        0.053775183856487274,
        0.12896589934825897,
        -0.012706475332379341,
        -0.2218942791223526,
        -0.012202530167996883,
        0.14140482246875763,
        -0.008497822098433971,
        0.04129822552204132,
        0.17787203192710876,
        -0.20918363332748413,
        0.17013709247112274,
        0.08459220826625824,
        -0.04207145422697067,
        -0.12610995769500732,
        -0.10579068958759308,
        -0.1411079317331314,
        0.2500280737876892,
        0.19939486682415009,
        0.03201596066355705,
        -0.15090397000312805,
        0.08305072784423828,
        -0.16149243712425232,
        -0.1321745663881302,
        -0.19663839042186737,
        0.0030319991055876017,
        -0.24585175514221191,
        -0.04272572323679924,
        -0.20850823819637299,
        0.10786118358373642,
        -0.06969814747571945,
        -0.11707372963428497,
        -0.2316245138645172,
        -0.21016477048397064,
        -0.16565372049808502,
        -0.1599305272102356,
        -0.017726078629493713,
        -0.10818801820278168,
        -0.02124042809009552,
        0.24322791397571564,
        0.38384419679641724,
        0.12453684955835342,
        -0.11467085033655167,
        0.02344251237809658,
        0.2384299784898758,
        0.1160183846950531,
        0.04979974031448364,
        0.145833820104599,
        -0.030859598889946938,
        0.08269470930099487,
        -0.0205540768802166,
        0.014186973683536053,
        -0.43738892674446106,
        -0.3067219853401184,
        -0.09361028671264648,
        0.09404075145721436,
        -0.11375518143177032,
        -0.03367754444479942,
        -0.005806841887533665,
        -0.21142910420894623,
        0.19552475214004517,
        -0.06750129908323288,
        0.168817937374115,
        0.05954181030392647,
        0.1764291375875473,
        -0.2023531198501587,
        0.1258828490972519,
        -0.05781528726220131,
        -0.11165106296539307,
        0.048608265817165375,
        0.16267512738704681,
        0.07785703241825104,
        -0.10169604420661926,
        -0.1836576759815216,
        -0.1977882981300354,
        -0.08637838810682297,
        -0.4046281576156616,
        0.10145922750234604,
        0.05766931176185608,
        -0.09948734939098358,
        0.2010224461555481,
        0.19135330617427826,
        0.054470840841531754,
        -0.13904555141925812,
        -0.057978492230176926,
        -0.04636036977171898,
        0.1353546679019928,
        0.16496874392032623,
        -0.10476459562778473,
        -0.04700738564133644,
        -0.026735402643680573,
        0.012795745395123959,
        -0.2289988398551941,
        -0.1084991991519928,
        0.0009476738632656634,
        0.18304648995399475,
        -0.2248706817626953,
        0.16659490764141083,
        -0.02716195583343506,
        0.30272549390792847,
        0.15488868951797485,
        0.2424391806125641,
        0.0006562797352671623,
        -0.2518584132194519,
        0.06354289501905441,
        -0.11232160031795502,
        0.11818347871303558,
        0.13650164008140564,
        -0.21227703988552094,
        0.09351887553930283,
        0.1759321093559265,
        0.08992602676153183,
        0.1291743963956833,
        0.14007070660591125,
        -0.08947624266147614,
        -0.20552538335323334,
        0.17961731553077698,
        -0.019649960100650787,
        0.1753205806016922,
        0.2367745190858841,
        0.060422383248806,
        -0.06658448278903961,
        -0.24779056012630463,
        0.045156802982091904,
        -0.16914303600788116,
        0.18818402290344238,
        0.010732043534517288,
        0.03775167465209961,
        0.09620645642280579,
        -0.2948325276374817,
        -0.18790490925312042,
        -0.19931872189044952,
        0.15899929404258728,
        -0.275799036026001,
        -0.2708319127559662,
        0.16445715725421906,
        0.12546475231647491,
        0.09317588806152344,
        0.11912699788808823,
        0.011569779366254807,
        0.027352456003427505,
        -0.03234515339136124,
        -0.19549576938152313,
        0.0913676992058754,
        -0.1413504183292389,
        -0.29165026545524597,
        0.23343437910079956,
        0.10418210923671722,
        0.10511774569749832,
        0.14968879520893097,
        0.1936740130186081,
        0.16500768065452576,
        -0.1783774048089981,
        0.18592137098312378,
        0.21560052037239075,
        0.02544400468468666,
        0.09427402168512344,
        -0.25291892886161804,
        -0.10742948204278946,
        -0.34477129578590393,
        0.2367878556251526,
        -0.3959442377090454,
        0.02091897465288639,
        0.1218353658914566,
        -0.058570269495248795,
        -0.16750872135162354,
        0.16518114507198334,
        -0.16656334698200226,
        -0.11619449406862259,
        -0.0313291996717453,
        0.16203893721103668,
        0.1370207518339157,
        0.08137057721614838,
        -0.1443590670824051,
        -0.1886194944381714,
        0.21969911456108093,
        -0.23924186825752258,
        -0.03424376994371414,
        0.20262014865875244,
        -0.06836388260126114,
        -0.226867213845253,
        -0.0718851238489151,
        -0.09694080054759979,
        -0.13959215581417084,
        -0.024498291313648224,
        -0.0008058482781052589,
        -0.025355398654937744,
        -0.038630321621894836,
        0.07933568209409714,
        0.2003394365310669,
        -0.24862445890903473,
        0.030910441651940346,
        0.02188633196055889,
        0.0583195723593235,
        -0.255982905626297,
        0.07201042771339417,
        0.1750546097755432,
        0.10457729548215866,
        0.08439666777849197,
        -0.029165981337428093,
        0.06035559996962547,
        0.17791765928268433,
        0.008378994651138783,
        0.00021220254711806774,
        -0.17417392134666443,
        -0.03530649095773697,
        -0.2699992060661316,
        -0.042350925505161285,
        0.1357080638408661,
        0.045058414340019226,
        0.2433525174856186,
        -0.1922624558210373,
        0.15349212288856506,
        -0.2581779360771179,
        -0.12800805270671844,
        0.16667690873146057,
        0.26515546441078186,
        -0.26287776231765747,
        0.21968045830726624,
        0.1664627641439438,
        -0.13138756155967712,
        0.1054476797580719,
        -0.11054323613643646,
        0.17369526624679565,
        0.020821066573262215,
        -0.027444347739219666,
        -0.061873339116573334,
        -0.22630566358566284,
        0.22193311154842377,
        0.09139605611562729,
        -0.1712929606437683,
        0.1433018445968628,
        0.11275138705968857,
        -0.1785559058189392,
        -0.0011022270191460848,
        0.04063931480050087,
        -0.07384541630744934,
        -0.18942803144454956,
        -0.008499519899487495,
        0.10766862332820892,
        -0.272976815700531,
        0.12499377131462097,
        0.022809386253356934,
        0.041221942752599716,
        0.02472355216741562,
        0.07828289270401001,
        -0.12241562455892563,
        0.16381727159023285,
        0.12260150909423828,
        -0.09296375513076782,
        -0.15668867528438568,
        -0.1879354864358902,
        -0.2899732291698456,
        0.2409820407629013,
        -0.08318782597780228,
        -0.10631010681390762,
        -0.11927574127912521,
        -0.5310793519020081,
        -0.0013390417443588376,
        -0.0544847697019577,
        -0.060645073652267456,
        0.14060406386852264,
        -0.12546958029270172,
        -0.052756454795598984,
        -0.17488767206668854,
        -0.09764069318771362,
        -0.2490934282541275,
        -0.19529341161251068,
        -0.3156249523162842,
        0.17935314774513245,
        0.050254613161087036,
        0.08510679006576538,
        0.1853010356426239,
        0.12823672592639923,
        0.18083679676055908,
        -0.23370938003063202,
        0.1258983612060547,
        -0.15203920006752014,
        0.03416186571121216,
        0.037860944867134094,
        0.2580854892730713,
        0.21365433931350708,
        0.04109134152531624,
        -0.022938797250390053,
        0.07305684685707092,
        -0.12201343476772308,
        -0.16199995577335358,
        0.2691037356853485,
        0.32888272404670715,
        -0.18377205729484558,
        -0.008394730277359486,
        -0.14164021611213684,
        0.06224522739648819,
        0.09212996810674667,
        -0.055924851447343826,
        0.018949516117572784,
        -0.1962064504623413,
        -0.12066773325204849,
        -0.06699664890766144,
        -0.0613357238471508,
        0.0312853641808033,
        -0.23141217231750488,
        -0.12500157952308655,
        -0.05326077342033386,
        0.17841453850269318,
        -0.1916915625333786,
        0.07494315505027771,
        0.16214409470558167,
        -0.06246276572346687,
        -0.029830988496541977,
        -0.20703738927841187,
        0.13224025070667267,
        0.28559139370918274,
        -0.032270122319459915,
        -0.21669402718544006,
        -0.25909623503685,
        -0.01344615500420332,
        0.04385380446910858,
        -0.004224415868520737,
        0.1295037567615509,
        -0.11586012691259384,
        0.14621467888355255,
        -0.2135663479566574,
        0.14741598069667816,
        0.03995347023010254,
        0.2992742359638214,
        -0.24155697226524353,
        0.14063233137130737,
        -0.19884327054023743,
        -0.1568903625011444,
        0.007291758898645639,
        0.010298906825482845,
        0.18228815495967865,
        -0.03692154213786125,
        0.28976765275001526,
        -0.07222538441419601,
        0.1270526647567749,
        0.07186625897884369,
        0.12210909277200699,
        -0.2929684519767761,
        -0.0517396479845047,
        0.23948897421360016,
        -0.14611215889453888,
        0.06552935391664505,
        0.16707538068294525,
        -0.1365555375814438,
        0.09812543541193008,
        -0.0960349515080452,
        -0.008172460831701756,
        0.039201389998197556,
        0.03101160004734993,
        -0.1903710961341858,
        -0.13893195986747742,
        -0.36232659220695496,
        0.0286830123513937,
        0.07098344713449478,
        0.15382491052150726,
        -0.23530924320220947,
        -0.12426803261041641,
        -0.08746547996997833,
        0.31168609857559204,
        0.04916711896657944,
        -0.03708985820412636,
        0.2545790374279022,
        0.09596645832061768,
        0.09708544611930847,
        -0.2248104214668274,
        0.17625410854816437,
        -0.33420172333717346,
        -0.06125321984291077,
        -0.010297142900526524,
        -0.032773375511169434,
        -0.015225828625261784,
        -0.4497640132904053,
        -0.020530538633465767,
        0.09234873950481415,
        -0.09599368274211884,
        -0.01795467734336853,
        0.313967227935791,
        -0.015328903682529926,
        -0.19039250910282135,
        0.09811025112867355,
        0.10126146674156189,
        -0.1220366507768631,
        -0.16418369114398956,
        0.02850431390106678,
        0.03459294140338898,
        0.027499452233314514,
        0.1747998595237732,
        0.07533635199069977,
        -0.08641024678945541,
        0.05949225649237633,
        -0.020767230540513992,
        0.017635803669691086,
        -0.17885823547840118,
        -0.12275329232215881,
        -0.11168508976697922,
        -0.10516487061977386,
        -0.059291500598192215,
        0.10464894026517868,
        -0.12939564883708954,
        0.1287630796432495,
        -0.10295745730400085,
        -0.12624099850654602,
        0.278992235660553,
        0.07307463139295578,
        -0.14440427720546722,
        0.012737098149955273,
        0.006119154393672943,
        0.2321130633354187,
        0.2355460673570633,
        0.002043133834376931,
        0.248636394739151,
        -0.04551807418465614,
        -0.12270889431238174,
        -0.16527076065540314,
        0.06844008713960648,
        -0.23965834081172943,
        0.02800839953124523,
        -0.08409980684518814,
        -0.13104526698589325,
        -0.25212520360946655,
        0.0734662339091301,
        0.012327766045928001,
        -0.21852533519268036,
        0.12735281884670258,
        0.011254283599555492,
        -0.022437529638409615,
        -0.10137191414833069,
        -0.13051098585128784,
        0.12007603049278259,
        -0.1446472853422165,
        0.14099939167499542,
        -0.21569210290908813,
        -0.2713666260242462,
        -0.20180368423461914,
        0.29360124468803406,
        0.14265009760856628,
        -0.1043991968035698,
        0.008737057447433472,
        0.11524736136198044,
        -0.09733971208333969,
        0.08928506076335907,
        -0.10286495834589005,
        -0.0403040274977684,
        0.2674003541469574,
        -0.23512841761112213,
        0.028787994757294655,
        0.05165678262710571,
        0.13699030876159668,
        -0.08084047585725784,
        0.05955291539430618,
        0.08881750702857971,
        0.023543620482087135,
        0.15769146382808685,
        -0.12828581035137177,
        0.24344800412654877,
        -0.014006676152348518,
        -0.34520894289016724,
        0.12544670701026917,
        -0.17917780578136444,
        0.05999249219894409,
        -0.009016179479658604,
        0.056389741599559784,
        -0.031183267012238503,
        -0.1288830041885376,
        0.15995006263256073,
        -0.16760759055614471,
        0.047825075685977936,
        -0.17980092763900757,
        -0.15259061753749847,
        0.22747832536697388,
        -0.27780258655548096,
        -0.2091784030199051,
        0.08898381143808365,
        -0.07988163083791733,
        0.09852972626686096,
        -0.05399174615740776,
        -0.28140053153038025,
        0.32333439588546753,
        -0.003970351070165634,
        0.051869429647922516,
        0.18181028962135315,
        -0.3010685443878174,
        0.008578315377235413,
        -0.41359931230545044,
        -0.033268678933382034,
        -0.23699457943439484,
        -0.08959883451461792,
        -0.06275465339422226,
        -0.3716670572757721,
        0.13032659888267517,
        -0.25993189215660095,
        0.22179166972637177,
        -0.19413599371910095,
        -0.14368031919002533,
        0.07591860741376877,
        -0.0632934495806694,
        0.08461929857730865,
        0.19853554666042328,
        -0.04701706022024155,
        -0.10359183698892593,
        0.19703657925128937,
        0.11240389943122864,
        0.03546189144253731,
        0.22734472155570984,
        0.030415788292884827,
        -0.14990317821502686,
        -0.1053391769528389,
        0.19742363691329956,
        -0.08343330025672913,
        0.1142750158905983,
        0.08520922809839249,
        -0.03899950534105301,
        0.029138384386897087,
        0.18043893575668335,
        0.017556386068463326,
        -0.220958411693573,
        0.03604637458920479,
        0.001559187425300479,
        0.2194177657365799,
        -0.03968188911676407,
        -0.04256627708673477,
        0.15003874897956848,
        -0.19521330296993256,
        -0.0057366760447621346,
        0.09275330603122711,
        0.13149286806583405,
        0.06750220060348511,
        0.16209715604782104,
        -0.08150064945220947,
        -0.23636753857135773,
        0.01730315573513508,
        -0.042561791837215424,
        -0.17514967918395996,
        -0.0637960135936737,
        0.15572018921375275,
        -0.21349391341209412,
        -0.19893507659435272,
        0.018903762102127075,
        -0.008244018070399761,
        0.15726296603679657,
        -0.04782143235206604,
        -0.26227086782455444,
        0.153630331158638,
        0.1810913383960724,
        0.10647065937519073,
        -0.2793012261390686,
        0.1337258666753769,
        -0.23417629301548004,
        0.16585968434810638,
        0.011162740178406239
      ]
    },
    {
      "architecture": "normalization",
      "bias": [
        0.13383586704730988,
        -0.08321962505578995,
        -0.12426356971263885,
        0.1033272072672844,
        -0.30780357122421265,
        0.027279246598482132,
        0.09054579585790634,
        -0.27042508125305176,
        -0.2196461260318756,
        0.20357221364974976,
        -0.04489429295063019,
        -0.06276527792215347,
        -0.14237983524799347,
        -0.1561104953289032,
        -0.20062509179115295,
        -0.0012890622019767761,
        -0.02038271352648735,
        0.12253659963607788,
        0.2516534626483917,
        -0.08423052728176117,
        -0.0880635529756546,
        -0.03964803367853165,
        -0.04987800493836403,
        0.004867207258939743,
        -0.07895874232053757,
        -0.31061503291130066,
        0.04986248537898064,
        -0.237077534198761,
        0.04082874208688736,
        0.07763921469449997,
        -0.06121727451682091,
        0.032737188041210175,
        0.21453659236431122,
        -0.18604815006256104,
        -0.10912449657917023,
        0.14228546619415283,
        0.31106191873550415,
        0.196995347738266,
        -0.18120358884334564,
        0.19533295929431915,
        0.07344057410955429,
        0.14883208274841309,
        -0.1144634336233139,
        0.10819089412689209,
        -0.1172938272356987,
        -0.0643773153424263,
        0.14510037004947662,
        -0.1656908392906189,
        0.010490484535694122,
        -0.036988772451877594,
        -0.04135177284479141,
        0.026396429166197777,
        0.07810451090335846,
        -0.11837227642536163,
        0.04502887278795242,
        -0.3291780650615692,
        0.07497440278530121,
        0.012086489237844944,
        -0.1041373461484909,
        0.001161285792477429,
        0.06421001255512238,
        0.016397587954998016,
        -0.22953328490257263,
        0.17597723007202148,
        -0.09799445420503616,
        0.10597747564315796,
        -0.02057076245546341,
        -0.17163178324699402,
        -0.03529517725110054,
        -0.07195122539997101,
        -0.23645970225334167,
        0.16624633967876434,
        -0.08052290230989456,
        -0.06394974887371063,
        -0.042458586394786835,
        -0.007917247712612152,
        0.15380729734897614,
        0.27209576964378357,
        -0.00984464306384325,
        -0.13415011763572693,
        0.18207573890686035,
        -0.1837170124053955,
        0.04956430196762085,
        0.08663958311080933,
        -0.014257669448852539,
        0.15581582486629486,
        0.027565717697143555,
        -0.08409271389245987,
        0.20600323379039764,
        0.133951336145401,
        -0.011988986283540726,
        0.15061083436012268,
        0.05427034571766853,
        -0.035353612154722214,
        -0.22475306689739227,
        0.12643107771873474,
        -0.12459194660186768,
        0.051479522138834,
        -0.2123100757598877,
        -0.1521928608417511
      ],
      "weights": [
        1.5303714275360107,
        1.183679223060608,
        0.968485951423645,
        1.2244114875793457,
        1.0866100788116455,
        1.1975762844085693,
        1.1351202726364136,
        1.0414329767227173,
        1.3611795902252197,
        1.2652932405471802,
        1.2191591262817383,
        1.2762012481689453,
        1.2578917741775513,
        0.8339343070983887,
        0.8926845192909241,
        1.2098414897918701,
        1.308182954788208,
        0.9792012572288513,
        1.1054760217666626,
        1.020904302597046,
        1.1805990934371948,
        1.3086568117141724,
        1.1714743375778198,
        1.3134562969207764,
        1.021662950515747,
        0.9782603979110718,
        1.2345695495605469,
        1.1161327362060547,
        1.2173408269882202,
        1.226952314376831,
        1.2088032960891724,
        1.2610535621643066,
        1.2333537340164185,
        1.0301384925842285,
        1.3670357465744019,
        1.2213077545166016,
        1.2014555931091309,
        0.7838599681854248,
        1.288617491722107,
        1.3751440048217773,
        1.3769572973251343,
        1.2685788869857788,
        1.1764060258865356,
        1.364604115486145,
        1.2004598379135132,
        1.5693756341934204,
        0.9096636176109314,
        1.1850422620773315,
        1.3059676885604858,
        1.1649730205535889,
        1.185194492340088,
        1.0123686790466309,
        1.1004085540771484,
        0.8940841555595398,
        1.0277470350265503,
        1.273396611213684,
        1.0314160585403442,
        1.2325193881988525,
        1.1761209964752197,
        1.3490389585494995,
        1.1896783113479614,
        1.1559191942214966,
        1.4084361791610718,
        0.8128745555877686,
        1.1256663799285889,
        1.0210905075073242,
        1.2458455562591553,
        1.2542636394500732,
        1.1219847202301025,
        1.140918493270874,
        1.0389736890792847,
        1.5515992641448975,
        1.0750670433044434,
        1.0860403776168823,
        1.314806580543518,
        1.2583516836166382,
        1.3038572072982788,
        1.133942723274231,
        1.1868877410888672,
        1.1699378490447998,
        1.0422008037567139,
        1.149056315422058,
        1.5460476875305176,
        1.2627205848693848,
        1.1872127056121826,
        0.9687957763671875,
        0.9227422475814819,
        1.3239418268203735,
        1.1636074781417847,
        1.0741753578186035,
        1.4720304012298584,
        1.4316171407699585,
        1.0957391262054443,
        1.222629427909851,
        1.3434791564941406,
        1.3663065433502197,
        1.2308857440948486,
        1.1228506565093994,
        0.7958171963691711,
        1.0719645023345947
      ]
    },
    {
      "activation": "rectified",
      "architecture": "dense",
      "bias": [],
      "weights": []
    },
    {
      "activation": "linear",
      "architecture": "dense",
      "bias": [
        -0.001290852902457118,
        -0.0006054225377738476,
        0.004495169501751661,
        -0.001882367068901658,
        -0.003785915207117796,
        0.0018755198689177632,
        0.0006801984272897243,
        -0.0011619750875979662,
        0.00018753635231405497,
        0.003682470414787531,
        -0.00034066385705955327,
        0.004120718687772751,
        0.0012949093943461776,
        -0.002737530507147312,
        -0.0017001278465613723,
        -0.0031319509726017714,
        -0.0005311145214363933,
        0.0006930514937266707,
        0.0035082234535366297,
        0.0008800143841654062,
        0.0009987861849367619,
        0.0004938660422340035,
        -0.0063357288017869,
        -4.9036945711122826e-05,
        -0.0005707919481210411,
        -0.00046864504110999405,
        0.0032477069180458784,
        -0.00111170276068151,
        0.001803246675990522,
        0.0026432618033140898,
        0.001017626840621233,
        0.0012344716815277934,
        0.0007321248413063586,
        0.0036494482774287462,
        0.0014777793549001217,
        -0.0010037387255579233,
        -0.0024203865323215723,
        0.0014720025938004255,
        -0.0013996236957609653,
        -0.0034798113629221916,
        0.003024709178134799,
        -0.004455620422959328,
        0.00098604173399508,
        0.0023282207548618317,
        -3.898044815286994e-05,
        -0.0012775046052411199,
        0.0037667802534997463,
        -0.0009450443903915584,
        -0.0021764400880783796,
        0.0027841106057167053,
        0.001106887124478817,
        -0.001336744287982583,
        -0.002273074584081769,
        0.003443010151386261,
        -0.0019846721552312374,
        -0.0015199767658486962,
        -0.0012556049041450024,
        0.0008805449469946325,
        -0.0018510379595682025,
        -0.00011991250357823446,
        -0.00020724731439258903,
        0.0013719474663957953,
        -0.000888449780177325,
        -0.001215667463839054,
        0.00021344608103390783,
        0.005155688151717186,
        -0.004989727400243282,
        0.00025334450765512884,
        0.0009160537156276405,
        -0.0034154101740568876,
        0.00015247556439135224,
        -0.0018821938429027796,
        -0.0016474092844873667,
        -0.001944518182426691,
        0.0007480891072191298,
        0.0012235080357640982,
        0.0022125490941107273,
        -0.0007105745607987046,
        -0.002293594181537628,
        -0.0017221722519025207,
        -0.001730601186864078,
        -3.79077646357473e-05,
        -0.007002486381679773,
        -0.0011795638129115105,
        0.0032910029403865337,
        0.0013826898066326976,
        0.0004360676393844187,
        -0.0006919848965480924,
        0.0008740237099118531,
        -0.0007793714175932109,
        0.0012585705844685435,
        0.002425684593617916,
        -0.00022170426382217556,
        -0.0053604100830852985,
        -0.0005175704136490822,
        0.0022214078344404697,
        -0.006826010998338461,
        -0.0010921263601630926,
        -0.0013850481482222676,
        0.0024888438638299704
      ],
      "weights": [
        0.07150907069444656,
        0.04788849875330925,
        0.2543383836746216,
        -0.04690144211053848,
        -0.018196921795606613,
        -0.09566591680049896,
        0.2178458720445633,
        -0.13128136098384857,
        0.12800385057926178,
        -0.14185704290866852,
        -0.06185910478234291,
        0.24527087807655334,
        -0.09842786937952042,
        0.13651616871356964,
        -0.17407795786857605,
        -0.1257573664188385,
        0.17540402710437775,
        -0.22501406073570251,
        0.002694908296689391,
        -0.18935847282409668,
        0.05571439862251282,
        -0.059893589466810226,
        0.19618751108646393,
        -0.27320361137390137,
        -0.020008482038974762,
        0.041320886462926865,
        -0.13405774533748627,
        0.008730893023312092,
        -0.14788436889648438,
        -0.03891775384545326,
        0.19936147332191467,
        -0.16042715311050415,
        0.2893736958503723,
        0.11016097664833069,
        0.050369687378406525,
        -0.01978817768394947,
        0.06811922788619995,
        0.18889683485031128,
        0.09055138379335403,
        -0.16405963897705078,
        0.0343121662735939,
        0.15056844055652618,
        0.06363534182310104,
        0.09114434570074081,
        0.02293706312775612,
        -0.20193661749362946,
        0.05989367142319679,
        0.008050387725234032,
        -0.12712354958057404,
        -0.14669913053512573,
        -0.30752670764923096,
        0.09364525973796844,
        0.20336449146270752,
        -0.04245954006910324,
        -0.05815538018941879,
        0.13773317635059357,
        0.11493612080812454,
        -0.20201949775218964,
        0.060444802045822144,
        0.17332723736763,
        -0.03346608951687813,
        -0.05749577656388283,
        -0.18169504404067993,
        -0.2102683186531067,
        0.06791672110557556,
        -0.16083450615406036,
        -0.001599830575287342,
        -0.15382882952690125,
        0.004507966339588165,
        0.14663895964622498,
        -0.1329449713230133,
        -0.008055451326072216,
        -0.07730606943368912,
        0.018902353942394257,
        0.22251641750335693,
        -0.036263931542634964,
        0.002203305484727025,
        0.09866264462471008,
        -0.024824485182762146,
        0.12367934733629227,
        0.2932504415512085,
        0.14145757257938385,
        0.19599565863609314,
        -0.28939589858055115,
        0.18046621978282928,
        -0.08436761051416397,
        -0.009264905005693436,
        -0.011040741577744484,
        -0.13314718008041382,
        0.0704386979341507,
        -0.24232715368270874,
        -0.016850564628839493,
        -0.08347218483686447,
        0.031431280076503754,
        -0.0437343530356884,
        -0.10320959985256195,
        0.05108468234539032,
        -0.20013226568698883,
        -0.07698085159063339,
        0.06182461604475975,
        0.07179836183786392,
        0.1755795031785965,
        0.3108605742454529,
        -0.11055849492549896,
        0.04592744633555412,
        -0.24312597513198853,
        -0.11606349050998688,
        -0.17503486573696136,
        -0.13575336337089539,
        0.0829552486538887,
        0.16666673123836517,
        0.10089319944381714,
        -0.10922069847583771,
        0.16195213794708252,
        -0.018935425207018852,
        -0.023388352245092392,
        -0.145164355635643,
        -0.23648691177368164,
        0.12797532975673676,
        0.13373282551765442,
        -0.057739246636629105,
        0.49793559312820435,
        0.03032921999692917,
        -0.07826127111911774,
        0.14530856907367706,
        -0.02458234503865242,
        0.010365910828113556,
        0.2504524886608124,
        0.2126835733652115,
        0.11862188577651978,
        -0.13203346729278564,
        -0.10796504467725754,
        -0.02460581064224243,
        -0.07536498457193375,
        0.07842572778463364,
        0.015831250697374344,
        0.17995059490203857,
        -0.09776623547077179,
        0.10172151029109955,
        -0.01142717245966196,
        0.19486476480960846,
        -0.07709568738937378,
        -0.27824825048446655,
        0.031245650723576546,
        0.06720579415559769,
        -0.19234995543956757,
        -0.043988730758428574,
        -0.12526646256446838,
        0.05196292698383331,
        0.1642802208662033,
        -0.001913977786898613,
        0.05119943246245384,
        -0.019320614635944366,
        0.09269893169403076,
        0.22298014163970947,
        -0.368784636259079,
        0.196331188082695,
        0.20259612798690796,
        0.2343212366104126,
        0.16061222553253174,
        -0.16528990864753723,
        0.08636053651571274,
        0.25010937452316284,
        0.042284879833459854,
        0.025764845311641693,
        0.01888705976307392,
        -0.15653330087661743,
        0.18315060436725616,
        0.043133191764354706,
        0.11085658520460129,
        -0.04923894628882408,
        -0.0912458524107933,
        0.11700586974620819,
        -0.18263663351535797,
        0.13577038049697876,
        -0.07120171934366226,
        -0.008724371902644634,
        -0.1066904366016388,
        -0.3054516613483429,
        0.17187805473804474,
        -0.09705761820077896,
        -0.152415469288826,
        0.2532970607280731,
        0.12126041203737259,
        -0.0932234600186348,
        -0.05329744145274162,
        0.057743437588214874,
        0.09862003475427628,
        0.0012065430637449026,
        0.04374546557664871,
        -0.015568076632916927,
        0.19236482679843903,
        0.09088381379842758,
        -0.14695724844932556,
        -0.005785155110061169,
        0.030695311725139618,
        -0.060169149190187454,
        -0.07600237429141998,
        0.06374815106391907,
        -0.13328483700752258,
        0.152377650141716,
        -0.03722443804144859,
        0.118137888610363,
        -0.18662750720977783,
        0.03235691413283348,
        -0.14893251657485962,
        0.04335261508822441,
        -0.21985791623592377,
        -0.1159910038113594,
        -0.11614816635847092,
        0.030669674277305603,
        0.25327545404434204,
        -0.14562158286571503,
        0.24788448214530945,
        -0.21889983117580414,
        -0.07797349244356155,
        0.07035000622272491,
        0.10846900939941406,
        -0.23996417224407196,
        0.23655931651592255,
        0.13189856708049774,
        -0.07202428579330444,
        0.15112094581127167,
        0.18662625551223755,
        0.2284732311964035,
        0.06512565165758133,
        0.07596378028392792,
        -0.20393405854701996,
        -0.004160798620432615,
        0.04808541014790535,
        -0.02893621101975441,
        -0.12638673186302185,
        0.058672696352005005,
        0.05241011083126068,
        0.0015628196997568011,
        -0.16054178774356842,
        -0.19046440720558167,
        -0.05313153937458992,
        -0.003828787012025714,
        0.04887513071298599,
        0.06237892061471939,
        -0.07086718827486038,
        -0.3353540599346161,
        -0.17395509779453278,
        0.14206376671791077,
        -0.07026001065969467,
        0.11662651598453522,
        -0.06966906785964966,
        0.010540604591369629,
        0.007486923597753048,
        0.12418080866336823,
        -0.1085825115442276,
        0.19392511248588562,
        0.22543740272521973,
        -0.01421485934406519,
        -0.09868722409009933,
        -0.09007255733013153,
        -0.018893396481871605,
        0.05408238619565964,
        -0.058906473219394684,
        0.2356652021408081,
        0.08945441991090775,
        0.19569021463394165,
        0.08179213106632233,
        0.19963881373405457,
        -0.2663021385669708,
        0.15790079534053802,
        -0.0042469990439713,
        0.17836694419384003,
        -0.13133597373962402,
        -0.043337926268577576,
        -0.13395482301712036,
        -0.026587514206767082,
        -0.0025905005168169737,
        -0.07147380709648132,
        0.05585847795009613,
        0.10245798528194427,
        0.2301013320684433,
        -0.1277289092540741,
        0.004059052560478449,
        -0.0687677413225174,
        -0.020201988518238068,
        -0.18015135824680328,
        -0.024341901764273643,
        0.03360902890563011,
        -0.1215912476181984,
        0.003707102732732892,
        0.049075156450271606,
        -0.10593387484550476,
        -0.26729461550712585,
        0.06287423521280289,
        -0.15127941966056824,
        0.007001960650086403,
        -0.15985077619552612,
        0.24043813347816467,
        0.031160440295934677,
        0.10523773729801178,
        -0.05453338101506233,
        0.056057631969451904,
        -0.050116464495658875,
        -0.1676153987646103,
        -0.06212420389056206,
        0.18594616651535034,
        -0.05614979565143585,
        0.2358306497335434,
        -0.11868038773536682,
        -0.035421524196863174,
        -0.063030906021595,
        0.04856017231941223,
        -0.19046178460121155,
        -0.11238135397434235,
        0.146320179104805,
        0.13794638216495514,
        0.005212801042944193,
        0.034846119582653046,
        -0.010467984713613987,
        -0.21537522971630096,
        -0.052917711436748505,
        -0.05459712818264961,
        0.21532025933265686,
        0.3004322350025177,
        0.04755406454205513,
        -0.15462253987789154,
        0.11122026294469833,
        -0.0032837416511029005,
        0.0810210183262825,
        0.004202541429549456,
        0.10508508235216141,
        -0.1324244737625122,
        0.15613636374473572,
        0.10838506370782852,
        -0.13480901718139648,
        -0.16139322519302368,
        -0.14753694832324982,
        -0.05498284474015236,
        0.021162016317248344,
        0.028403470292687416,
        0.08643542230129242,
        0.17225003242492676,
        0.09913403540849686,
        -0.056297119706869125,
        0.021627536043524742,
        -0.04735741391777992,
        0.031033944338560104,
        0.12562622129917145,
        -0.13928091526031494,
        0.007647939492017031,
        -0.016529439017176628,
        -0.0015951743116602302,
        0.31360143423080444,
        -0.15222318470478058,
        -0.09222158044576645,
        0.058114100247621536,
        -0.13536332547664642,
        -0.10824134945869446,
        0.26569610834121704,
        0.2046419084072113,
        0.04760129749774933,
        -0.12303799390792847,
        -0.04518531635403633,
        0.23630057275295258,
        -0.08524751663208008,
        0.06588276475667953,
        0.2004317194223404,
        0.19039107859134674,
        0.11521743983030319,
        0.08090753108263016,
        0.32457247376441956,
        0.04575555771589279,
        -0.028357109054923058,
        -0.17834660410881042,
        -0.030612526461482048,
        -0.0673907920718193,
        0.1927316039800644,
        -0.008434666320681572,
        -0.09507345408201218,
        0.132394477725029,
        0.13439464569091797,
        0.14482370018959045,
        0.2868542969226837,
        0.11184265464544296,
        0.31357136368751526,
        0.02981347218155861,
        -0.04932606592774391,
        0.004510965663939714,
        0.07646562159061432,
        -0.1716822236776352,
        0.02794203907251358,
        -0.015030340291559696,
        -0.06708917766809464,
        0.08725818246603012,
        -0.03230513632297516,
        -0.03078862838447094,
        0.1210666075348854,
        0.07047531008720398,
        -0.19865116477012634,
        -0.3719886541366577,
        0.20034606754779816,
        0.08447033911943436,
        0.12276474386453629,
        -0.10686343163251877,
        -0.04434844106435776,
        0.16181471943855286,
        -0.20473670959472656,
        0.04149352014064789,
        -0.12320791929960251,
        0.05883966386318207,
        0.02380313165485859,
        0.1343425214290619,
        0.17354489862918854,
        -0.11691102385520935,
        0.2002509981393814,
        -0.005170095711946487,
        -0.0068930573761463165,
        0.10837510973215103,
        -0.11804722994565964,
        0.1492103934288025,
        -0.16854025423526764,
        -0.14173512160778046,
        0.22401821613311768,
        0.19444787502288818,
        0.03397601097822189,
        0.12219995260238647,
        -0.0006345217116177082,
        0.27735278010368347,
        -0.11882301419973373,
        0.14332802593708038,
        -0.006306265946477652,
        0.08486121147871017,
        0.25945141911506653,
        -0.11744330823421478,
        0.10605720430612564,
        -0.13265258073806763,
        -0.04820454865694046,
        0.23514804244041443,
        0.027605485171079636,
        -0.11502744257450104,
        0.007277818862348795,
        -0.25604864954948425,
        0.08370109647512436,
        -0.10544003546237946,
        0.15183965861797333,
        -0.10439125448465347,
        0.11624286323785782,
        -0.11060326546430588,
        -0.07366429269313812,
        -0.28253433108329773,
        0.1004108190536499,
        -0.024367183446884155,
        0.17468145489692688,
        -0.05815044417977333,
        0.10960926115512848,
        0.023913703858852386,
        0.2295973300933838,
        -0.14824041724205017,
        -0.05956708639860153,
        0.006239023525267839,
        -0.15122058987617493,
        0.08317815512418747,
        0.08737567067146301,
        0.0706244632601738,
        0.21975845098495483,
        -0.05939321592450142,
        0.13437163829803467,
        0.1759103536605835,
        -0.06085946038365364,
        -0.05065559223294258,
        0.02025824785232544,
        0.03585934266448021,
        0.17596952617168427,
        -0.05713615193963051,
        -0.26752790808677673,
        0.3384760618209839,
        -0.054562728852033615,
        0.0919581949710846,
        0.04415150731801987,
        0.10359934717416763,
        -0.08367334306240082,
        -0.050239160656929016,
        0.1449831873178482,
        -0.10547668486833572,
        -0.29077959060668945,
        0.2006651759147644,
        -0.12199857831001282,
        -0.10940604656934738,
        -0.07095424830913544,
        0.08008108288049698,
        -0.3116980493068695,
        0.08841894567012787,
        0.10363507270812988,
        -0.05722874030470848,
        0.2118917554616928,
        0.1519118845462799,
        -0.07357843965291977,
        0.2436729520559311,
        -0.12894336879253387,
        -0.06463034451007843,
        -0.07733696699142456,
        -0.12040451169013977,
        -0.01144370250403881,
        0.08832172304391861,
        -0.10222365707159042,
        0.05940757691860199,
        -0.12299612164497375,
        -0.1709805577993393,
        -0.07761593908071518,
        0.07037258893251419,
        0.12376413494348526,
        -0.18421924114227295,
        0.15285974740982056,
        -0.028517622500658035,
        -0.12481505423784256,
        0.19550874829292297,
        0.2234630137681961,
        0.019461199641227722,
        -0.22955970466136932,
        0.09396857023239136,
        -0.3427353501319885,
        0.17153306305408478,
        0.020675472915172577,
        0.040476102381944656,
        0.026011163368821144,
        0.14899320900440216,
        0.11502636224031448,
        0.029507366940379143,
        0.21025218069553375,
        0.12297652661800385,
        -0.04097553342580795,
        0.2699810564517975,
        0.22506363689899445,
        0.15694314241409302,
        -0.0789685994386673,
        0.22974884510040283,
        -0.08901039510965347,
        0.10441512614488602,
        -0.00962070468813181,
        -0.07278966903686523,
        0.024892045184969902,
        -0.22717231512069702,
        0.10579124093055725,
        0.11843810230493546,
        -0.12813855707645416,
        -0.2845984995365143,
        0.027710190042853355,
        0.16395995020866394,
        -0.08008018881082535,
        -0.12016522884368896,
        -0.1866406500339508,
        -0.3899727165699005,
        0.1998562216758728,
        0.1687614470720291,
        0.05761043354868889,
        0.030550513416528702,
        -0.15115149319171906,
        0.07746490836143494,
        -0.20207205414772034,
        0.0917498916387558,
        0.03343566879630089,
        0.029496951028704643,
        0.06440896540880203,
        -0.1001950204372406,
        0.10973145067691803,
        -0.036359868943691254,
        -0.03593146428465843,
        -0.095934197306633,
        -0.12912163138389587,
        -0.15350636839866638,
        -0.1225724145770073,
        0.023349717259407043,
        0.043836016207933426,
        -0.09252817183732986,
        0.043424710631370544,
        -0.040701206773519516,
        -0.05966782942414284,
        -0.10662123560905457,
        -0.07055900245904922,
        0.22416578233242035,
        0.1894967257976532,
        -0.05319477245211601,
        -0.18151210248470306,
        0.06657467037439346,
        0.006128216627985239,
        -0.004468593746423721,
        -0.08534351736307144,
        0.16316378116607666,
        -0.08107221871614456,
        -0.06839176267385483,
        0.1371098756790161,
        0.15175122022628784,
        -0.1697000116109848,
        -0.06763328611850739,
        -0.0533461719751358,
        0.25822803378105164,
        0.1460132598876953,
        -0.105650894343853,
        -0.1049245223402977,
        -0.1002155989408493,
        -0.18938519060611725,
        0.007933356799185276,
        0.11379961669445038,
        0.3235958218574524,
        -0.16498041152954102,
        -0.05974343419075012,
        -0.06569226831197739,
        0.0824817419052124,
        -0.19071972370147705,
        0.2725345492362976,
        0.04980931803584099,
        -0.12409801781177521,
        -0.09449054300785065,
        -0.15942193567752838,
        0.24771778285503387,
        0.08002948760986328,
        -0.030384354293346405,
        0.1299763023853302,
        0.24506856501102448,
        0.004380696453154087,
        -0.05063314363360405,
        -0.12133090943098068,
        0.07333216071128845,
        -0.21690447628498077,
        -0.0991859957575798,
        0.19462530314922333,
        0.1465015560388565,
        -0.05952897667884827,
        -0.09833161532878876,
        0.078731469810009,
        -0.078204445540905,
        0.05061844736337662,
        0.032592374831438065,
        0.15681326389312744,
        -0.15207287669181824,
        0.11935701221227646,
        0.20057421922683716,
        0.043904490768909454,
        0.037167686969041824,
        0.040669918060302734,
        -0.0773773267865181,
        -0.155113086104393,
        -0.1902690827846527,
        -0.049182817339897156,
        -0.28438040614128113,
        -0.04212818294763565,
        -0.15444499254226685,
        0.08478338271379471,
        -0.20910483598709106,
        -0.10546740889549255,
        0.2240544706583023,
        0.12488588690757751,
        -0.19590865075588226,
        0.049259915947914124,
        -0.16917817294597626,
        0.26046398282051086,
        0.08079995959997177,
        0.0031624312978237867,
        -0.009669431485235691,
        -0.02722603641450405,
        -0.17378143966197968,
        0.11557722091674805,
        0.013260013423860073,
        -0.0689479261636734,
        -0.14774662256240845,
        0.08503996580839157,
        -0.11741388589143753,
        0.08368606120347977,
        0.05639352276921272,
        -0.12635661661624908,
        0.12707658112049103,
        0.08544806391000748,
        -0.1560882329940796,
        0.21002350747585297,
        -0.01593790389597416,
        -0.10118795931339264,
        0.2250937670469284,
        0.08715350925922394,
        0.22340624034404755,
        -0.12493075430393219,
        0.1303999423980713,
        0.07201988995075226,
        -0.05109496787190437,
        -0.15911990404129028,
        -0.045954469591379166,
        -0.041061218827962875,
        0.026132982224225998,
        0.043481990694999695,
        0.08960040658712387,
        0.24839963018894196,
        0.1801946461200714,
        -0.20900629460811615,
        0.18266883492469788,
        -0.11557985097169876,
        0.16687558591365814,
        0.07516857236623764,
        -0.1390712559223175,
        -0.03873142600059509,
        0.14098447561264038,
        -0.035734448581933975,
        0.10377132147550583,
        0.06018675118684769,
        0.021934835240244865,
        -0.05902748182415962,
        -0.08295043557882309,
        -0.27743369340896606,
        -0.05253234878182411,
        -0.037784647196531296,
        0.041342366486787796,
        -0.3085157573223114,
        -0.042315490543842316,
        0.07620088756084442,
        -0.058301232755184174,
        0.24656087160110474,
        -0.012325056828558445,
        -0.04865993559360504,
        -0.009001665748655796,
        -0.02524995058774948,
        0.008463993668556213,
        0.07335193455219269,
        -0.12670442461967468,
        0.11266233026981354,
        0.06617838889360428,
        -0.11542201042175293,
        0.13525742292404175,
        0.05205598846077919,
        0.28933990001678467,
        0.056151438504457474,
        0.13342615962028503,
        0.07187344133853912,
        -0.20780543982982635,
        -0.024444308131933212,
        -0.04722655192017555,
        0.04310100898146629,
        -0.12804530560970306,
        -0.07735947519540787,
        0.2325802743434906,
        -0.05282275378704071,
        0.07280381768941879,
        0.2487143874168396,
        0.06743484735488892,
        0.10508434474468231,
        0.06570696085691452,
        -0.04547089338302612,
        0.09980011731386185,
        0.009508577175438404,
        -0.11529290676116943,
        0.0119693074375391,
        0.13414563238620758,
        -0.0540645532310009,
        -0.2157287746667862,
        -0.025718173012137413,
        -0.09441092610359192,
        -0.13899551331996918,
        0.004731254652142525,
        -0.06456538289785385,
        0.10099030286073685,
        0.15159562230110168,
        0.1234346255660057,
        0.13174737989902496,
        0.009024061262607574,
        0.30069464445114136,
        0.20672069489955902,
        0.09097021818161011,
        -0.010432226583361626,
        -0.37826359272003174,
        -0.043743930757045746,
        0.05528048425912857,
        -0.15848010778427124,
        0.14171646535396576,
        0.3822254240512848,
        0.195572167634964,
        -0.037974242120981216,
        -0.11285949498414993,
        0.18905751407146454,
        0.10395954549312592,
        -0.020218541845679283,
        0.04162760451436043,
        -0.16584642231464386,
        -0.20174473524093628,
        -0.047830693423748016,
        -0.20544834434986115,
        -0.12185916304588318,
        0.12246426194906235,
        0.05496170371770859,
        -0.1179024875164032,
        -0.20722146332263947,
        0.17893335223197937,
        0.06921517848968506,
        0.002056070137768984,
        0.2990817427635193,
        -0.03783104196190834,
        0.11072446405887604,
        0.12966497242450714,
        -0.18968212604522705,
        -0.19082067906856537,
        0.01966192200779915,
        -0.10823971778154373,
        -0.053963374346494675,
        0.05300738289952278,
        0.17294494807720184,
        -0.3211866021156311,
        0.27803662419319153,
        -0.23741579055786133,
        0.21380814909934998,
        0.06924261897802353,
        0.004807201214134693,
        -0.013892975635826588,
        -0.285636842250824,
        0.1409972459077835,
        -0.12825758755207062,
        -0.054377131164073944,
        0.04098650813102722,
        0.1779853254556656,
        -0.10207170248031616,
        -0.05360071361064911,
        -0.009448518045246601,
        0.15076231956481934,
        0.06457255780696869,
        -0.1560632884502411,
        0.24866411089897156,
        -0.2056387960910797,
        -0.11787646263837814,
        -0.2025567889213562,
        -0.02278217114508152,
        -0.25376206636428833,
        -0.2544013559818268,
        0.17550383508205414,
        -0.3248802125453949,
        0.10367915034294128,
        -0.10746859759092331,
        0.026512421667575836,
        0.1158611997961998,
        -0.2317029982805252,
        -0.07672680169343948,
        -0.15513478219509125,
        0.4122297465801239,
        0.04188041761517525,
        0.09939667582511902,
        0.0009537185542285442,
        0.2670224606990814,
        0.03602486476302147,
        0.09449948370456696,
        0.2526191473007202,
        -0.002810997422784567,
        -0.09395898133516312,
        -0.2291676253080368,
        -0.027980642393231392,
        0.15125565230846405,
        0.12148325890302658,
        0.009182119742035866,
        -0.10210052132606506,
        0.03554929047822952,
        -0.15227758884429932,
        0.041183844208717346,
        -0.21005015075206757,
        0.032381266355514526,
        -0.07848167419433594,
        0.18867279589176178,
        -0.12571288645267487,
        0.10038453340530396,
        0.116182841360569,
        0.029290927574038506,
        0.08010844141244888,
        0.02570183575153351,
        -0.029781019315123558,
        -0.17693978548049927,
        -0.1370929479598999,
        -0.04659508913755417,
        0.050068385899066925,
        -0.05816663056612015,
        -0.27448999881744385,
        0.03722366690635681,
        0.2828044295310974,
        0.07151702046394348,
        -0.04977625980973244,
        -0.2266732156276703,
        -0.11183136701583862,
        -0.17239713668823242,
        -0.04903143271803856,
        0.07876269519329071,
        0.08716043829917908,
        0.10398020595312119,
        -0.07028966397047043,
        -0.0017238480504602194,
        0.042916614562273026,
        0.11787392199039459,
        0.11118200421333313,
        -0.014425751753151417,
        0.02655033767223358,
        0.15588440001010895,
        0.12099967151880264,
        -0.10790442675352097,
        -0.08279459923505783,
        0.1457005888223648,
        0.06171363964676857,
        -0.005912650376558304,
        0.07668402791023254,
        0.009750130586326122,
        0.2915811538696289,
        0.19363392889499664,
        -0.06765720993280411,
        0.005219445563852787,
        0.019524041563272476,
        0.10078056156635284,
        0.21011385321617126,
        -0.018872298300266266,
        0.06297773122787476,
        0.10665048658847809,
        0.02142554521560669,
        0.4742278754711151,
        -0.040374401956796646,
        0.05213673412799835,
        -0.2048148512840271,
        -0.14403828978538513,
        -0.041639573872089386,
        0.08812503516674042,
        -0.09688343107700348,
        -0.1367468684911728,
        -0.07574602961540222,
        -0.001554889720864594,
        -0.10668700188398361,
        0.14852342009544373,
        0.20066656172275543,
        -0.06068642809987068,
        0.050371456891298294,
        -0.07729310542345047,
        0.21580193936824799,
        0.10149683803319931,
        -0.0677035003900528,
        -0.017732687294483185,
        0.041740741580724716,
        0.35780274868011475,
        -0.17727817595005035,
        -0.024891404435038567,
        0.08684945106506348,
        -0.19691546261310577,
        -0.01790088601410389,
        -0.12442345917224884,
        -0.17693288624286652,
        -0.027576394379138947,
        -0.11877676099538803,
        0.01965222880244255,
        0.07345335185527802,
        -0.0048844655975699425,
        0.11483573913574219,
        -0.07257457822561264,
        0.09207933396100998,
        0.17702172696590424,
        0.05018802359700203,
        0.16869038343429565,
        -0.02973087690770626,
        0.0259737316519022,
        -0.10081356018781662,
        -0.024127371609210968,
        -0.12448576837778091,
        0.21203552186489105,
        -0.11569130420684814,
        0.21535784006118774,
        -0.10532891005277634,
        -0.26965993642807007,
        0.08766790479421616,
        -0.09088297188282013,
        0.2406248301267624,
        -0.037045788019895554,
        0.044330012053251266,
        0.17824897170066833,
        -0.08588897436857224,
        0.18195407092571259,
        -0.023379506543278694,
        0.22734086215496063,
        0.252826988697052,
        -0.013552316464483738,
        -0.049565255641937256,
        0.02883174829185009,
        0.15392595529556274,
        -0.10121586173772812,
        -0.008251382037997246,
        0.04850086197257042,
        0.28947773575782776,
        0.03809013217687607,
        0.17872044444084167,
        -0.11233155429363251,
        -0.12444979697465897,
        -0.07947065681219101,
        0.12872810661792755,
        -0.07855039834976196,
        -0.11321662366390228,
        -0.043958134949207306,
        0.30529940128326416,
        -0.14735306799411774,
        -0.26611965894699097,
        0.004358597565442324,
        -0.1973271518945694,
        -0.08554983884096146,
        0.10716292262077332,
        -0.1317061483860016,
        -0.05003076791763306,
        -0.04363715276122093,
        -0.20211799442768097,
        0.051478493958711624,
        -0.02591375820338726,
        0.15656663477420807,
        0.19364586472511292,
        -0.2117769569158554,
        0.0461810901761055,
        -0.02789228782057762,
        0.1883849799633026,
        0.0013285039458423853,
        0.02433256432414055,
        0.06281761825084686,
        -0.05867808684706688,
        0.17894141376018524,
        -0.08572021126747131,
        0.1394847184419632,
        0.1365565061569214,
        0.07419983297586441,
        -0.0710718035697937,
        -0.2267671376466751,
        -0.2524178922176361,
        0.14278388023376465,
        0.0001607981976121664,
        -0.19449855387210846,
        -0.12181565910577774,
        -0.13464674353599548,
        -0.12878093123435974,
        0.10299836099147797,
        -0.01941588893532753,
        0.003713961923494935,
        0.06647451221942902,
        0.012336425483226776,
        0.011690058745443821,
        -0.18978583812713623,
        0.12345778197050095,
        -0.1954999417066574,
        -0.1899610459804535,
        -0.288848340511322,
        0.02976245805621147,
        -0.05454844608902931,
        -0.1155705377459526,
        0.11857295781373978,
        -0.05058568716049194,
        -0.20977987349033356,
        -0.25866830348968506,
        0.17744718492031097,
        -0.23941050469875336,
        0.2301260083913803,
        0.0045634107664227486,
        0.19194535911083221,
        -0.07752732932567596,
        -0.0551767572760582,
        -0.036964163184165955,
        -0.21972152590751648,
        -0.28370967507362366,
        -0.11960682272911072,
        0.1035018265247345,
        0.04296751320362091,
        0.19295194745063782,
        0.0726185292005539,
        0.1001444086432457,
        0.07661332190036774,
        0.07017827033996582,
        -0.15951170027256012,
        0.059524066746234894,
        0.04714006930589676,
        -0.16225075721740723,
        -0.03500929847359657,
        0.22590024769306183,
        0.1304379105567932,
        0.16231487691402435,
        -0.2771664559841156,
        -0.005239236634224653,
        0.0972542017698288,
        -0.06252959370613098,
        -0.06284553557634354,
        -0.17015667259693146,
        -0.01096306648105383,
        0.04694746434688568,
        0.2367711067199707,
        0.017156831920146942,
        0.13622035086154938,
        0.1038195788860321,
        -0.013452596962451935,
        0.14665459096431732,
        0.020010823383927345,
        0.08418388664722443,
        -0.3100050687789917,
        -0.035699259489774704,
        0.10298309475183487,
        0.11515266448259354,
        -0.31960347294807434,
        -0.03022877685725689,
        -0.046118032187223434,
        -0.05832061171531677,
        -0.15350648760795593,
        -0.0007990567246451974,
        -0.04176558181643486,
        -0.10481739789247513,
        0.21943657100200653,
        0.22232197225093842,
        0.13658969104290009,
        -0.04557732865214348,
        -0.04885891452431679,
        0.09348917007446289,
        -0.13591597974300385,
        -0.0415688119828701,
        -0.05319967865943909,
        -0.23629511892795563,
        0.1958751231431961,
        -0.04990704730153084,
        0.1288946568965912,
        0.059029221534729004,
        0.18484215438365936,
        0.09788449108600616,
        -0.23485881090164185,
        -0.11681122332811356,
        0.1832507997751236,
        0.02815408818423748,
        0.053194575011730194,
        0.2501499056816101,
        0.2644810676574707,
        0.05864633992314339,
        -0.0007579133380204439,
        -0.01412202324718237,
        0.05057932808995247,
        -0.10290498286485672,
        0.09605983644723892,
        -0.17752975225448608,
        0.2407248318195343,
        0.05630788207054138,
        -0.07356385886669159,
        0.026493245735764503,
        0.07465202361345291,
        0.13584475219249725,
        -0.014770188368856907,
        0.00805665086954832,
        0.14790287613868713,
        -0.0538986474275589,
        -0.1681550294160843,
        -0.09826601296663284,
        -0.1120883971452713,
        -0.00017883468535728753,
        -0.1522383838891983,
        0.0765126645565033,
        -0.317943274974823,
        0.02174527943134308,
        0.08334685117006302,
        0.22179840505123138,
        -0.01133650541305542,
        0.0544416606426239,
        0.18063290417194366,
        -0.020919308066368103,
        -0.028930526226758957,
        0.21431653201580048,
        0.2681584060192108,
        -0.1544615626335144,
        0.042763736099004745,
        0.09639372676610947,
        -0.005697255488485098,
        0.0594291090965271,
        -0.10268963873386383,
        0.2894289195537567,
        -0.11121661216020584,
        0.1187092661857605,
        -0.08900946378707886,
        0.02541692741215229,
        -0.20296339690685272,
        -0.024520045146346092,
        -0.19249245524406433,
        0.09211050719022751,
        0.0831041932106018,
        0.0591704286634922,
        0.046438224613666534,
        -0.3020898401737213,
        -0.18080297112464905,
        -0.07425542920827866,
        -0.0660734698176384,
        0.018616972491145134,
        -0.1595076322555542,
        -0.07353127002716064,
        0.1239704042673111,
        0.11392135173082352,
        -0.020601488649845123,
        0.21852579712867737,
        -0.09574214369058609,
        0.10174895077943802,
        -0.13400448858737946,
        0.009393256157636642,
        0.16930235922336578,
        -0.014331374317407608,
        -0.004560776520520449,
        -0.20511646568775177,
        -0.11960024386644363,
        0.06299619376659393,
        0.2180817425251007,
        0.061769112944602966,
        -0.06247178092598915,
        0.14049310982227325,
        -0.09062755852937698,
        0.03350362181663513,
        -0.006667904555797577,
        -0.27119913697242737,
        -0.15813374519348145,
        0.17624637484550476,
        0.1305464804172516,
        0.31491222977638245,
        -0.055577218532562256,
        -0.17981749773025513,
        0.08172284811735153,
        0.1051967442035675,
        0.008676821365952492,
        0.042497336864471436,
        -0.09712329506874084,
        -0.03900415822863579,
        0.026317907497286797,
        -0.20599353313446045,
        0.2655881345272064,
        -0.12923620641231537,
        0.05581529811024666,
        -0.053255096077919006,
        -0.24641098082065582,
        -0.05485417693853378,
        0.17618905007839203,
        -0.3633261024951935,
        -0.025963256135582924,
        0.3097414970397949,
        -0.17532166838645935,
        0.052041519433259964,
        0.033926527947187424,
        0.15004044771194458,
        -0.11907235532999039,
        0.19792774319648743,
        0.2145746797323227,
        -0.06309469044208527,
        -0.02180536836385727,
        0.13205242156982422,
        0.0265345461666584,
        -0.09262530505657196,
        -0.27821028232574463,
        -0.1633789837360382,
        0.1275365948677063,
        0.02153526246547699,
        -0.287020742893219,
        0.26435163617134094,
        -0.061955638229846954,
        0.20843654870986938,
        0.09913209825754166,
        0.006936974823474884,
        -0.15223485231399536,
        -0.12277515977621078,
        -0.25537368655204773,
        -0.07741854339838028,
        -0.1257632076740265,
        0.048659227788448334,
        0.11000849306583405,
        0.13044212758541107,
        -0.10083558410406113,
        -0.07859260588884354,
        -0.20608730614185333,
        0.16420261561870575,
        -0.11667051911354065,
        0.027889618650078773,
        -0.15933053195476532,
        -0.1040390133857727,
        -0.060183264315128326,
        0.036697909235954285,
        0.051870107650756836,
        0.01646754890680313,
        0.17619450390338898,
        -0.05867842584848404,
        -0.07349413633346558,
        -0.06692889332771301,
        -0.04476005956530571,
        -0.040226951241493225,
        -0.03738714009523392,
        -0.08490100502967834,
        0.08772225677967072,
        -0.05429317057132721,
        0.08752372115850449,
        -0.05747289955615997,
        -0.3298298418521881,
        0.038145069032907486,
        0.016477204859256744,
        0.014546061865985394,
        0.22570902109146118,
        -0.08665289729833603,
        0.1588558405637741,
        0.014232414774596691,
        0.02207554318010807,
        -0.02663498744368553,
        -0.017350828275084496,
        0.04195404425263405,
        -0.1626368910074234,
        0.04163412004709244,
        -0.10369392484426498,
        -0.03463834896683693,
        -0.07135586440563202,
        0.12431082129478455,
        0.0031094674486666918,
        -0.020312443375587463,
        -0.0978325605392456,
        -0.1510535031557083,
        -0.05973463132977486,
        0.021511739119887352,
        0.22855372726917267,
        0.1306791752576828,
        0.16559161245822906,
        -0.1690138876438141,
        0.047171156853437424,
        -0.06004830077290535,
        -0.17476233839988708,
        0.2356729656457901,
        0.02455214597284794,
        -0.08440615236759186,
        0.046545449644327164,
        -0.08689823001623154,
        0.03511843830347061,
        -0.2609463036060333,
        0.2377692013978958,
        -0.07571243494749069,
        -0.13156026601791382,
        0.11729758232831955,
        0.12439321726560593,
        0.12451756745576859,
        -0.12448165565729141,
        -0.04545002058148384,
        0.014396408572793007,
        -0.10083256661891937,
        0.0905974730849266,
        -0.04997902736067772,
        0.06634694337844849,
        -0.035643815994262695,
        -0.09790020436048508,
        0.0201742984354496,
        0.12385574728250504,
        0.021851377561688423,
        0.02173844911158085,
        -0.0232724417001009,
        0.03118140622973442,
        0.11967426538467407,
        -0.391350120306015,
        -0.24522103369235992,
        0.12188877910375595,
        0.2014348804950714,
        -0.03932773694396019,
        0.07820272445678711,
        -0.209987610578537,
        0.03254079818725586,
        0.10344897210597992,
        0.0678686797618866,
        0.14232152700424194,
        0.005798588041216135,
        0.11125414818525314,
        0.08073309063911438,
        0.04509679973125458,
        -0.028117116540670395,
        0.06745622307062149,
        -0.21581587195396423,
        0.05794725939631462,
        -0.2337966412305832,
        -0.13511742651462555,
        -0.07654687762260437,
        0.062092192471027374,
        -0.026350757107138634,
        -0.3331018090248108,
        -0.14667081832885742,
        0.21974392235279083,
        -0.21936751902103424,
        0.17656171321868896,
        -0.06905294209718704,
        -0.052542541176080704,
        -0.022152593359351158,
        -0.10420019924640656,
        -0.023854998871684074,
        0.0987539142370224,
        0.039521973580121994,
        -0.27755412459373474,
        -0.15334942936897278,
        0.00249408558011055,
        -0.04800839722156525,
        0.22182194888591766,
        -0.07808542251586914,
        0.037384308874607086,
        0.09273716062307358,
        -0.010330180637538433,
        -0.150602787733078,
        0.051235467195510864,
        0.12505614757537842,
        -0.12447880953550339,
        0.24682937562465668,
        0.036627285182476044,
        -0.05358655005693436,
        -0.016541896387934685,
        -0.07726038992404938,
        -0.08387048542499542,
        0.04848216474056244,
        0.07052067667245865,
        0.020062338560819626,
        0.08352027833461761,
        -0.09881999343633652,
        0.05249708518385887,
        -0.04538976401090622,
        0.11168702691793442,
        -0.3483284115791321,
        0.10615470260381699,
        0.03478522226214409,
        -0.10956689715385437,
        0.08995131403207779,
        -0.0018573622219264507,
        -0.02515638992190361,
        -0.22990907728672028,
        -0.06620048731565475,
        0.1048441231250763,
        -0.1575605273246765,
        -0.06629972159862518,
        -0.05787626653909683,
        -0.07384809106588364,
        0.20071974396705627,
        -0.05277073010802269,
        -0.1475779116153717,
        -0.21310029923915863,
        0.15449990332126617,
        0.15506576001644135,
        0.05716879293322563,
        -0.0762176364660263,
        -0.04371919855475426,
        -0.10336164385080338,
        0.2868002951145172,
        -0.28221726417541504,
        0.13221049308776855,
        -0.20545367896556854,
        -0.004029746633023024,
        -0.1954914629459381,
        -0.19967705011367798,
        0.2718416452407837,
        0.058264002203941345,
        -0.24391312897205353,
        0.008222660049796104,
        -0.04414500668644905,
        0.15704447031021118,
        0.0163037721067667,
        0.02545967325568199,
        -0.03831024095416069,
        -0.13344085216522217,
        -0.002340843668207526,
        0.14961861073970795,
        0.06891296803951263,
        -0.08265040069818497,
        -0.050522614270448685,
        -0.06601501256227493,
        0.007272094022482634,
        -0.04574945941567421,
        -0.010020618326961994,
        -0.009507534094154835,
        0.29742342233657837,
        -0.025948818773031235,
        0.028432196006178856,
        0.08980246633291245,
        -0.08723645657300949,
        -0.1873892992734909,
        -0.14626389741897583,
        0.01178035605698824,
        0.12247330695390701,
        -0.0913270115852356,
        0.2388298362493515,
        0.24137485027313232,
        -0.09774085879325867,
        0.06614657491445541,
        0.02849869430065155,
        0.019018901512026787,
        -0.06252466142177582,
        -0.147453173995018,
        -0.13090075552463531,
        -0.08166157454252243,
        0.19088700413703918,
        -0.11091475933790207,
        -0.06386631727218628,
        0.1360602229833603,
        -0.10320663452148438,
        -0.10907366871833801,
        0.1013001874089241,
        -0.0367211252450943,
        0.08282238245010376,
        0.17988477647304535,
        0.1354963630437851,
        -0.08332880586385727,
        0.18309108912944794,
        0.27572885155677795,
        0.04918728768825531,
        -0.11404405534267426,
        -0.24486231803894043,
        -0.10266633331775665,
        -0.1763545572757721,
        0.03992850333452225,
        0.1165495216846466,
        0.11173347383737564,
        0.012289052829146385,
        -0.06160377711057663,
        0.22908547520637512,
        -0.35649046301841736,
        -0.16485141217708588,
        -0.015398621559143066,
        0.0944133922457695,
        -0.07323897629976273,
        0.0041182092390954494,
        -0.2266102135181427,
        0.14193424582481384,
        0.09116493165493011,
        -0.24071240425109863,
        0.03983857482671738,
        -0.18747977912425995,
        0.23074325919151306,
        -0.008747412823140621,
        -0.2112554907798767,
        -0.08244656026363373,
        -0.133201003074646,
        0.12581747770309448,
        0.03852962702512741,
        0.03278420493006706,
        -0.058222897350788116,
        -0.032860297709703445,
        -0.10878502577543259,
        -0.04253438115119934,
        0.020121295005083084,
        -0.010198195464909077,
        0.047763023525476456,
        -0.043557025492191315,
        -0.22785410284996033,
        0.07461737096309662,
        0.12609384953975677,
        0.03607629984617233,
        -0.004634779877960682,
        0.08642295747995377,
        0.17662787437438965,
        -0.29641810059547424,
        0.11465644836425781,
        0.1273070126771927,
        0.09341784566640854,
        -0.02767295576632023,
        0.14961551129817963,
        0.062136076390743256,
        -0.20521432161331177,
        0.19553974270820618,
        -0.0804034024477005,
        -0.06713607162237167,
        -0.01921398937702179,
        -0.1994020789861679,
        0.09410803020000458,
        0.10841704905033112,
        0.2583034634590149,
        -0.1204901859164238,
        0.005407165270298719,
        -0.12908974289894104,
        0.062124721705913544,
        0.05089569464325905,
        0.19595716893672943,
        0.00013570726150646806,
        -0.22046059370040894,
        -0.030372656881809235,
        0.20158350467681885,
        0.08662523329257965,
        0.01000606082379818,
        0.030475646257400513,
        0.011151151731610298,
        -0.13371971249580383,
        0.08107193559408188,
        -0.1907639503479004,
        -0.1605529487133026,
        -0.00884351134300232,
        -0.06542500853538513,
        0.07957211881875992,
        0.010454604402184486,
        -0.15362289547920227,
        -0.030081339180469513,
        -0.2893964350223541,
        0.02394193410873413,
        -0.24753454327583313,
        -0.38460949063301086,
        0.047169435769319534,
        -0.16958267986774445,
        -0.17999136447906494,
        -0.07429300248622894,
        -0.177727609872818,
        0.017927316948771477,
        -0.1394631713628769,
        -0.1580815315246582,
        0.1965654343366623,
        0.21509747207164764,
        0.12752056121826172,
        -0.048644933849573135,
        0.145302414894104,
        -0.07757733017206192,
        -0.15034282207489014,
        -0.14501707255840302,
        0.10135111957788467,
        -0.017138026654720306,
        -0.2251686304807663,
        -0.08354595303535461,
        0.2365148365497589,
        -0.07012326270341873,
        0.11302807927131653,
        0.009377780370414257,
        0.07315031439065933,
        0.12171405553817749,
        -0.18055778741836548,
        -0.0002862201363313943,
        0.14515383541584015,
        0.20908327400684357,
        -0.20602381229400635,
        -0.04198603332042694,
        0.1881730705499649,
        -0.04212094470858574,
        0.30297303199768066,
        -0.05202905461192131,
        -0.05061015486717224,
        0.026697052642703056,
        -0.22439450025558472,
        0.08824250102043152,
        0.0353001207113266,
        0.18274830281734467,
        -0.03477591648697853,
        0.05827806890010834,
        0.044034842401742935,
        0.08496720343828201,
        0.07883752882480621,
        0.038265276700258255,
        -0.15069067478179932,
        -0.1418013572692871,
        0.14429092407226562,
        0.08996860682964325,
        -0.09567325562238693,
        -0.10716857761144638,
        -0.2949815094470978,
        -0.1665409356355667,
        -0.09462340921163559,
        0.08188153803348541,
        -0.2228846549987793,
        -0.007106579840183258,
        0.09894794225692749,
        -0.12411193549633026,
        0.2194201499223709,
        0.09246503561735153,
        0.1560516208410263,
        -0.0479290708899498,
        -0.04066597297787666,
        0.20789755880832672,
        -0.20320594310760498,
        0.032225050032138824,
        -0.09840544313192368,
        -0.05068162456154823,
        0.029323704540729523,
        -0.11636202037334442,
        0.09192422032356262,
        -0.2837066054344177,
        0.06985272467136383,
        -0.02446998842060566,
        -0.07011876255273819,
        -0.10550768673419952,
        -0.1938447803258896,
        0.13314811885356903,
        -0.15456044673919678,
        -0.07076074182987213,
        -0.06368903815746307,
        0.13644906878471375,
        0.12356077879667282,
        0.013011015020310879,
        0.04052513465285301,
        -0.17365902662277222,
        -0.18781065940856934,
        -0.025049971416592598,
        -0.024306146427989006,
        0.10840555280447006,
        0.03733506798744202,
        -0.22618883848190308,
        -0.03170144930481911,
        0.1028064712882042,
        0.04721852019429207,
        -0.0570601224899292,
        -0.22210939228534698,
        0.18327824771404266,
        -0.13486389815807343,
        -0.048350740224123,
        -0.08022424578666687,
        0.06285524368286133,
        -0.011065942235291004,
        0.06256268173456192,
        -0.13859246671199799,
        0.05600157007575035,
        -0.33314576745033264,
        0.13412415981292725,
        -0.036784619092941284,
        -0.06556233763694763,
        -0.18036185204982758,
        -0.0454617403447628,
        0.1747417449951172,
        0.029041334986686707,
        0.16096672415733337,
        0.2302243709564209,
        0.08367377519607544,
        0.130343496799469,
        0.11157683283090591,
        -0.123806431889534,
        0.05414138361811638,
        -0.08951891958713531,
        -0.13702885806560516,
        -0.021721435710787773,
        -0.09881501644849777,
        0.25709351897239685,
        -0.1639842987060547,
        0.03961006551980972,
        -0.02246803604066372,
        0.06954951584339142,
        0.027678269892930984,
        -0.12057888507843018,
        0.04527781158685684,
        -0.2074306458234787,
        0.1831408590078354,
        0.12024989724159241,
        -0.09300591051578522,
        0.10567163676023483,
        -0.0784681960940361,
        -0.08971724659204483,
        0.11776332557201385,
        0.011320257559418678,
        -0.19104251265525818,
        0.009202542714774609,
        0.11923835426568985,
        0.17793381214141846,
        -0.042524486780166626,
        -0.074132539331913,
        0.1710333228111267,
        -0.08459640294313431,
        0.1399713158607483,
        -0.04434798285365105,
        -0.20397523045539856,
        0.043465543538331985,
        0.09080664068460464,
        0.1261756718158722,
        0.01992650143802166,
        -0.05746894329786301,
        -0.1514490693807602,
        0.1542976051568985,
        0.0012955691199749708,
        -0.03242301940917969,
        0.12543265521526337,
        -0.01612510159611702,
        -0.1566522717475891,
        -0.111186683177948,
        0.12479010969400406,
        0.23114103078842163,
        0.05922422930598259,
        -0.22374974191188812,
        0.2952117323875427,
        -0.12767884135246277,
        0.06260203570127487,
        0.0050738477148115635,
        -0.052177995443344116,
        -0.015026690438389778,
        0.03409762308001518,
        0.07911642640829086,
        -0.026598846539855003,
        0.07730627059936523,
        -0.12049412727355957,
        -0.029219092801213264,
        -0.010672024451196194,
        -0.09792742878198624,
        0.08085309714078903,
        -0.04648370295763016,
        0.1512845754623413,
        -0.05399012565612793,
        0.10837950557470322,
        0.008645338006317616,
        0.13287228345870972,
        -0.12509623169898987,
        -0.3097098767757416,
        -0.09431073069572449,
        -0.12374428659677505,
        -0.3449043929576874,
        0.07021784037351608,
        -0.0069410852156579494,
        0.30664336681365967,
        0.0601234994828701,
        -0.03409982845187187,
        -0.17972876131534576,
        -0.24925610423088074,
        0.06319945305585861,
        0.12179793417453766,
        0.042232975363731384,
        0.04061254486441612,
        0.038950592279434204,
        0.24962812662124634,
        0.1314546912908554,
        -0.07235121726989746,
        0.012861397117376328,
        0.10907497256994247,
        -0.19868086278438568,
        -0.15570932626724243,
        -0.2272156924009323,
        -0.11869071424007416,
        -0.1146482601761818,
        0.014078782871365547,
        -0.04292124882340431,
        0.025641141459345818,
        -0.24948634207248688,
        0.17994673550128937,
        0.03728374093770981,
        0.08472246676683426,
        -0.06635738164186478,
        -0.06845167279243469,
        -0.03222663700580597,
        -0.191694974899292,
        -0.08479127287864685,
        -0.10807178169488907,
        0.2141331285238266,
        -0.04335815832018852,
        -0.0612461157143116,
        -0.2094527781009674,
        0.11146290600299835,
        -0.17836377024650574,
        0.21404697000980377,
        0.23144634068012238,
        -0.10298595577478409,
        -0.14487150311470032,
        -0.005323774181306362,
        -0.024350812658667564,
        0.19379818439483643,
        -0.1376364827156067,
        -0.055045273154973984,
        -0.047816138714551926,
        0.09232419729232788,
        -0.0919879823923111,
        -0.21157227456569672,
        0.1626625806093216,
        0.026253510266542435,
        0.21361194550991058,
        -0.32921382784843445,
        -0.2722628116607666,
        0.015396436676383018,
        -0.008493958041071892,
        -0.11292725056409836,
        0.10246164351701736,
        0.1957678198814392,
        -0.051277294754981995,
        0.06893602758646011,
        0.08660033345222473,
        -0.10729320347309113,
        -0.056885093450546265,
        0.14923375844955444,
        0.12261191755533218,
        0.09919857233762741,
        0.13459250330924988,
        -0.05420217290520668,
        0.05619903281331062,
        -0.041427675634622574,
        -0.20108512043952942,
        -0.017249269410967827,
        0.018593210726976395,
        0.02600095234811306,
        0.1410139501094818,
        -0.053953152149915695,
        -0.07372366636991501,
        0.12362285703420639,
        0.0277058444917202,
        -0.13377448916435242,
        -0.007429902441799641,
        -0.003764485474675894,
        -0.14701254665851593,
        -0.21201811730861664,
        0.2278273105621338,
        0.13354180753231049,
        0.2793794572353363,
        -0.17725181579589844,
        0.1489294469356537,
        -0.05190449580550194,
        -0.2007158398628235,
        -0.19341765344142914,
        0.04061192274093628,
        -0.07785912603139877,
        0.06718079745769501,
        0.04459698125720024,
        -0.1310114860534668,
        -0.253671795129776,
        0.0066022868268191814,
        0.19372820854187012,
        -0.07710959017276764,
        0.11755795031785965,
        -0.17261530458927155,
        0.12520742416381836,
        0.13448503613471985,
        -0.2569279670715332,
        0.11355407536029816,
        -0.0590982623398304,
        -0.037082090973854065,
        -0.10082554817199707,
        -0.10647311061620712,
        -0.08631165325641632,
        -0.1062576100230217,
        -0.22128985822200775,
        -0.16059529781341553,
        0.17024266719818115,
        -0.03321555256843567,
        -0.2116907685995102,
        -0.0638224333524704,
        0.035892944782972336,
        -0.06859946995973587,
        -0.22513872385025024,
        0.23376935720443726,
        -0.09152352064847946,
        -0.21803654730319977,
        -0.07334784418344498,
        -0.1783474236726761,
        -0.24094803631305695,
        -0.03989136591553688,
        0.14507851004600525,
        -0.24737253785133362,
        0.3290679156780243,
        -0.03114858828485012,
        -0.18588680028915405,
        -0.1649044007062912,
        -0.20735205709934235,
        0.03996710106730461,
        -0.023817574605345726,
        0.043225038796663284,
        -0.009293196722865105,
        -0.09190008789300919,
        -0.07547428458929062,
        0.08818255364894867,
        -0.022507425397634506,
        -0.2977777421474457,
        0.014019010588526726,
        0.04763668775558472,
        0.11346873641014099,
        -0.08427342027425766,
        -0.08564978092908859,
        -0.04330546036362648,
        0.16818949580192566,
        -0.008075396530330181,
        -0.07424101233482361,
        0.13301867246627808,
        -0.015632525086402893,
        -0.06961452215909958,
        -0.2976663112640381,
        0.0009966939687728882,
        -0.05552775412797928,
        -0.09371353685855865,
        -0.19283883273601532,
        0.005622796714305878,
        -0.049605950713157654,
        -0.029171084985136986,
        0.10021144896745682,
        0.006823609117418528,
        -0.27633076906204224,
        -0.026178250089287758,
        -0.10345456749200821,
        0.21763277053833008,
        0.03317409008741379,
        -0.15834763646125793,
        0.06393332034349442,
        0.07440529018640518,
        0.1231628954410553,
        0.17524239420890808,
        -0.0019260636763647199,
        0.09259432554244995,
        -0.18250615894794464,
        0.11426639556884766,
        0.004589623771607876,
        0.03162473440170288,
        -0.044925130903720856,
        -0.1574643850326538,
        0.04638528823852539,
        -0.10570383071899414,
        -0.10114438086748123,
        -0.12797413766384125,
        -0.12122325599193573,
        -0.11467763036489487,
        0.10580599308013916,
        -0.19468867778778076,
        0.1319081038236618,
        0.206090047955513,
        0.07611841708421707,
        0.07722694426774979,
        -0.12155389040708542,
        0.08022132515907288,
        -0.10839235782623291,
        0.008337468840181828,
        -0.10490413010120392,
        0.009857705794274807,
        0.0603170171380043,
        -0.19322416186332703,
        -0.004966940265148878,
        0.14038535952568054,
        -0.17440199851989746,
        -0.04522988200187683,
        0.10737475752830505,
        0.08528374135494232,
        -0.21937210857868195,
        -0.07350855320692062,
        0.11595991253852844,
        0.030055804178118706,
        -0.004049696959555149,
        0.19530333578586578,
        -0.06852255761623383,
        -0.18492794036865234,
        0.037953123450279236,
        -0.09293388575315475,
        0.15842664241790771,
        0.10099741816520691,
        -0.1189824789762497,
        -0.09874063730239868,
        -0.13551244139671326,
        -0.13464300334453583,
        0.16719067096710205,
        0.046356067061424255,
        -0.11560558527708054,
        -0.09852886199951172,
        -0.1858280599117279,
        -0.009521945379674435,
        0.21481110155582428,
        -0.04724987968802452,
        -0.054541364312171936,
        -0.1719411313533783,
        0.24418431520462036,
        0.1259816288948059,
        0.0961415246129036,
        -0.40620604157447815,
        0.07573168724775314,
        -0.07366756349802017,
        0.10907404869794846,
        -0.04889780282974243,
        0.06067805737257004,
        -0.048973795026540756,
        0.0062607224099338055,
        0.03319624066352844,
        -0.14760087430477142,
        0.24415916204452515,
        0.13118934631347656,
        -0.15174444019794464,
        -0.1046246737241745,
        -0.08848946541547775,
        -0.16662566363811493,
        -0.02710842527449131,
        -0.17114223539829254,
        -0.07237941026687622,
        -0.15106448531150818,
        0.042601365596055984,
        0.22038060426712036,
        -0.04164755344390869,
        0.16525815427303314,
        -0.07074814289808273,
        0.047711919993162155,
        0.020105240866541862,
        0.053012553602457047,
        -0.26562243700027466,
        -0.11657430231571198,
        0.032865237444639206,
        -0.26659759879112244,
        0.10585098713636398,
        -0.020530126988887787,
        -0.07324749231338501,
        0.06727217882871628,
        -0.022909529507160187,
        0.13451406359672546,
        0.06816428899765015,
        -0.0605488047003746,
        -0.2871558964252472,
        0.06243803724646568,
        0.051381561905145645,
        -0.12371878325939178,
        0.052524395287036896,
        0.22891806066036224,
        -0.0030198164749890566,
        0.17242759466171265,
        0.2786356210708618,
        0.1476118564605713,
        -0.07581678032875061,
        -0.0739121213555336,
        -0.14595547318458557,
        -0.017787903547286987,
        0.14337699115276337,
        0.1619555801153183,
        0.07334043830633163,
        0.022970236837863922,
        0.08440931141376495,
        -0.04083111137151718,
        0.031618330627679825,
        0.11197168380022049,
        -0.0671091228723526,
        -0.1151154488325119,
        0.04987109825015068,
        -0.03558783605694771,
        0.08600616455078125,
        -0.21926087141036987,
        -0.027018822729587555,
        -0.1169174462556839,
        -0.07469603419303894,
        -0.34514641761779785,
        -0.16982761025428772,
        -0.049800287932157516,
        0.08573219180107117,
        -0.016346801072359085,
        -0.2330762892961502,
        -0.2365812510251999,
        0.12013823539018631,
        0.06437239050865173,
        -0.09378807246685028,
        -0.17697392404079437,
        0.09390626102685928,
        0.26216745376586914,
        0.019218329340219498,
        -0.1816955953836441,
        -0.1119614914059639,
        0.10154847055673599,
        0.03400231525301933,
        -0.1902652233839035,
        -0.06579945236444473,
        0.05963137000799179,
        -0.16263070702552795,
        0.0040509519167244434,
        -0.12737829983234406,
        0.04056340083479881,
        0.158083975315094,
        -0.07885272800922394,
        -0.12429811805486679,
        -0.07629895955324173,
        -0.004499444272369146,
        0.10909658670425415,
        -0.13950495421886444,
        -0.07484281063079834,
        0.05113073065876961,
        0.010402324609458447,
        0.130777969956398,
        -0.0023123363498598337,
        0.009952911175787449,
        0.016677215695381165,
        0.23343679308891296,
        -0.006664342246949673,
        0.10147690027952194,
        0.026369834318757057,
        0.1566047966480255,
        0.04094614088535309,
        -0.10984861850738525,
        -0.16038210690021515,
        0.07351988554000854,
        0.21695679426193237,
        -0.3721427917480469,
        -0.19622863829135895,
        0.06399182230234146,
        0.11033704876899719,
        0.24217571318149567,
        0.0980338454246521,
        -0.13290055096149445,
        -0.13051974773406982,
        -0.04153469577431679,
        0.20554806292057037,
        -0.2127222865819931,
        0.17748777568340302,
        0.20891961455345154,
        0.12314677983522415,
        0.13147388398647308,
        0.11299363523721695,
        0.038308847695589066,
        -0.0525214858353138,
        -0.20587784051895142,
        -0.039505768567323685,
        -0.2406740039587021,
        -0.03210798278450966,
        -0.03722481057047844,
        -0.2743726670742035,
        -0.19164413213729858,
        -0.12437523901462555,
        0.0029592043720185757,
        -0.10339171439409256,
        -0.18620304763317108,
        0.18048644065856934,
        0.07038269937038422,
        -0.07713956385850906,
        0.05114324390888214,
        -0.1329069286584854,
        -0.19029177725315094,
        -0.1633222997188568,
        0.00846833549439907,
        -0.008467619307339191,
        0.06674760580062866,
        0.12298142910003662,
        0.1336173266172409,
        0.09347954392433167,
        -0.023090442642569542,
        -0.02241484820842743,
        -0.22398413717746735,
        -0.02317299321293831,
        0.04222279042005539,
        0.13738012313842773,
        0.18593937158584595,
        -0.09500976651906967,
        -0.12419518083333969,
        -0.23099865019321442,
        0.0818849429488182,
        0.14006400108337402,
        0.04844176769256592,
        0.19719374179840088,
        -0.055238012224435806,
        0.16096647083759308,
        -0.14200200140476227,
        0.16861337423324585,
        0.12480716407299042,
        -0.06931687891483307,
        0.03388657420873642,
        0.09703731536865234,
        0.0634305402636528,
        0.007353637367486954,
        0.07493380457162857,
        0.09371120482683182,
        -0.05559741333127022,
        0.1105729341506958,
        -0.17339450120925903,
        0.05967385694384575,
        0.07358938455581665,
        -0.11969603598117828,
        0.18330703675746918,
        -0.18996605277061462,
        0.16550523042678833,
        0.18610568344593048,
        -0.028532857075333595,
        -0.03473030403256416,
        0.24932655692100525,
        -0.091423399746418,
        0.042644649744033813,
        0.3089735507965088,
        0.18605877459049225,
        0.052281703799963,
        0.2252657562494278,
        -0.06884843856096268,
        0.04079442843794823,
        0.1636544167995453,
        0.17028336226940155,
        0.17274820804595947,
        0.1985490769147873,
        0.08636761456727982,
        -0.11922702193260193,
        0.16665995121002197,
        -0.10590483248233795,
        0.2337557077407837,
        -0.19513553380966187,
        -0.18527135252952576,
        -0.06238958239555359,
        0.10277175903320312,
        0.08976346999406815,
        0.16710464656352997,
        0.03750517591834068,
        0.051051534712314606,
        -0.11737234145402908,
        -0.1456710696220398,
        0.22457976639270782,
        0.18048712611198425,
        -0.1079450249671936,
        -0.1805914044380188,
        -0.0694374069571495,
        0.02145078033208847,
        0.10856495797634125,
        0.20120565593242645,
        0.08346467465162277,
        0.01596248522400856,
        -0.03577777370810509,
        -0.1517324596643448,
        -0.16381438076496124,
        0.04582257941365242,
        -0.07057779282331467,
        0.16337889432907104,
        0.2669816017150879,
        0.1883714199066162,
        0.0529058501124382,
        0.06706585735082626,
        -0.26321595907211304,
        -0.06856703758239746,
        -0.06042828783392906,
        -0.08402114361524582,
        -0.16442975401878357,
        -0.2897289991378784,
        -0.0620969720184803,
        0.041993968188762665,
        -0.195338174700737,
        -0.0457935631275177,
        0.08492764085531235,
        0.06428313255310059,
        -0.25596293807029724,
        0.056620486080646515,
        0.1290566474199295,
        0.060843326151371,
        -0.21603503823280334,
        -0.13436084985733032,
        -0.19976389408111572,
        -0.03280487284064293,
        0.05047644302248955,
        0.014718420803546906,
        0.1654440462589264,
        0.14998437464237213,
        -0.08434636890888214,
        0.02679593488574028,
        -0.12132343649864197,
        -0.025125177577137947,
        0.213976189494133,
        0.09623231738805771,
        0.10537410527467728,
        -0.22579659521579742,
        0.05216129496693611,
        -0.04953222721815109,
        -0.0058666677214205265,
        0.11116805672645569,
        0.10095089673995972,
        -0.058922406286001205,
        -0.08778209984302521,
        -0.3380763530731201,
        -0.10017610341310501,
        -0.10178600996732712,
        -0.1845688819885254,
        -0.1823718100786209,
        0.12342218309640884,
        0.023659396916627884,
        -0.01628921367228031,
        0.19257625937461853,
        -0.13250118494033813,
        -0.13570240139961243,
        -0.01588740386068821,
        -0.05995887890458107,
        -0.09373371303081512,
        0.0046991100534796715,
        0.17954254150390625,
        -0.1507488638162613,
        -0.19871066510677338,
        -0.06515155732631683,
        -0.11244025826454163,
        0.264038622379303,
        -0.15521442890167236,
        0.20147153735160828,
        -0.042727649211883545,
        -0.026055166497826576,
        0.05250108987092972,
        0.13243047893047333,
        0.11951393634080887,
        0.13963137567043304,
        -0.2076721489429474,
        0.19691921770572662,
        -0.1267460584640503,
        0.04046083614230156,
        0.28581488132476807,
        -0.05320720374584198,
        -0.03374965488910675,
        0.039436403661966324,
        0.08976194262504578,
        -0.012954555451869965,
        0.08964721858501434,
        0.0023902393877506256,
        -0.09434154629707336,
        -0.16732817888259888,
        -0.18973754346370697,
        -0.062448807060718536,
        0.042053259909152985,
        0.01718054711818695,
        0.03696054965257645,
        -0.012480844743549824,
        -0.04094317555427551,
        -0.2754746675491333,
        -0.1664150506258011,
        -0.12037765979766846,
        -0.09527610242366791,
        0.07108275592327118,
        -0.0038298817817121744,
        0.11939673870801926,
        0.195403590798378,
        -0.1072956919670105,
        0.14104512333869934,
        -0.026847628876566887,
        -0.08440924435853958,
        0.2048248052597046,
        -0.37171226739883423,
        -0.10340604186058044,
        -0.24984808266162872,
        -0.010040816850960255,
        0.12121234834194183,
        0.05663608759641647,
        0.08298278599977493,
        -0.09588911384344101,
        0.05371377617120743,
        0.033298712223768234,
        -0.07955004274845123,
        0.20604148507118225,
        0.009247408248484135,
        -0.22051966190338135,
        0.18238487839698792,
        0.011797863990068436,
        0.09743418544530869,
        -0.052348628640174866,
        0.13983874022960663,
        -0.33190643787384033,
        -0.18547284603118896,
        -0.0385616198182106,
        -0.05633745342493057,
        -0.06292140483856201,
        0.017663778737187386,
        0.038427527993917465,
        -0.08087866753339767,
        0.07556282728910446,
        -0.07983659207820892,
        -0.06532350927591324,
        -0.08647831529378891,
        0.09746096283197403,
        0.026293110102415085,
        0.09897200763225555,
        -0.11353252083063126,
        0.17947712540626526,
        0.1836094856262207,
        -0.04677339643239975,
        0.12040206789970398,
        0.09602546691894531,
        0.02930702455341816,
        -0.08888088911771774,
        -0.023564660921692848,
        0.029236922040581703,
        -0.11037569493055344,
        -0.1607583463191986,
        0.27056097984313965,
        -0.2229367196559906,
        0.1052154153585434,
        0.19157938659191132,
        0.03591813147068024,
        0.04484843462705612,
        -0.029474003240466118,
        0.04407438635826111,
        0.14275802671909332,
        0.2981182932853699,
        0.15471123158931732,
        0.07527456432580948,
        0.1478051096200943,
        -0.09534922242164612,
        0.2293897569179535,
        0.24815130233764648,
        0.03649638220667839,
        0.14086563885211945,
        0.17648907005786896,
        0.09753634035587311,
        -0.1013832688331604,
        0.014257188886404037,
        0.03538718819618225,
        0.11076485365629196,
        0.0540999136865139,
        0.014605779200792313,
        -0.2270023077726364,
        -0.10235923528671265,
        0.010425091721117496,
        0.111825130879879,
        -0.06669866293668747,
        -0.15868568420410156,
        0.06949900090694427,
        -0.004616128280758858,
        0.0763385146856308,
        0.08774157613515854,
        0.09929969906806946,
        0.043446335941553116,
        -0.13908258080482483,
        -0.109092116355896,
        0.057876456528902054,
        -0.02389671467244625,
        -0.02575855888426304,
        -0.18792076408863068,
        0.05433068796992302,
        -0.3158740997314453,
        0.11645685881376266,
        0.13542743027210236,
        0.15090423822402954,
        -0.17632873356342316,
        -0.27922406792640686,
        0.060759544372558594,
        -0.0868145152926445,
        -0.10544401407241821,
        -0.016732007265090942,
        -0.04344525560736656,
        0.1852138638496399,
        -0.19085365533828735,
        -0.21546950936317444,
        0.24368669092655182,
        0.031375546008348465,
        -0.14506296813488007,
        -0.26074686646461487,
        -0.051985252648591995,
        -0.07194999605417252,
        -0.07873724400997162,
        0.11236244440078735,
        0.16993334889411926,
        -0.03226296603679657,
        -0.11134745925664902,
        -0.0768153965473175,
        0.11598380655050278,
        0.1695880889892578,
        0.2808273136615753,
        0.2555943429470062,
        0.08060413599014282,
        -0.11698991805315018,
        0.12803545594215393,
        0.15871961414813995,
        0.1850661337375641,
        0.06285788118839264,
        0.12884698808193207,
        -0.19747993350028992,
        0.13223707675933838,
        0.12694516777992249,
        0.1312495470046997,
        0.053204089403152466,
        -0.10874621570110321,
        -0.09423356503248215,
        0.14346612989902496,
        -0.22750191390514374,
        -0.06475621461868286,
        -0.1856229156255722,
        0.07131483405828476,
        -0.21568267047405243,
        0.07451347261667252,
        -0.14015626907348633,
        -0.0690203607082367,
        -0.13158513605594635,
        -0.0848737582564354,
        0.030809596180915833,
        -0.010710892267525196,
        -0.06251637637615204,
        -0.046351902186870575,
        0.008715366013348103,
        0.08602918684482574,
        -0.14235040545463562,
        -0.033809058368206024,
        -0.3741503059864044,
        0.16102269291877747,
        -0.12709487974643707,
        0.008142126724123955,
        -0.09570427238941193,
        0.2671750485897064,
        -0.07356863468885422,
        0.00815532635897398,
        0.07372947037220001,
        -0.07057293504476547,
        -0.12645496428012848,
        -0.05665312707424164,
        -0.17623047530651093,
        0.20482870936393738,
        0.04076283797621727,
        0.05918045714497566,
        -0.09293307363986969,
        0.006042432971298695,
        0.12166593968868256,
        0.010787451639771461,
        -0.12228197604417801,
        -0.03743596002459526,
        0.08244899660348892,
        0.14026010036468506,
        0.2954701781272888,
        -0.07052644342184067,
        0.23472917079925537,
        -0.04179630056023598,
        -0.18200206756591797,
        -0.01638123393058777,
        0.06832939386367798,
        -0.03753238543868065,
        -0.09291071444749832,
        0.0033529698848724365,
        0.1568782776594162,
        0.1803487092256546,
        0.25614500045776367,
        -0.1532636284828186,
        0.07794572412967682,
        0.19822810590267181,
        0.0977436751127243,
        -0.18403707444667816,
        -0.021088670939207077,
        0.06323018670082092,
        -0.059219539165496826,
        0.053310979157686234,
        0.26988568902015686,
        0.04985884204506874,
        0.22152630984783173,
        0.012257959693670273,
        0.010068886913359165,
        0.051471300423145294,
        -0.20222249627113342,
        0.06005896255373955,
        -0.18963144719600677,
        -0.17646026611328125,
        0.20595577359199524,
        -0.23496823012828827,
        -0.07043132930994034,
        -0.04707914590835571,
        0.14276017248630524,
        -0.10138450562953949,
        0.07238148897886276,
        -0.14294396340847015,
        -0.14124169945716858,
        -0.017860159277915955,
        -0.16803821921348572,
        0.013810849748551846,
        0.16626505553722382,
        0.1456538885831833,
        0.12989789247512817,
        0.018589533865451813,
        0.04958970099687576,
        0.07297676801681519,
        -0.05958692356944084,
        -0.03527829051017761,
        0.18216688930988312,
        0.1595003753900528,
        -0.24936449527740479,
        0.06141094118356705,
        0.23459522426128387,
        0.023883607238531113,
        0.2146165519952774,
        0.05002351477742195,
        -0.06744056195020676,
        -0.11802680790424347,
        0.05694977566599846,
        -0.12228520959615707,
        -0.08439774811267853,
        -0.1614142805337906,
        -0.0929613709449768,
        -0.11303362250328064,
        0.15111671388149261,
        0.10216032713651657,
        0.004069079179316759,
        -0.08312319964170456,
        0.20218929648399353,
        0.16810107231140137,
        0.09044170379638672,
        -0.09555915743112564,
        -0.17876096069812775,
        0.14562487602233887,
        -0.14712360501289368,
        0.1076652854681015,
        -0.046743493527173996,
        0.2775318920612335,
        0.22268058359622955,
        -0.17945602536201477,
        0.022483477368950844,
        -0.03718826547265053,
        0.049088943749666214,
        -0.13554029166698456,
        0.06732424348592758,
        -0.05892793461680412,
        -0.13833928108215332,
        0.011396967805922031,
        0.12288475781679153,
        -0.10365381836891174,
        -0.0004880074702668935,
        0.13491438329219818,
        0.09415055066347122,
        0.27250832319259644,
        -0.23103757202625275,
        -0.05108156055212021,
        0.00297115882858634,
        -0.10349925607442856,
        -0.16720269620418549,
        0.09528934210538864,
        -0.1812773197889328,
        -0.012796337716281414,
        -0.13691504299640656,
        0.18917368352413177,
        0.13870541751384735,
        0.18087729811668396,
        -0.07026173919439316,
        -0.06596500426530838,
        -0.04575350135564804,
        -0.20247744023799896,
        0.009023779071867466,
        0.1593768447637558,
        -0.017448753118515015,
        0.023503247648477554,
        -0.10742612183094025,
        0.11308758705854416,
        0.045173466205596924,
        -0.04924488812685013,
        -0.09328915178775787,
        -0.22469313442707062,
        0.012190001085400581,
        -0.13214154541492462,
        0.2555536925792694,
        -0.019870175048708916,
        -0.18110792338848114,
        0.19512981176376343,
        -0.12185568362474442,
        0.232945516705513,
        -0.1553499698638916,
        -0.22923685610294342,
        0.03789270669221878,
        0.03110935352742672,
        0.014575477689504623,
        -0.23985476791858673,
        -0.06165143474936485,
        0.0515630878508091,
        0.08553817123174667,
        -0.03269205987453461,
        -0.1510622799396515,
        -0.18888568878173828,
        -0.3195577561855316,
        -0.1790897399187088,
        -0.11044830828905106,
        -0.047758713364601135,
        -0.16153109073638916,
        -0.05969184637069702,
        0.07279165089130402,
        0.16179491579532623,
        0.1512109637260437,
        0.02729869820177555,
        -0.2906056046485901,
        -0.20947903394699097,
        0.17349545657634735,
        0.0001961126981768757,
        0.08847826719284058,
        0.03825642913579941,
        -0.14099204540252686,
        -0.00474146194756031,
        0.13855862617492676,
        0.09654996544122696,
        0.06713712215423584,
        -0.03337552398443222,
        0.1983753889799118,
        -0.0036223686765879393,
        -0.0707404613494873,
        0.12552852928638458,
        -0.08606517314910889,
        0.032836172729730606,
        -0.05844435840845108,
        -0.15762223303318024,
        -0.11312467604875565,
        -0.03552880138158798,
        0.0676393210887909,
        -0.06208093464374542,
        -0.11192838102579117,
        -0.014384923502802849,
        -0.10532116144895554,
        0.17631195485591888,
        -0.11794427037239075,
        0.1234414353966713,
        -0.01993146538734436,
        -0.13344696164131165,
        0.18779872357845306,
        -0.2240190953016281,
        -0.18852342665195465,
        0.052477188408374786,
        -0.11487232893705368,
        0.01793612167239189,
        0.13263940811157227,
        -0.058312296867370605,
        -0.1510671228170395,
        0.17917968332767487,
        0.11939921230077744,
        -0.13224589824676514,
        -0.22356392443180084,
        0.06563586741685867,
        0.08657708764076233,
        -0.10586071014404297,
        0.029575027525424957,
        0.03284331411123276,
        0.046835239976644516,
        -0.10527565330266953,
        0.23067905008792877,
        -0.19593098759651184,
        0.10843562334775925,
        0.15555718541145325,
        -0.13624770939350128,
        0.23737475275993347,
        0.18566004931926727,
        -0.14434020221233368,
        0.04383053630590439,
        -0.010763152502477169,
        0.0541778989136219,
        0.30922022461891174,
        -0.19420187175273895,
        0.012606504373252392,
        -0.12930062413215637,
        0.059737157076597214,
        0.05193702131509781,
        0.05524451658129692,
        0.1523250788450241,
        -0.11270159482955933,
        0.06528344750404358,
        0.25233379006385803,
        -0.2635244131088257,
        -0.06197892874479294,
        -0.04101049154996872,
        -0.08548997342586517,
        -0.004763804841786623,
        -0.0009597300086170435,
        0.005775409750640392,
        0.025888541713356972,
        0.19551675021648407,
        0.037225354462862015,
        -0.08228390663862228,
        0.1927960067987442,
        0.09741442650556564,
        -0.13666197657585144,
        0.008664263412356377,
        0.1210540384054184,
        -0.0347677543759346,
        -0.04891980066895485,
        -0.1147858276963234,
        -0.06044498085975647,
        -0.06454745680093765,
        -0.2438925951719284,
        -0.054129812866449356,
        -0.050722524523735046,
        0.25211676955223083,
        -0.027603374794125557,
        -0.07680008560419083,
        -0.004214475862681866,
        0.09313960373401642,
        -0.10599019378423691,
        -0.038262106478214264,
        0.06449517607688904,
        0.14287365972995758,
        -0.13708284497261047,
        0.02876638062298298,
        0.18819266557693481,
        -0.025858908891677856,
        -0.06749746203422546,
        0.1818017214536667,
        0.13526315987110138,
        -0.15917183458805084,
        0.05842345580458641,
        0.2627255320549011,
        -0.14157678186893463,
        -0.06925969570875168,
        0.09803501516580582,
        -0.013291869312524796,
        -0.10112908482551575,
        0.18263950943946838,
        0.003288143314421177,
        -0.216097891330719,
        0.1658231019973755,
        -0.011114022694528103,
        0.23618964850902557,
        0.060215555131435394,
        -0.03838904947042465,
        0.15686185657978058,
        -0.2018863707780838,
        0.0967610627412796,
        0.1542031168937683,
        -0.17159336805343628,
        0.10272352397441864,
        0.11624431610107422,
        0.1539868265390396,
        0.11822157353162766,
        0.09480169415473938,
        0.15084008872509003,
        -0.26173678040504456,
        -0.1623721867799759,
        -0.013410765677690506,
        0.08388908207416534,
        0.10224071890115738,
        0.10346905142068863,
        0.05626588314771652,
        -0.019219590350985527,
        0.09632861614227295,
        -0.052792854607105255,
        -0.048072006553411484,
        -0.36056748032569885,
        0.0659191906452179,
        -0.19286221265792847,
        -0.013387625105679035,
        -0.3143203854560852,
        0.19146744906902313,
        0.13076409697532654,
        0.09928575903177261,
        -0.07263489812612534,
        0.00421470170840621,
        0.2568280100822449,
        -0.11150729656219482,
        0.2188166081905365,
        0.041349880397319794,
        0.030036233365535736,
        0.13751262426376343,
        0.04158742353320122,
        0.18380504846572876,
        0.01958879828453064,
        -0.03351987153291702,
        -6.614124868065119e-05,
        -0.20314402878284454,
        -0.16918917000293732,
        0.11416397243738174,
        -0.14203032851219177,
        -0.024077629670500755,
        0.0018612771527841687,
        -0.1453149914741516,
        -0.00295564834959805,
        0.18928617238998413,
        -0.27422013878822327,
        -0.14168287813663483,
        0.08277474343776703,
        0.15853774547576904,
        0.1950814425945282,
        -0.1092500314116478,
        -0.21586497128009796,
        0.0922313779592514,
        0.05068182200193405,
        -0.057281117886304855,
        -0.06915756314992905,
        -0.19163233041763306,
        -0.0058519272133708,
        0.021900080144405365,
        -0.1731416881084442,
        -0.14577588438987732,
        0.1658191978931427,
        -0.038416989147663116,
        0.18187637627124786,
        0.03146775811910629,
        0.15814179182052612,
        -0.14859281480312347,
        -0.17829135060310364,
        0.043691959232091904,
        0.12271132320165634,
        0.18893152475357056,
        0.228196918964386,
        0.3121817708015442,
        -0.21458755433559418,
        0.20935066044330597,
        -0.057614248245954514,
        -0.04607493430376053,
        -0.022557931020855904,
        -0.04270352050662041,
        -0.034137193113565445,
        0.0986001044511795,
        0.03156433627009392,
        -0.02396852895617485,
        0.07858914136886597,
        -0.09499333053827286,
        0.08861730992794037,
        -0.40895935893058777,
        0.18301020562648773,
        -0.012059827335178852,
        -0.1121174767613411,
        0.01705714501440525,
        0.08699440211057663,
        0.1149253249168396,
        -0.10023515671491623,
        0.15208248794078827,
        -0.0528474897146225,
        0.10490778088569641,
        0.06116601079702377,
        0.02595261111855507,
        -0.010979091748595238,
        -0.08442293107509613,
        -0.017743345350027084,
        0.15959280729293823,
        0.037615884095430374,
        -0.032821495085954666,
        -0.0726451650261879,
        0.029492981731891632,
        -0.02264358289539814,
        0.16012100875377655,
        -0.22963985800743103,
        0.04390502721071243,
        -0.3121321499347687,
        -0.17497019469738007,
        -0.06994160264730453,
        0.05408038944005966,
        -0.03982362151145935,
        -0.1771864891052246,
        -0.10422926396131516,
        0.2561889588832855,
        0.02099403366446495,
        0.05835482105612755,
        0.081800177693367,
        -0.1648564487695694,
        -0.014990204945206642,
        0.13106746971607208,
        0.033018749207258224,
        0.09892918169498444,
        0.04890318214893341,
        -0.32214468717575073,
        -0.2220250815153122,
        -0.2153366357088089,
        0.13653302192687988,
        0.03866950049996376,
        0.1832980364561081,
        0.008878410793840885,
        0.23327505588531494,
        -0.11194315552711487,
        0.21953999996185303,
        -0.24362459778785706,
        -0.20311950147151947,
        -0.15301406383514404,
        0.10096776485443115,
        0.19370046257972717,
        0.028789101168513298,
        0.021351510658860207,
        0.17117375135421753,
        -0.08654932677745819,
        0.08898146450519562,
        0.059071458876132965,
        -0.2003183811903,
        0.0021080977749079466,
        -0.0611153207719326,
        0.06199970468878746,
        -0.17973577976226807,
        0.005754032637923956,
        -0.20426754653453827,
        0.12769976258277893,
        0.13911545276641846,
        -0.10586169362068176,
        -0.18124547600746155,
        -0.17317277193069458,
        -0.005290258675813675,
        0.04961778596043587,
        -0.0029583603609353304,
        -0.041836436837911606,
        0.007604288402944803,
        -0.045485079288482666,
        -0.04077757149934769,
        -0.22628983855247498,
        0.25098177790641785,
        0.12234589457511902,
        -0.08346802741289139,
        -0.04531918838620186,
        0.09129130095243454,
        0.16501137614250183,
        0.01007053442299366,
        -0.09894584119319916,
        -0.17655858397483826,
        -0.012532882392406464,
        0.037522707134485245,
        0.11843260377645493,
        0.09956391900777817,
        0.023750048130750656,
        0.13666728138923645,
        -0.07825318723917007,
        0.1305617243051529,
        0.2150568962097168,
        0.03451133146882057,
        -0.2877797782421112,
        0.1535830944776535,
        -0.02764899842441082,
        -0.107270747423172,
        0.13978266716003418,
        0.02727196179330349,
        0.13560163974761963,
        -0.059979796409606934,
        -0.05560382455587387,
        0.03420599550008774,
        0.08546287566423416,
        0.15100832283496857,
        0.04054427146911621,
        -0.08945781737565994,
        -0.08833493292331696,
        -0.12059961259365082,
        -0.14010187983512878,
        0.08370267599821091,
        0.13756342232227325,
        0.24229179322719574,
        -0.1418052613735199,
        -0.08525963872671127,
        0.0024202975910156965,
        -0.12628817558288574,
        0.09544230252504349,
        0.1949334591627121,
        -0.18460237979888916,
        0.1049211174249649,
        -0.035829365253448486,
        -0.01686527207493782,
        0.17829592525959015,
        -0.051427096128463745,
        -0.01878422312438488,
        -0.03775211051106453,
        0.25523102283477783,
        -0.0733473002910614,
        0.1326942890882492,
        0.05497788265347481,
        -0.20722217857837677,
        0.28512802720069885,
        -0.08102141320705414,
        -0.22213149070739746,
        0.024458806961774826,
        -0.055600348860025406,
        0.13701185584068298,
        -0.020974835380911827,
        0.031408365815877914,
        -0.2990535497665405,
        -0.11624380201101303,
        0.15673135221004486,
        -0.13374491035938263,
        -0.09452912956476212,
        -0.10035740584135056,
        -0.13471738994121552,
        0.07359105348587036,
        -0.0077809919603168964,
        0.019263578578829765,
        0.1602022349834442,
        0.22201208770275116,
        0.20510588586330414,
        0.05925026163458824,
        -0.2654176652431488,
        -0.027590971440076828,
        0.24646325409412384,
        0.1155463233590126,
        -0.00961247831583023,
        0.05123365670442581,
        0.12307346612215042,
        0.07299578934907913,
        -0.2084415853023529,
        0.023070568218827248,
        -0.0914243757724762,
        -0.23179204761981964,
        0.060068871825933456,
        0.15808938443660736,
        0.24660935997962952,
        0.01758904755115509,
        -0.21163704991340637,
        -0.07654542475938797,
        0.09369472414255142,
        0.05732129141688347,
        0.04312330111861229,
        0.054651275277137756,
        -0.08983254432678223,
        0.04482794925570488,
        0.06872700899839401,
        0.08450766652822495,
        0.028195828199386597,
        0.13016901910305023,
        0.2972850799560547,
        -0.1406552493572235,
        -0.06193072721362114,
        0.00916843768209219,
        -0.19816835224628448,
        -0.10349572449922562,
        -0.050470419228076935,
        -0.1161404475569725,
        -0.09521663188934326,
        0.07410325109958649,
        0.06838583201169968,
        0.15093685686588287,
        0.05716763436794281,
        -0.11121075600385666,
        -0.009339777752757072,
        -0.05990294739603996,
        -0.2489011436700821,
        0.0006557141896337271,
        0.10386701673269272,
        -0.2377910614013672,
        0.12451300770044327,
        -0.08229564875364304,
        -0.0337364561855793,
        -0.0604335255920887,
        -0.11902322620153427,
        0.2097560167312622,
        0.06138688325881958,
        -0.0901799201965332,
        0.13397635519504547,
        -0.06973323971033096,
        -0.11790371686220169,
        -0.07622097432613373,
        -0.029240140691399574,
        0.17371296882629395,
        0.09400592744350433,
        -0.03743107616901398,
        -0.3313652276992798,
        -0.18096449971199036,
        0.05147506296634674,
        -0.26523908972740173,
        0.17133647203445435,
        0.004546596202999353,
        0.04765636473894119,
        0.19870910048484802,
        0.06690872460603714,
        -0.08078135550022125,
        -0.211186021566391,
        -0.15935969352722168,
        0.09393756836652756,
        -0.16756294667720795,
        0.05401734262704849,
        0.021381612867116928,
        0.01957964338362217,
        -0.01212287787348032,
        -0.04019182175397873,
        -0.004305991809815168,
        0.181483656167984,
        0.14914940297603607,
        0.15658171474933624,
        0.055024318397045135,
        0.05788839980959892,
        0.04797493666410446,
        0.08545610308647156,
        -0.11062990128993988,
        0.04342957213521004,
        -0.17724895477294922,
        0.08425208181142807,
        -0.10540838539600372,
        -0.011300637386739254,
        -0.2371489554643631,
        0.005469819530844688,
        0.011315105482935905,
        -0.09761472046375275,
        -0.2864575684070587,
        0.13356035947799683,
        0.1752304881811142,
        0.24935296177864075,
        -0.15047137439250946,
        0.20784248411655426,
        -0.06429708003997803,
        -0.05970682576298714,
        -0.2370135486125946,
        0.1245882660150528,
        0.032280027866363525,
        0.07397324591875076,
        0.18085499107837677,
        -0.06576164811849594,
        -0.25263339281082153,
        -0.28939902782440186,
        0.14278669655323029,
        0.08340618014335632,
        0.19341914355754852,
        -0.08232668042182922,
        -0.15501074492931366,
        0.03095908835530281,
        -0.1301015019416809,
        0.086243636906147,
        -0.12403660267591476,
        0.11275842785835266,
        -0.07653410732746124,
        -0.010737993754446507,
        -0.18273724615573883,
        -0.02668585442006588,
        0.03506027162075043,
        0.10677211731672287,
        -0.0744009017944336,
        -0.1262952834367752,
        0.18361541628837585,
        0.09989632666110992,
        -0.1528361290693283,
        -0.06548947095870972,
        -0.05263417214155197,
        0.16091042757034302,
        -0.046045899391174316,
        0.02718139998614788,
        0.10888492316007614,
        0.10308951884508133,
        0.010708884336054325,
        -0.07986747473478317,
        0.09216086566448212,
        -0.22453199326992035,
        -0.11217980086803436,
        -0.3705537021160126,
        0.0755404606461525,
        -0.0012549484381452203,
        0.12378644198179245,
        -0.11661111563444138,
        0.02253665030002594,
        0.21437938511371613,
        0.10748694837093353,
        -0.24604660272598267,
        0.07466348260641098,
        0.02860845997929573,
        -0.13012349605560303,
        0.2171984314918518,
        0.06625130772590637,
        0.044996947050094604,
        0.15141507983207703,
        0.17522267997264862,
        -0.04578188806772232,
        0.027544908225536346,
        0.024630533531308174,
        -0.15371616184711456,
        0.23546022176742554,
        0.16880325973033905,
        -0.0002502157585695386,
        0.014168772846460342,
        -0.30783897638320923,
        -0.3001694977283478,
        -0.22063583135604858,
        0.09261564165353775,
        0.01097176130861044,
        0.22314658761024475,
        0.006302886642515659,
        -0.023692796006798744,
        -0.2010614424943924,
        0.02921179123222828,
        -0.024415813386440277,
        -0.07983794808387756,
        -0.026398641988635063,
        0.17929236590862274,
        -0.05438533052802086,
        0.024320336058735847,
        -0.09561487287282944,
        0.20275190472602844,
        -0.11939120292663574,
        -0.051750119775533676,
        -0.16335152089595795,
        0.1407259851694107,
        -0.004636853467673063,
        -0.09463004022836685,
        -0.11738158017396927,
        -0.16286233067512512,
        0.3619800806045532,
        -0.1382320672273636,
        -0.05359606444835663,
        0.07067497819662094,
        0.031007563695311546,
        -0.23642651736736298,
        0.01663871482014656,
        -0.21947376430034637,
        -0.20416201651096344,
        0.17127226293087006,
        -0.1125185564160347,
        -0.025698427110910416,
        -0.19821491837501526,
        -0.1546841859817505,
        0.2141345590353012,
        -0.13595150411128998,
        0.16861794888973236,
        0.0683709979057312,
        0.03332334756851196,
        -0.11273494362831116,
        -0.3742811977863312,
        0.02887028269469738,
        0.008479557000100613,
        -0.02396266907453537,
        -0.052488282322883606,
        -0.009348630905151367,
        0.21864567697048187,
        -0.18689262866973877,
        -0.166617289185524,
        0.05251244083046913,
        0.1611122488975525,
        0.03729851916432381,
        0.16328518092632294,
        0.21334604918956757,
        0.04364052414894104,
        -0.04097907990217209,
        0.06852586567401886,
        0.2903575301170349,
        -0.009351853281259537,
        -0.16613416373729706,
        -0.04338030144572258,
        0.06753307580947876,
        -0.08530300855636597,
        0.08754981309175491,
        0.01285477913916111,
        0.13237696886062622,
        0.007250525057315826,
        -0.159101203083992,
        0.1147555410861969,
        0.09751573950052261,
        0.02734675072133541,
        -0.0075307986699044704,
        0.2110118567943573,
        0.24204221367835999,
        0.15871870517730713,
        0.12885764241218567,
        0.10353782027959824,
        0.07059898227453232,
        0.046079061925411224,
        0.04407825693488121,
        -0.2970826327800751,
        -0.0808190330862999,
        0.2371242493391037,
        -0.2273326814174652,
        0.07212183624505997,
        0.011468461714684963,
        -0.12380028516054153,
        -0.07064584642648697,
        -0.017111703753471375,
        -0.019149446859955788,
        -0.18470467627048492,
        0.15865126252174377,
        -0.06009208783507347,
        -0.1574012190103531,
        -0.15550051629543304,
        0.00549639668315649,
        -0.20488812029361725,
        -0.09542731195688248,
        -0.020625529810786247,
        -0.0505695566534996,
        0.07091480493545532,
        -0.032567329704761505,
        0.11305534094572067,
        -0.037956349551677704,
        -0.005217085126787424,
        -0.08390607684850693,
        0.2586956322193146,
        -0.3115168809890747,
        -0.03188759461045265,
        0.1430327147245407,
        -0.19961325824260712,
        -0.048531968146562576,
        0.06620601564645767,
        -0.08226298540830612,
        0.029678044840693474,
        -0.1274900883436203,
        -0.04055564105510712,
        -0.15234290063381195,
        0.10624732822179794,
        0.067171610891819,
        0.10431799292564392,
        0.021204253658652306,
        -0.01179212424904108,
        -0.06625628471374512,
        0.30413946509361267,
        0.14338402450084686,
        0.018499908968806267,
        -0.06954456865787506,
        0.0705009251832962,
        -0.1930667757987976,
        0.13533316552639008,
        -0.08328275382518768,
        -0.1321967989206314,
        -0.1488257795572281,
        -0.21843808889389038,
        0.1547636091709137,
        -0.09560219943523407,
        0.04218591749668121,
        0.1471380889415741,
        -0.0044542765244841576,
        -0.06783094257116318,
        0.047594618052244186,
        -0.3066954016685486,
        0.04089271277189255,
        -0.032555751502513885,
        0.03403916582465172,
        -0.14903834462165833,
        0.15754695236682892,
        -0.15704435110092163,
        0.16658219695091248,
        -0.21759240329265594,
        0.1200450137257576,
        0.04522542282938957,
        -0.02511819638311863,
        -0.08264452964067459,
        0.1864532232284546,
        -0.048014163970947266,
        0.15678207576274872,
        0.054958097636699677,
        -0.061291661113500595,
        0.12424279749393463,
        -0.2013830542564392,
        -0.04897057265043259,
        0.1276995688676834,
        -0.09183768928050995,
        0.08315417915582657,
        0.1160893589258194,
        0.08040762692689896,
        0.055240727961063385,
        -0.23675483465194702,
        -0.018002517521381378,
        0.07659576833248138,
        0.0031637675128877163,
        -0.09218548983335495,
        -0.0210647564381361,
        -0.0038292151875793934,
        -0.2608633041381836,
        0.09309736639261246,
        0.10797902196645737,
        0.21643859148025513,
        -0.006962009239941835,
        0.19291464984416962,
        -0.038756243884563446,
        -0.02944680117070675,
        0.007158438675105572,
        -0.08186022937297821,
        0.17716442048549652,
        0.09068659693002701,
        -0.20351071655750275,
        0.018014535307884216,
        0.08403613418340683,
        -0.10350918024778366,
        -0.12513475120067596,
        -0.13306614756584167,
        -0.01577000506222248,
        0.03679956495761871,
        0.10219407081604004,
        0.19375671446323395,
        -0.003839074168354273,
        -0.017643870785832405,
        0.1649913489818573,
        0.15144795179367065,
        -0.03178669139742851,
        -0.15309569239616394,
        0.06882044672966003,
        0.1497795730829239,
        -0.16121448576450348,
        0.17384137213230133,
        -0.009274817071855068,
        0.16259795427322388,
        0.2196725457906723,
        -0.17237162590026855,
        0.07595302164554596,
        -0.13771183788776398,
        -0.20343460142612457,
        -0.17056582868099213,
        0.0111958347260952,
        0.07367343455553055,
        -0.2405308037996292,
        0.08128306269645691,
        -0.22584590315818787,
        -0.07384167611598969,
        0.15563593804836273,
        0.19606511294841766,
        0.08921125531196594,
        0.03395622968673706,
        0.10975134372711182,
        0.13821759819984436,
        0.12168795615434647,
        -0.2192361056804657,
        -0.13005122542381287,
        -0.05328686535358429,
        -0.03955225646495819,
        -0.22605231404304504,
        -0.0872359424829483,
        0.21076788008213043,
        -0.12990860641002655,
        0.021615242585539818,
        0.0619509257376194,
        -0.10558677464723587,
        -0.1325080245733261,
        -0.07477137446403503,
        0.21368767321109772,
        0.25106164813041687,
        -0.0008262726478278637,
        0.07484246790409088,
        0.04228411242365837,
        0.014136377722024918,
        0.06719041615724564,
        -0.12845776975154877,
        0.05383216217160225,
        -0.11108795553445816,
        0.0379062183201313,
        0.25280502438545227,
        -0.11692675203084946,
        -0.01856132410466671,
        -0.13691303133964539,
        -0.055058155208826065,
        -0.12157037109136581,
        0.06951145082712173,
        -0.09654776751995087,
        -0.16041170060634613,
        -0.1430637687444687,
        0.009636110626161098,
        0.3522467315196991,
        0.315357506275177,
        0.35463276505470276,
        -0.05387955531477928,
        -0.24322469532489777,
        0.08407574146986008,
        0.16775013506412506,
        0.10245956480503082,
        0.04441586136817932,
        -0.20893524587154388,
        0.01836756430566311,
        0.17858901619911194,
        0.06822539120912552,
        0.11468932777643204,
        -0.06836076080799103,
        0.17457813024520874,
        -0.024860471487045288,
        0.15043620765209198,
        -0.11376859247684479,
        0.034208592027425766,
        -0.04317966476082802,
        -0.0665307566523552,
        0.14296147227287292,
        0.07040687650442123,
        0.0034785903990268707,
        0.006544620264321566,
        0.21445776522159576,
        0.07460286468267441,
        0.13724063336849213,
        -0.16384285688400269,
        -0.1118704304099083,
        0.13652390241622925,
        0.08163437992334366,
        -0.01844727247953415,
        0.1269000768661499,
        -0.18677081167697906,
        -0.008532408624887466,
        -0.03076598234474659,
        0.2388000637292862,
        -0.14911280572414398,
        -0.044558003544807434,
        0.09666761010885239,
        -0.09270163625478745,
        -0.06839384883642197,
        0.18178243935108185,
        -0.12353937327861786,
        0.24408790469169617,
        0.11454761773347855,
        0.1340417116880417,
        0.1612400859594345,
        0.011389180086553097,
        0.20037195086479187,
        0.007080330513417721,
        0.1618296355009079,
        0.03999359533190727,
        -0.040086597204208374,
        0.10504904389381409,
        -0.039414823055267334,
        -0.15682853758335114,
        -0.039705000817775726,
        0.04951813817024231,
        -0.3859591782093048,
        -0.24998770654201508,
        0.02965581603348255,
        -0.06376521289348602,
        -0.28722453117370605,
        -0.12300170212984085,
        0.08123084157705307,
        -0.22391875088214874,
        -0.07799811661243439,
        0.04878285899758339,
        -0.07926110178232193,
        0.27638766169548035,
        -0.018149418756365776,
        -0.1017606258392334,
        0.08043579012155533,
        0.07921584695577621,
        0.060077764093875885,
        -0.04697336629033089,
        0.08246328681707382,
        0.21224091947078705,
        -0.15929153561592102,
        0.14277313649654388,
        0.159838005900383,
        0.06345300376415253,
        -0.1201838031411171,
        0.15250538289546967,
        -0.2812306880950928,
        -0.09686453640460968,
        0.17140832543373108,
        0.036847490817308426,
        0.05154259875416756,
        0.05618301033973694,
        0.10055889189243317,
        -0.08660838752985,
        0.11554960161447525,
        0.2866519093513489,
        -0.07328180968761444,
        0.08610346913337708,
        0.2311481535434723,
        -0.1994367092847824,
        0.17292506992816925,
        -0.11956010013818741,
        0.12740910053253174,
        0.10467291623353958,
        0.1527099609375,
        -0.10678660869598389,
        -0.0920606330037117,
        -0.07854067534208298,
        -0.14191071689128876,
        -0.004889266565442085,
        -0.07966221868991852,
        0.09925756603479385,
        0.22925856709480286,
        -0.04340885207056999,
        0.18359529972076416,
        -0.16307726502418518,
        0.26637381315231323,
        0.07343857735395432,
        -0.25114133954048157,
        -0.18956786394119263,
        -0.11916583776473999,
        -0.045239027589559555,
        -0.03529983386397362,
        0.06309425830841064,
        -0.04765499755740166,
        0.11783087998628616,
        0.3435060977935791,
        0.10345431417226791,
        0.13454368710517883,
        0.030540695413947105,
        0.00855118129402399,
        -0.12079452723264694,
        0.23263581097126007,
        -0.17688609659671783,
        -0.10768315196037292,
        -0.09284824132919312,
        0.08661408722400665,
        -0.0893610343337059,
        -0.07553116232156754,
        0.2848276197910309,
        -0.00043916498543694615,
        0.13164161145687103,
        0.13303659856319427,
        0.07574913650751114,
        -0.02340967208147049,
        -0.1101313903927803,
        -0.11153191328048706,
        -0.3618569076061249,
        0.08702663332223892,
        0.09463360905647278,
        -0.0875413790345192,
        0.08265385776758194,
        -0.08963140845298767,
        -0.06672625243663788,
        -0.19159621000289917,
        0.16116714477539062,
        -0.11553767323493958,
        -0.11333402246236801,
        0.008091720752418041,
        -0.20778581500053406,
        -0.06868206709623337,
        -0.06948981434106827,
        -0.1063508465886116,
        0.0017999083502218127,
        -0.013884326443076134,
        0.07863140106201172,
        -0.05138879641890526,
        0.10964507609605789,
        -0.03343472629785538,
        0.12161325663328171,
        0.1410784125328064,
        0.10389817506074905,
        0.0783052071928978,
        -0.08666514605283737,
        0.19307269155979156,
        -0.10044977068901062,
        0.11726441979408264,
        0.027654414996504784,
        -0.18885841965675354,
        0.07539542764425278,
        -0.05375349894165993,
        -0.07860234379768372,
        -0.12412754446268082,
        -0.16711659729480743,
        0.18743692338466644,
        -0.18911004066467285,
        -0.025379223749041557,
        0.18467329442501068,
        -0.2745222747325897,
        -0.04417835548520088,
        0.24217621982097626,
        0.029685309156775475,
        0.185752272605896,
        0.10456105321645737,
        0.052543170750141144,
        -0.05156278610229492,
        -0.07891871780157089,
        0.09955136477947235,
        -0.14900311827659607,
        0.015842074528336525,
        0.029547110199928284,
        -0.1720614731311798,
        0.1511252075433731,
        0.1347106397151947,
        0.008542702533304691,
        -0.032540202140808105,
        -0.14268696308135986,
        0.17431017756462097,
        0.005761607550084591,
        0.015529315918684006,
        -0.1774754375219345,
        0.14094987511634827,
        -0.027874024584889412,
        0.12108001112937927,
        0.17690467834472656,
        -0.012116189114749432,
        -0.05303030088543892,
        -0.1504058539867401,
        -0.06221045181155205,
        0.00829172134399414,
        0.11020225286483765,
        -0.0483609102666378,
        0.23878780007362366,
        -0.28822633624076843,
        0.17139950394630432,
        -0.13039018213748932,
        -0.02632601372897625,
        0.18138736486434937,
        -0.0791468545794487,
        -0.18570064008235931,
        0.017478054389357567,
        0.08901525288820267,
        0.06186366826295853,
        -0.012052608653903008,
        -0.0692639946937561,
        0.22390049695968628,
        -0.28941941261291504,
        -0.20492015779018402,
        -0.07393670827150345,
        -0.07026664912700653,
        0.092198945581913,
        -0.029360203072428703,
        0.22866158187389374,
        -0.19588002562522888,
        -0.0484505370259285,
        0.2831198275089264,
        -0.07440653443336487,
        -0.04209769517183304,
        0.09762795269489288,
        0.07104041427373886,
        -0.188867449760437,
        -0.043438870459795,
        0.0599152036011219,
        -0.023009413853287697,
        0.2926385700702667,
        -0.19116714596748352,
        -0.23317763209342957,
        -0.1676933467388153,
        0.07812684029340744,
        0.16327941417694092,
        0.2068578600883484,
        -0.05670531094074249,
        -0.11574286967515945,
        -0.05253554880619049,
        -0.1265241503715515,
        -0.027810443192720413,
        -0.10523296892642975,
        0.04478955641388893,
        -0.03387041762471199,
        -0.032753944396972656,
        -0.009910899214446545,
        -0.40038153529167175,
        0.08221983909606934,
        0.014702757820487022,
        -0.024042541161179543,
        -0.16422700881958008,
        0.07783577591180801,
        0.1313212662935257,
        0.0005474513163790107,
        -0.07117583602666855,
        -0.09595292061567307,
        -0.00022128919954411685,
        -0.147878497838974,
        0.03393743932247162,
        0.30354011058807373,
        -0.3513781726360321,
        -0.05662648007273674,
        -0.07933533936738968,
        -0.17490790784358978,
        -0.14209038019180298,
        -0.036097556352615356,
        -0.06477628648281097,
        -0.02669733203947544,
        -0.015500161796808243,
        0.1479475051164627,
        0.004104503430426121,
        0.16866695880889893,
        0.20517483353614807,
        -0.0691467896103859,
        -0.08790867775678635,
        0.1678917407989502,
        0.1645231544971466,
        -0.25474828481674194,
        0.036502230912446976,
        -0.0529896579682827,
        -0.11801531165838242,
        0.17502641677856445,
        0.11852240562438965,
        -0.12141140550374985,
        -0.10764305293560028,
        0.15686775743961334,
        0.21732071042060852,
        -0.3247951865196228,
        0.08400362730026245,
        -0.15044444799423218,
        -0.09987897425889969,
        0.09944170713424683,
        0.009106730110943317,
        0.007989490404725075,
        0.0806763619184494,
        0.17529577016830444,
        -0.14039595425128937,
        0.07151210308074951,
        0.19594740867614746,
        -0.1040303111076355,
        0.07443081587553024,
        0.06125064939260483,
        -0.11329026520252228,
        -0.0635039359331131,
        0.005650985985994339,
        0.02315746434032917,
        0.1800428181886673,
        0.1338213086128235,
        0.07489936798810959,
        0.03458601236343384,
        0.21061861515045166,
        -0.0663267970085144,
        0.028980549424886703,
        -0.012001805938780308,
        0.04591885209083557,
        0.004383050370961428,
        0.1190287321805954,
        0.159912571310997,
        0.1051202192902565,
        -0.14806991815567017,
        0.14748692512512207,
        0.011499597690999508,
        -0.2406914383172989,
        0.05211014673113823,
        0.16712787747383118,
        0.22207719087600708,
        -0.19144205749034882,
        -0.07210632413625717,
        0.1052936315536499,
        -0.15186722576618195,
        -0.211812824010849,
        -0.09859296679496765,
        0.15143722295761108,
        -0.1064852848649025,
        0.04754014313220978,
        0.05939443036913872,
        0.17575977742671967,
        0.12984511256217957,
        0.15032131969928741,
        -0.2834261655807495,
        -0.10632423311471939,
        -0.1582551747560501,
        0.0667823925614357,
        -0.15714123845100403,
        0.027690237388014793,
        0.007002115249633789,
        0.17306917905807495,
        -0.0385732538998127,
        0.20340076088905334,
        0.13794346153736115,
        -0.20136304199695587,
        0.16607294976711273,
        0.01955571211874485,
        0.042664334177970886,
        -0.3311220407485962,
        0.11310333758592606,
        -0.06501616537570953,
        -0.04049183055758476,
        0.19524379074573517,
        -0.0991249680519104,
        -0.13426510989665985,
        0.2607171833515167,
        0.03080425225198269,
        0.11286477744579315,
        0.20950382947921753,
        0.15074580907821655,
        -0.08394298702478409,
        -0.001745464513078332,
        -0.000889668648596853,
        -0.17519013583660126,
        -0.16143666207790375,
        0.06239917129278183,
        -0.045737847685813904,
        -0.2067931741476059,
        0.005575888324528933,
        0.19782376289367676,
        0.10625956207513809,
        -0.1266152411699295,
        0.09342990070581436,
        0.033670574426651,
        -0.17311899363994598,
        -0.06592930853366852,
        -0.09140797704458237,
        -0.1545540988445282,
        0.005997192580252886,
        -0.18730074167251587,
        0.21957281231880188,
        0.11564141511917114,
        0.04483889043331146,
        -0.21195591986179352,
        1.7540376575198025e-05,
        -0.2557108402252197,
        0.2245626300573349,
        -0.019232580438256264,
        -0.04710543528199196,
        -0.04158980771899223,
        0.09032395482063293,
        -0.17584188282489777,
        0.14135506749153137,
        -0.0932154506444931,
        -0.08681225776672363,
        0.10956814885139465,
        0.12825050950050354,
        -0.2701214849948883,
        0.10391104221343994,
        -0.11765056103467941,
        -0.03214922547340393,
        0.23832693696022034,
        0.13030685484409332,
        -0.10060165822505951,
        -0.007556046824902296,
        -0.21530133485794067,
        -0.24239054322242737,
        0.058790240436792374,
        0.0034431698732078075,
        -0.09063878655433655,
        0.2024395763874054,
        -0.004585699178278446,
        0.023205025121569633,
        -0.18276573717594147,
        -0.09456881880760193,
        -0.007518413942307234,
        0.02337193302810192,
        0.045323651283979416,
        -0.06043076142668724,
        0.15158529579639435,
        -0.1382066309452057,
        -0.1469123661518097,
        -0.060141682624816895,
        -0.04048366844654083,
        0.025885270908474922,
        0.04128021374344826,
        0.07664774358272552,
        0.11428684741258621,
        -0.378682404756546,
        0.07092694193124771,
        -0.2484164983034134,
        0.039971161633729935,
        0.19711469113826752,
        0.16486962139606476,
        0.03429807722568512,
        -0.15875282883644104,
        0.032402776181697845,
        0.15100820362567902,
        -0.20994456112384796,
        0.06828701496124268,
        0.011944557540118694,
        0.1460828185081482,
        -0.04685576632618904,
        -0.04538055509328842,
        0.09153389930725098,
        0.1508345752954483,
        0.05404939129948616,
        -0.1810702681541443,
        0.02378377877175808,
        0.02372865565121174,
        -0.12747792899608612,
        0.13534994423389435,
        -0.018207570537924767,
        -0.13599611818790436,
        0.06561977416276932,
        -0.03991284221410751,
        -0.08057059347629547,
        -0.07532895356416702,
        -0.042510922998189926,
        0.007542861625552177,
        0.18502269685268402,
        0.17378032207489014,
        -0.07651881128549576,
        0.2067238837480545,
        0.14361229538917542,
        0.0009502550237812102,
        -0.13686002790927887,
        -0.3943161964416504,
        -0.1145985946059227,
        -0.030744196847081184,
        0.0701410323381424,
        0.11075536906719208,
        0.15916043519973755,
        -0.3256445825099945,
        -0.11479240655899048,
        0.092145636677742,
        -0.002648015506565571,
        -0.0003114999271929264,
        -0.15275521576404572,
        0.095371775329113,
        -0.03152421489357948,
        0.07507844269275665,
        -0.06662608683109283,
        -0.23314708471298218,
        -0.21052445471286774,
        -0.13810227811336517,
        -0.08374610543251038,
        0.09169363975524902,
        -0.04172725975513458,
        0.023480327799916267,
        0.12106361240148544,
        -0.026258450001478195,
        0.11751530319452286,
        -0.13147102296352386,
        0.18570837378501892,
        0.056607868522405624,
        -0.5095392465591431,
        0.08429627120494843,
        0.008212177082896233,
        -0.14986436069011688,
        0.1039523258805275,
        -0.22754652798175812,
        -0.06761892884969711,
        0.07466591894626617,
        -0.019394315779209137,
        0.0784430056810379,
        0.22899505496025085,
        -0.008213939145207405,
        0.16840924322605133,
        0.06317206472158432,
        0.033568087965250015,
        0.1821567565202713,
        -0.011456605046987534,
        -0.10632671415805817,
        0.135833740234375,
        -0.1399049460887909,
        -0.134729266166687,
        0.003969044890254736,
        0.12103590369224548,
        -0.0546901635825634,
        -0.13981565833091736,
        0.13929788768291473,
        0.26388809084892273,
        -0.08172623068094254,
        -0.1783926784992218,
        0.0372479148209095,
        0.16790178418159485,
        0.058099545538425446,
        -0.05362672731280327,
        -0.07762617617845535,
        0.17614437639713287,
        0.3120135962963104,
        0.15073572099208832,
        -0.03973871469497681,
        -0.028069645166397095,
        -0.20098619163036346,
        0.22228531539440155,
        0.04897196963429451,
        -0.1375090330839157,
        -0.13162676990032196,
        -0.06427358090877533,
        0.04626240208745003,
        -0.25934168696403503,
        0.05341610684990883,
        0.07838312536478043,
        -0.04350157082080841,
        0.060811202973127365,
        -0.03388739377260208,
        0.25517991185188293,
        -0.059966906905174255,
        0.1733517348766327,
        0.040691062808036804,
        0.3040370047092438,
        -0.12535814940929413,
        0.14158539474010468,
        0.13696470856666565,
        -0.04310696944594383,
        0.09492143243551254,
        -0.016598213464021683,
        0.32889947295188904,
        -0.03871387988328934,
        -0.004878899082541466,
        -0.2221909910440445,
        0.09364569932222366,
        -0.17560619115829468,
        0.08743211627006531,
        -0.04077673330903053,
        -0.04502879083156586,
        0.13323132693767548,
        0.056329868733882904,
        0.02109605446457863,
        0.04657507315278053,
        -0.1120782271027565,
        -0.014177268370985985,
        0.082465760409832,
        0.12226895242929459,
        0.21533995866775513,
        0.16380555927753448,
        -0.0336126983165741,
        -0.0055621895007789135,
        0.014688754454255104,
        -0.143306702375412,
        0.1475047469139099,
        0.01836434006690979,
        0.06431117653846741,
        -0.07048223167657852,
        0.13262724876403809,
        -0.15591636300086975,
        0.020531579852104187,
        -0.007227188907563686,
        0.19481566548347473,
        0.02078964002430439,
        0.009173502214252949,
        0.11332530528306961,
        -0.10825042426586151,
        -0.062211453914642334,
        0.27251461148262024,
        0.10021493583917618,
        -0.1374652236700058,
        -0.03608865663409233,
        -0.20534425973892212,
        0.05489453300833702,
        0.15510328114032745,
        0.12368502467870712,
        0.17925412952899933,
        0.0291622132062912,
        -0.048669517040252686,
        0.1925211399793625,
        -0.12442374974489212,
        -0.030950216576457024,
        0.20301567018032074,
        -0.12327820807695389,
        -0.08868873864412308,
        0.0494840033352375,
        0.002310534007847309,
        -0.04942594841122627,
        -0.06734959781169891,
        -0.2935483157634735,
        -0.009891049936413765,
        -0.14504516124725342,
        0.200041726231575,
        -0.04924190044403076,
        0.14075009524822235,
        -0.2541584074497223,
        -0.11757847666740417,
        -0.34593644738197327,
        -0.05748344957828522,
        0.1776045709848404,
        -0.0818544402718544,
        0.1308765560388565,
        -0.19570595026016235,
        -0.04872117564082146,
        -0.04941108077764511,
        -0.02255048044025898,
        0.20597900450229645,
        -0.11997487396001816,
        0.05233433097600937,
        -0.10497403889894485,
        0.10511522740125656,
        0.20459763705730438,
        -0.1848536878824234,
        0.012484748847782612,
        0.04185347259044647,
        0.04575647786259651,
        -0.07021518796682358,
        0.061071500182151794,
        -0.052871208637952805,
        -0.04509488120675087,
        -0.1658250391483307,
        -0.15171560645103455,
        0.06924454122781754,
        0.0916207879781723,
        -0.03093748539686203,
        0.20189626514911652,
        0.016081178560853004,
        0.19255812466144562,
        0.01869400031864643,
        0.1970711201429367,
        -0.13885676860809326,
        0.04770723730325699,
        -0.011516014114022255,
        -0.17184795439243317,
        0.0768178179860115,
        0.16214574873447418,
        -0.21821393072605133,
        -0.10376528650522232,
        0.14865927398204803,
        -0.3872911036014557,
        -0.10745435953140259,
        0.07022099941968918,
        0.027296757325530052,
        -0.12836037576198578,
        0.08507728576660156,
        -0.3601873219013214,
        0.09130384027957916,
        -0.06643104553222656,
        0.06220252066850662,
        0.042034707963466644,
        -0.09580252319574356,
        0.020981721580028534,
        0.09704277664422989,
        -0.21038593351840973,
        -0.24448709189891815,
        -0.06458829343318939,
        0.13193130493164062,
        0.008433427661657333,
        0.12511669099330902,
        -0.014504767954349518,
        -0.1144435852766037,
        -0.26423391699790955,
        -0.28950235247612,
        -0.06331703066825867,
        0.01881313882768154,
        -0.24027815461158752,
        -0.004453746601939201,
        0.05761023983359337,
        0.055836424231529236,
        0.09043023735284805,
        0.051005132496356964,
        -0.22265438735485077,
        0.0029788201209157705,
        -0.07322941720485687,
        -0.17452384531497955,
        0.21789073944091797,
        -0.4029468595981598,
        -0.13053137063980103,
        0.14578664302825928,
        0.23243622481822968,
        0.3168034851551056,
        -0.2096213549375534,
        -0.22346343100070953,
        0.049271490424871445,
        -0.13740254938602448,
        0.15423907339572906,
        -0.10638256371021271,
        -0.2070286124944687,
        -0.14864951372146606,
        -0.0515657514333725,
        0.19405557215213776,
        0.10252978652715683,
        0.009313789196312428,
        -0.04632069915533066,
        -0.13894027471542358,
        -0.14195406436920166,
        -0.010611657053232193,
        -0.08530587702989578,
        0.12117327004671097,
        0.09817268699407578,
        -0.007230021990835667,
        0.022067250683903694,
        -0.0024760370142757893,
        0.03357778117060661,
        -0.12155129015445709,
        0.0480479821562767,
        -0.07353990525007248,
        -0.21399734914302826,
        -0.04016825929284096,
        -0.03504238650202751,
        0.012403549626469612,
        0.20456482470035553,
        -0.0018655156018212438,
        -0.04576743021607399,
        0.08262968063354492,
        0.02929219789803028,
        -0.17954500019550323,
        -0.05189494043588638,
        -0.042038049548864365,
        -0.3132210969924927,
        -0.022346731275320053,
        -0.1406969428062439,
        -0.09649258106946945,
        0.012445928528904915,
        0.1828780323266983,
        -0.048417944461107254,
        -0.05281226709485054,
        0.008739212527871132,
        0.10680185258388519,
        0.10194762796163559,
        -0.2339244782924652,
        0.05694015324115753,
        -0.03627820312976837,
        0.2396247833967209,
        -0.21258002519607544,
        0.04606833681464195,
        -0.09089842438697815,
        0.0749581828713417,
        -0.15451303124427795,
        -0.3006885349750519,
        -0.07529324293136597,
        0.058253172785043716,
        -0.006306533236056566,
        0.030501313507556915,
        -0.1807650923728943,
        -0.1404118537902832,
        0.13275264203548431,
        0.03601069748401642,
        0.0014713603304699063,
        0.09763956069946289,
        -0.053975384682416916,
        -0.0905923917889595,
        0.16339634358882904,
        -0.11080397665500641,
        0.22407495975494385,
        0.10999687761068344,
        -0.15082596242427826,
        -0.066953144967556,
        0.009164471179246902,
        0.03519665449857712,
        0.13610439002513885,
        -0.02482381835579872,
        -0.07704990357160568,
        0.2625730335712433,
        0.2630496919155121,
        -0.09505665302276611,
        -0.2329944372177124,
        0.020916661247611046,
        0.19035688042640686,
        -0.0407351478934288,
        -0.19385865330696106,
        -0.17445991933345795,
        -0.01410655491054058,
        -0.02469385229051113,
        -0.07100583612918854,
        -0.25175878405570984,
        0.004299158230423927,
        0.09715435653924942,
        0.02548469789326191,
        0.0855565071105957,
        0.32887163758277893,
        0.12391625344753265,
        -0.21060089766979218,
        -0.13859893381595612,
        -0.16524669528007507,
        0.15686745941638947,
        0.09212300926446915,
        -0.19340826570987701,
        -0.06572668254375458,
        -0.041909877210855484,
        -0.023445134982466698,
        -0.11273074150085449,
        0.08816040307283401,
        0.08019740134477615,
        0.044305820018053055,
        0.016988912597298622,
        0.09088372439146042,
        0.03650159016251564,
        -0.1641053408384323,
        -0.017559317871928215,
        -0.00909809023141861,
        0.02063565142452717,
        -0.11140748858451843,
        0.02731809765100479,
        -0.18213364481925964,
        0.008994336239993572,
        -0.0010907701216638088,
        -0.06944655627012253,
        -0.19952711462974548,
        -0.07702881842851639,
        0.09052962064743042,
        -0.012961591593921185,
        -0.14582626521587372,
        -0.15384282171726227,
        -0.041166532784700394,
        -0.04528660327196121,
        0.20317013561725616,
        0.12608234584331512,
        -0.14218910038471222,
        -0.043948788195848465,
        -0.3400631844997406,
        0.013505145907402039,
        0.12942425906658173,
        -0.13023920357227325,
        -0.14565761387348175,
        0.003918456844985485,
        -0.03780527412891388,
        -0.217915877699852,
        0.1157342866063118,
        -0.06779283285140991,
        0.008628787472844124,
        -0.31174513697624207,
        -0.05857417359948158,
        -0.14012929797172546,
        -0.3361596465110779,
        -0.016110962256789207,
        0.10909730941057205,
        -0.1167103573679924,
        0.17454347014427185,
        -0.001062796451151371,
        0.03435525298118591,
        -0.19233597815036774,
        0.1713879555463791,
        -0.11299166828393936,
        -0.025091417133808136,
        -0.062053702771663666,
        0.11517199873924255,
        -0.016159290447831154,
        -0.19402293860912323,
        -0.15011465549468994,
        -0.28575292229652405,
        -0.14312298595905304,
        0.0237028319388628,
        0.17043237388134003,
        0.02826187200844288,
        -0.24722708761692047,
        0.0063435412012040615,
        0.0863095223903656,
        0.21734307706356049,
        -0.12819336354732513,
        -0.158704474568367,
        -0.11141099780797958,
        0.038222506642341614,
        0.07484234124422073,
        0.27208998799324036,
        0.044025033712387085,
        0.054916586726903915,
        -0.11721248179674149,
        0.044206224381923676,
        -0.030870068818330765,
        0.2671056389808655,
        -0.03810719773173332,
        -0.07119408994913101,
        0.1547766774892807,
        0.03351692855358124,
        -0.16536781191825867,
        0.22894395887851715,
        -0.034698985517024994,
        0.014695301651954651,
        -0.053752098232507706,
        0.09621985256671906,
        0.18578751385211945,
        0.030592773109674454,
        -0.17155897617340088,
        0.09269216656684875,
        -0.08247929811477661,
        -0.17129842936992645,
        -0.2702416777610779,
        -0.11620808392763138,
        0.06153247505426407,
        -0.14109182357788086,
        0.1774825155735016,
        -0.08892995864152908,
        -0.01945986971259117,
        -0.14631301164627075,
        0.021080361679196358,
        0.10257711261510849,
        -0.0946974977850914,
        -0.04252312704920769,
        -0.1385611891746521,
        0.0058018509298563,
        -0.032961655408144,
        0.1887352466583252,
        -0.05114326998591423,
        -0.10448411852121353,
        -0.057416439056396484,
        0.24336639046669006,
        -0.03271348774433136,
        -0.08602356165647507,
        -0.04479241371154785,
        0.02613791823387146,
        -0.08547608554363251,
        -0.20765407383441925,
        0.01853979378938675,
        -0.09762997925281525,
        0.10847994685173035,
        -0.0774054154753685,
        0.06437359750270844,
        0.040183790028095245,
        -0.20018531382083893,
        0.23370425403118134,
        0.051348164677619934,
        -0.34526002407073975,
        0.17138583958148956,
        -0.007815374992787838,
        -0.15650606155395508,
        -0.029600903391838074,
        -0.06201131269335747,
        -0.24572978913784027,
        0.0021372102200984955,
        0.03491939231753349,
        -0.047840047627687454,
        -0.19001734256744385,
        -0.005952748470008373,
        0.05309732258319855,
        -0.048176173120737076,
        0.23064248263835907,
        -0.1566847413778305,
        0.2131315916776657,
        -0.13610726594924927,
        -0.03649315610527992,
        -0.04283428192138672,
        0.23373422026634216,
        -0.24623343348503113,
        -0.0034404629841446877,
        -0.2115076780319214,
        0.08098773658275604,
        -0.07024873048067093,
        -0.16041173040866852,
        -0.2806236147880554,
        -0.0890943706035614,
        -0.048996951431035995,
        -0.04457593336701393,
        -0.17591676115989685,
        -0.17006738483905792,
        -0.06621446460485458,
        -0.14106108248233795,
        -0.10339526832103729,
        0.08555825054645538,
        0.029496928676962852,
        0.16929636895656586,
        0.050361938774585724,
        -0.1534052938222885,
        0.08146197348833084,
        -0.12874524295330048,
        -0.017549624666571617,
        0.19830185174942017,
        -0.24431635439395905,
        0.11940323561429977,
        0.3468981087207794,
        0.03312560170888901,
        -0.240325927734375,
        -0.04047812893986702,
        0.0061356849037110806,
        0.1550280600786209,
        -0.09431301057338715,
        0.09186109155416489,
        0.17226837575435638,
        0.0923774391412735,
        -0.1308078020811081,
        -0.04644456505775452,
        -0.015594461932778358,
        -0.07623675465583801,
        -0.003945219796150923,
        -0.03283185139298439,
        -0.050827283412218094,
        -0.21303793787956238,
        0.024023549631237984,
        0.23149913549423218,
        0.05187012627720833,
        -0.038604848086833954,
        -0.01644088886678219,
        0.01310171652585268,
        0.2414242923259735,
        -0.11837252974510193,
        -0.10516306012868881,
        0.08682287484407425,
        0.033580973744392395,
        -0.09078237414360046,
        0.189285010099411,
        0.1470467746257782,
        -0.20128457248210907,
        -0.12176986038684845,
        0.005153363104909658,
        -0.16777993738651276,
        -0.10639601200819016,
        0.27644315361976624,
        -0.047803353518247604,
        0.13943597674369812,
        -0.09923940896987915,
        -0.1709802746772766,
        0.10713201761245728,
        0.017678529024124146,
        -0.0828709676861763,
        -0.19048430025577545,
        0.18953613936901093,
        0.04212930426001549,
        -0.1975494772195816,
        0.2892327606678009,
        -0.05767408013343811,
        0.1109449565410614,
        0.10531528294086456,
        0.17336659133434296,
        -0.06431636959314346,
        -0.01268692035228014,
        -0.14530432224273682,
        -0.28245043754577637,
        0.11441788822412491,
        0.10625913739204407,
        0.07691188901662827,
        0.22290891408920288,
        -0.059609442949295044,
        0.007964183576405048,
        -0.2611314058303833,
        0.035599056631326675,
        -0.04901484400033951,
        0.15446701645851135,
        0.06430649757385254,
        -0.08927375823259354,
        0.006507630459964275,
        0.1822049915790558,
        -0.04047983139753342,
        0.14569991827011108,
        -0.05647147819399834,
        -0.14255034923553467,
        0.1557275950908661,
        0.16833050549030304,
        -0.15958696603775024,
        0.04817782714962959,
        0.24333421885967255,
        -0.0125301294028759,
        0.22531554102897644,
        -0.10248500853776932,
        -0.09720122069120407,
        -0.19253237545490265,
        0.2396000474691391,
        -0.25011926889419556,
        0.08669965714216232,
        0.17459024488925934,
        0.0013628773158416152,
        -0.044509660452604294,
        -0.10044539719820023,
        -0.016529332846403122,
        -0.03857049718499184,
        -0.10157915949821472,
        0.3037491738796234,
        -0.009099048562347889,
        -0.1940678507089615,
        -0.037763241678476334,
        0.06735153496265411,
        0.07615644484758377,
        0.11720056086778641,
        -0.24194839596748352,
        -0.11085116118192673,
        -0.3254134953022003,
        -0.04711408168077469,
        0.3206074833869934,
        -0.09497956186532974,
        -0.08093936741352081,
        -0.0790405422449112,
        -0.020976806059479713,
        -0.055656805634498596,
        -0.0012615224113687873,
        -0.011918277479708195,
        0.09155299514532089,
        0.012528988532721996,
        0.1771007925271988,
        -0.12854860723018646,
        0.07029036432504654,
        -0.09842703491449356,
        -0.1342947632074356,
        -0.17948153614997864,
        -0.020041894167661667,
        -0.09660203009843826,
        -0.02946573682129383,
        -0.0754811242222786,
        0.16015462577342987,
        0.18623116612434387,
        0.032530199736356735,
        -0.09831869602203369,
        -0.02635173499584198,
        -0.12294372171163559,
        0.2348281890153885,
        -0.22294215857982635,
        -0.11666761338710785,
        0.0148643022403121,
        0.00212389905937016,
        0.02114407904446125,
        -0.04273531958460808,
        -0.05707653984427452,
        0.06370988488197327,
        -0.09856873005628586,
        0.14822103083133698,
        -0.02373856119811535,
        0.05218196287751198,
        -0.042346373200416565,
        0.10205718129873276,
        0.14066264033317566,
        -0.004101144149899483,
        0.06510275602340698,
        0.0810437798500061,
        0.06463177502155304,
        -0.04715781658887863,
        -0.2224539965391159,
        -0.3073658049106598,
        -0.1767018437385559,
        -0.04323365166783333,
        0.24929291009902954,
        -0.15316574275493622,
        0.1326814889907837,
        -0.07287347316741943,
        -0.008841348811984062,
        -0.05096108093857765,
        0.10280513763427734,
        -0.07272063195705414,
        -0.04534861072897911,
        0.08679784834384918,
        -0.20048949122428894,
        0.07454151660203934,
        -0.2191959023475647,
        0.17264586687088013,
        -0.035805050283670425,
        0.05720672383904457,
        -0.10758712142705917,
        0.04706205427646637,
        -0.18615558743476868,
        0.06098294258117676,
        0.03764105960726738,
        0.21411395072937012,
        -0.02539704740047455,
        -0.1202203556895256,
        -0.09011644124984741,
        0.19558662176132202,
        -0.00806974433362484,
        -0.0819859579205513,
        0.03503887727856636,
        -0.2500899136066437,
        -0.19190315902233124,
        0.13378511369228363,
        0.03492261841893196,
        -0.15264597535133362,
        -0.10129876434803009,
        -0.19632595777511597,
        -0.16477416455745697,
        0.344451367855072,
        -0.0686395913362503,
        -0.09529805183410645,
        -0.17457933723926544,
        -0.038697224110364914,
        0.11611264944076538,
        -0.07977470010519028,
        -0.07317916303873062,
        -0.13307711482048035,
        -0.06482898443937302,
        -0.032266754657030106,
        -0.29503288865089417,
        0.07684502005577087,
        -0.1482211947441101,
        -0.09070275723934174,
        -0.24855521321296692,
        -0.06867829710245132,
        -0.06207840144634247,
        0.03393661230802536,
        0.1260388195514679,
        0.22497691214084625,
        0.08039356023073196,
        0.06557860225439072,
        0.07428944855928421,
        -0.06203367933630943,
        0.016731470823287964,
        -0.03531939908862114,
        0.022474655881524086,
        -0.035766541957855225,
        -0.21837009489536285,
        0.21654203534126282,
        -0.1523227095603943,
        0.08869154006242752,
        0.14033497869968414,
        0.17097990214824677,
        0.1884755790233612,
        -0.22593452036380768,
        0.08609123528003693,
        -0.435928076505661,
        0.06411195546388626,
        0.021445563063025475,
        0.02786279283463955,
        0.19523876905441284,
        0.11752688139677048,
        -0.01457300130277872,
        -0.06050149351358414,
        -0.11663050949573517,
        -0.08497802913188934,
        0.1595553308725357,
        0.1792135238647461,
        -0.024987254291772842,
        -0.316466361284256,
        -0.005514366086572409,
        0.034478481858968735,
        0.40978777408599854,
        -0.12412398308515549,
        -0.04573577269911766,
        -0.13269777595996857,
        0.06690225750207901,
        -0.0005793580203317106,
        -0.07532845437526703,
        -0.014976690523326397,
        0.25170570611953735,
        -0.09819240123033524,
        -0.027600614354014397,
        0.1532212197780609,
        0.0027410017792135477,
        -0.032614387571811676,
        -0.11475398391485214,
        -0.11835985630750656,
        -0.029287366196513176,
        0.12215971201658249,
        0.07934892177581787,
        0.11320222914218903,
        -0.03506841883063316,
        0.030152983963489532,
        0.21824318170547485,
        0.025080064311623573,
        0.08286227285861969,
        -0.12948118150234222,
        -0.2965397238731384,
        -0.2205822616815567,
        -0.14984539151191711,
        0.03272093087434769,
        0.29616451263427734,
        -0.10138766467571259,
        -0.07144752889871597,
        -0.09468179196119308,
        -0.20901264250278473,
        -0.03795503079891205,
        0.17571590840816498,
        -0.22479598224163055,
        -0.11228403449058533,
        -0.031876884400844574,
        0.07669637352228165,
        0.2137531042098999,
        -0.3490500748157501,
        -0.08845976740121841,
        -0.12702128291130066,
        -0.002053596079349518,
        0.08429442346096039,
        0.02612468972802162,
        0.032798390835523605,
        -0.13841892778873444,
        0.1525711566209793,
        0.1938793808221817,
        -0.16441257297992706,
        -0.09006667137145996,
        0.05694519355893135,
        0.04930523782968521,
        -0.10651454329490662,
        -0.07537127286195755,
        0.020535467192530632,
        0.027868272736668587,
        0.0040806918404996395,
        -0.024538397789001465,
        0.10102774202823639,
        0.09818229079246521,
        0.13645566999912262,
        0.1297677606344223,
        0.14787854254245758,
        0.0988139733672142,
        0.004912212025374174,
        0.054683227092027664,
        0.1836566925048828,
        0.01106727123260498,
        -0.07330536097288132,
        -0.09799490869045258,
        -0.11009179800748825,
        -0.02043440192937851,
        0.2057681679725647,
        0.16223779320716858,
        -0.10306701064109802,
        0.06602500379085541,
        0.10767041891813278,
        0.09715893119573593,
        0.15773317217826843,
        0.09031789004802704,
        0.12246572971343994,
        -0.04994000867009163,
        0.008823521435260773,
        -0.13502943515777588,
        0.008869520388543606,
        -0.037516191601753235,
        -0.18750229477882385,
        0.16183225810527802,
        -0.10237668454647064,
        -0.054279591888189316,
        -0.13509400188922882,
        0.00558434659615159,
        -0.05810170993208885,
        -0.032007478177547455,
        0.10011231154203415,
        0.14424826204776764,
        0.11311870813369751,
        0.1332419514656067,
        -0.1145479753613472,
        -0.1425713449716568,
        -0.269640177488327,
        -0.044738586992025375,
        -0.11700523644685745,
        0.013966981321573257,
        0.14598919451236725,
        0.12387793511152267,
        0.11090588569641113,
        0.13928928971290588,
        0.04584101215004921,
        -0.14011694490909576,
        -0.034057289361953735,
        -0.10929632931947708,
        -0.1577843576669693,
        -0.21839779615402222,
        0.08029083162546158,
        -0.06937845796346664,
        0.05917845293879509,
        -0.27018481492996216,
        -0.003008948639035225,
        0.2686714828014374,
        -0.05678930878639221,
        0.08111432194709778,
        0.10301847010850906,
        0.07549317926168442,
        -0.03962766006588936,
        0.04227739945054054,
        -0.12204649299383163,
        0.00953360740095377,
        0.16650916635990143,
        0.060359153896570206,
        0.13678522408008575,
        0.05961613729596138,
        0.055560868233442307,
        0.11493731290102005,
        0.0411425419151783,
        0.11517520993947983,
        -0.06187713146209717,
        -0.016305500641465187,
        0.1333518773317337,
        0.007963293232023716,
        0.13759289681911469,
        -0.06984709203243256,
        -0.06648581475019455,
        0.05282900482416153,
        -0.23550401628017426,
        0.20895254611968994,
        -0.030794018879532814,
        0.1704963892698288,
        -0.2465769201517105,
        -0.16032257676124573,
        -0.13334235548973083,
        -0.12530256807804108,
        0.0004520328948274255,
        0.09823784977197647,
        -0.007423908915370703,
        0.02707733027637005,
        -0.0650029331445694,
        0.0652468204498291,
        0.08162468671798706,
        0.1307293176651001,
        -0.2455846071243286,
        -0.2541643977165222,
        0.0024279840290546417,
        -0.04491188004612923,
        0.31890669465065,
        0.05756829306483269,
        -0.06862123310565948,
        -0.2552134692668915,
        0.11789170652627945,
        0.15692132711410522,
        0.1200580969452858,
        -0.03409730643033981,
        -0.11665628850460052,
        0.2943916320800781,
        0.0021170068066567183,
        -0.17313195765018463,
        -0.23373374342918396,
        -0.031061695888638496,
        -0.25491106510162354,
        0.037398096174001694,
        -0.08676956593990326,
        -0.24765712022781372,
        0.12467020750045776,
        -0.1437072455883026,
        0.15235422551631927,
        0.05664706602692604,
        -0.18645791709423065,
        0.08084505051374435,
        -0.1857212781906128,
        -0.12178382277488708,
        -0.3069119453430176,
        0.23216155171394348,
        -0.12467397004365921,
        0.13554096221923828,
        0.13248571753501892,
        -0.19340111315250397,
        0.06429944932460785,
        -0.10416343808174133,
        0.008051551878452301,
        -0.0588357150554657,
        -0.1577061116695404,
        0.02484000287950039,
        0.11583255231380463,
        0.07574797421693802,
        0.0607602596282959,
        -0.36395779252052307,
        0.11164496839046478,
        -0.12861508131027222,
        0.03341620787978172,
        0.21686740219593048,
        -0.04774855822324753,
        0.00774607015773654,
        0.20667104423046112,
        -0.11137735843658447,
        -0.1188281700015068,
        0.1383441686630249,
        -0.18122494220733643,
        -0.014528222382068634,
        0.0863792672753334,
        0.2691054940223694,
        0.09758429229259491,
        0.22383591532707214,
        -0.11779025942087173,
        -0.11596037447452545,
        -0.25112447142601013,
        -0.09331677109003067,
        0.07338856905698776,
        -0.036112088710069656,
        -0.005318845622241497,
        -0.15556401014328003,
        0.06898104399442673,
        0.21174503862857819,
        -0.04518293961882591,
        0.13487854599952698,
        0.08381098508834839,
        0.07473041862249374,
        0.20287010073661804,
        0.1799580603837967,
        -0.09404560178518295,
        -0.10309319198131561,
        -0.16552145779132843,
        -0.008884207345545292,
        -0.13553276658058167,
        0.1703638732433319,
        -0.12923572957515717,
        0.045913368463516235,
        -0.05411547049880028,
        0.1231723204255104,
        -0.282047837972641,
        -0.04522065818309784,
        0.024113882333040237,
        -0.010404461994767189,
        -0.020620599389076233,
        -0.17436541616916656,
        0.14292719960212708,
        0.12391840666532516,
        0.06862234324216843,
        -0.08170781284570694,
        -0.22948318719863892,
        0.15367379784584045,
        0.06814617663621902,
        -0.11878671497106552,
        0.06783272325992584,
        -5.2502327889669687e-05,
        0.2690112590789795,
        0.09559857845306396,
        0.15136125683784485,
        0.014840197749435902,
        0.04807748645544052,
        -0.05781365931034088,
        -0.1853208988904953,
        0.10433938354253769,
        0.12403681874275208,
        -0.03326011076569557,
        -0.18340644240379333,
        -0.26759663224220276,
        0.23202887177467346,
        -0.08270785957574844,
        0.14971069991588593,
        -0.04051101580262184,
        -0.023686910048127174,
        -0.18585605919361115,
        0.12631845474243164,
        0.049318984150886536,
        -0.026925187557935715,
        0.011355032213032246,
        0.18096424639225006,
        -0.09187953919172287,
        -0.03593748062849045,
        -0.10908453166484833,
        -0.26083314418792725,
        -0.22711297869682312,
        0.13334694504737854,
        0.06749474257230759,
        0.2744823098182678,
        -0.17779408395290375,
        -0.18186964094638824,
        0.010053609497845173,
        0.11697616428136826,
        -0.08992036432027817,
        0.158768892288208,
        0.15219955146312714,
        0.020915983244776726,
        0.1430869996547699,
        -0.39875251054763794,
        0.03328697010874748,
        0.02679525502026081,
        0.049171075224876404,
        -0.0841141864657402,
        0.2060898095369339,
        -0.031713664531707764,
        -0.051544368267059326,
        0.13877807557582855,
        0.11122497916221619,
        -0.10040625184774399,
        0.05426909402012825,
        -0.0004688979825004935,
        -0.2225036919116974,
        0.12346376478672028,
        -0.04476127773523331,
        -0.07901965826749802,
        0.06953860074281693,
        -0.22497516870498657,
        0.0541081503033638,
        0.09027855843305588,
        0.021157803013920784,
        0.08347439765930176,
        0.14411936700344086,
        0.03327354043722153,
        -0.08842451870441437,
        -0.07465663552284241,
        0.06532249599695206,
        -0.19332106411457062,
        -0.1269775927066803,
        -0.008437876589596272,
        -0.06419964879751205,
        0.1360185593366623,
        0.02219371125102043,
        -0.35827431082725525,
        -0.06109710782766342,
        -0.0740416944026947,
        0.03398851677775383,
        -0.05547036603093147,
        0.15295465290546417,
        0.29936420917510986,
        0.12807604670524597,
        0.014414667151868343,
        -0.2537084221839905,
        -0.10594206303358078,
        -0.04619540274143219,
        0.1628415584564209,
        0.1535075455904007,
        0.008800861425697803,
        -0.04797542467713356,
        -0.07824316620826721,
        -0.03685937076807022,
        0.1635732203722,
        -0.15700273215770721,
        0.04532743990421295,
        -0.05695629492402077,
        -0.015439912676811218,
        0.021307339891791344,
        0.10294976085424423,
        0.18739505112171173,
        0.16245456039905548,
        -0.0699208602309227,
        -0.1414088010787964,
        0.05262305960059166,
        -0.027586007490754128,
        0.23609213531017303,
        -0.10012980550527573,
        -0.16751223802566528,
        0.048844821751117706,
        -0.2579655647277832,
        -0.1285477876663208,
        0.037856366485357285,
        0.11164635419845581,
        -0.15413106977939606,
        0.1427486538887024,
        -0.07457996904850006,
        0.11206921190023422,
        -0.11701857298612595,
        -0.09437502175569534,
        0.06475041806697845,
        0.2207259088754654,
        -0.22792629897594452,
        -0.013472463004291058,
        -0.16666282713413239,
        0.017706744372844696,
        -0.1186646819114685,
        -0.23474271595478058,
        -0.06498580425977707,
        0.12100359052419662,
        0.1916419267654419,
        0.10901163518428802,
        0.09240660071372986,
        0.2574864327907562,
        0.2374740093946457,
        -0.08354996144771576,
        -0.011064395308494568,
        -0.007987450808286667,
        0.1335010826587677,
        -0.11355795711278915,
        -0.08108829706907272,
        -0.053715478628873825,
        -0.12383192777633667,
        0.08772742748260498,
        -0.06862904131412506,
        -0.1033153310418129,
        -0.15733547508716583,
        0.23522382974624634,
        -0.037397969514131546,
        -0.013420495204627514,
        0.0482565239071846,
        0.14197508990764618,
        0.04502338543534279,
        -0.013172893784940243,
        0.10099483281373978,
        -0.05541926994919777,
        -0.18878965079784393,
        0.1599932461977005,
        -0.13610568642616272,
        -0.2016386091709137,
        -0.10193052887916565,
        0.0714392438530922,
        0.10271358489990234,
        0.05984347686171532,
        -0.1251271814107895,
        0.041580211371183395,
        -0.1943930983543396,
        -0.018997833132743835,
        0.09619369357824326,
        0.18798626959323883,
        -0.06498292088508606,
        -0.1008753851056099,
        -0.15156289935112,
        0.1472347229719162,
        0.2975015342235565,
        -0.2673799693584442,
        0.09929028898477554,
        0.0534885972738266,
        -0.39937520027160645,
        0.07347840815782547,
        0.0077869403176009655,
        -0.1922060251235962,
        0.11921936273574829,
        0.12209504097700119,
        0.15196606516838074,
        -0.07703126221895218,
        -0.057944681495428085,
        0.05801023170351982,
        0.29149580001831055,
        0.0945422351360321,
        0.25546184182167053,
        -0.033933863043785095,
        -0.06904389709234238,
        0.13488340377807617,
        0.12640079855918884,
        0.11820510774850845,
        -0.009452140890061855,
        0.17006579041481018,
        -0.03163187578320503,
        0.04634278640151024,
        0.005779326427727938,
        -0.030629383400082588,
        0.1310807466506958,
        0.03392048552632332,
        -0.16930291056632996,
        -0.10756894946098328,
        0.1868605613708496,
        0.04402826726436615,
        -0.10992436856031418,
        0.19718900322914124,
        -0.07401832938194275,
        0.06850003451108932,
        -0.10979537665843964,
        -0.0972188338637352,
        -0.13140694797039032,
        -0.008303576149046421,
        0.09872176498174667,
        0.2720434069633484,
        0.006783588323742151,
        0.045712508261203766,
        0.1537952423095703,
        -0.14511160552501678,
        0.2423839271068573,
        -0.011003362014889717,
        0.22339509427547455,
        -0.09087491035461426,
        -0.030333003029227257,
        -0.12598426640033722,
        0.16218417882919312,
        0.05096844956278801,
        -0.08204416185617447,
        -0.10329584032297134,
        -0.2643488049507141,
        0.1567082554101944,
        -0.10894253849983215,
        -0.23133023083209991,
        0.09321912378072739,
        0.15214936435222626,
        0.2016400545835495,
        -0.032551102340221405,
        -0.03014671802520752,
        0.21097159385681152,
        0.181136354804039,
        0.1403563916683197,
        -0.13126109540462494,
        0.36083173751831055,
        0.12076591700315475,
        0.02418351359665394,
        0.22764623165130615,
        0.06924296170473099,
        0.05328243598341942,
        -0.074184849858284,
        -0.0277645755559206,
        0.09353071451187134,
        -0.010840722359716892,
        -0.026558496057987213,
        -0.019122548401355743,
        -0.0013978374190628529,
        -0.10245665162801743,
        0.26235097646713257,
        -0.028780795633792877,
        -0.06537232547998428,
        0.2617693543434143,
        -0.0839131772518158,
        0.05693182721734047,
        0.10843557119369507,
        -0.019992833957076073,
        0.019244015216827393,
        -0.022095438092947006,
        0.125435009598732,
        0.2217160165309906,
        0.10211295634508133,
        0.17428040504455566,
        -0.18604309856891632,
        0.05881217494606972,
        0.24188221991062164,
        -0.31858840584754944,
        0.15284138917922974,
        0.0714569166302681,
        0.01576036959886551,
        0.13628913462162018,
        -0.0370909683406353,
        -0.11862193793058395,
        0.1591155081987381,
        -0.06908544898033142,
        0.08329208940267563,
        -0.0012934979749843478,
        0.11077569425106049,
        0.003024567849934101,
        0.2415807694196701,
        0.10214250534772873,
        -0.22464947402477264,
        -0.04214293137192726,
        -0.27943140268325806,
        -0.0004863482608925551,
        -0.0841628685593605,
        -0.04344644397497177,
        0.10720239579677582,
        -0.12358501553535461,
        0.23436489701271057,
        0.2351914942264557,
        -0.09894836694002151,
        -0.21328437328338623,
        0.20062533020973206,
        0.02859511598944664,
        -0.03492947667837143,
        -0.25827646255493164,
        -0.09804563224315643,
        -0.09362190961837769,
        0.03672204166650772,
        -0.0496189221739769,
        0.0427243709564209,
        0.010862522758543491,
        -0.042623985558748245,
        0.021214475855231285,
        0.046855390071868896,
        0.049609407782554626,
        -0.10602716356515884,
        -0.2125474214553833,
        0.0001268175255972892,
        0.09847097843885422,
        -0.280444860458374,
        0.20389726758003235,
        -0.06944833695888519,
        -0.08091571927070618,
        -0.09145106375217438,
        -0.07448010891675949,
        -0.01720813289284706,
        -0.06685185432434082,
        -0.021057458594441414,
        0.4053535461425781,
        0.28154197335243225,
        0.1074640080332756,
        -0.270790159702301,
        0.2123529613018036,
        -0.14246414601802826,
        -0.1415252983570099,
        0.17429159581661224,
        -0.19031213223934174,
        -0.1413288414478302,
        0.003983521834015846,
        -0.10080530494451523,
        0.13391941785812378,
        -0.07650461047887802,
        0.08403381705284119,
        0.12552139163017273,
        -0.41197454929351807,
        -0.22360947728157043,
        -0.07916221767663956,
        -0.25496652722358704,
        -0.2926367223262787,
        0.059533122926950455,
        -0.03624313697218895,
        0.2537619173526764,
        0.21775059401988983,
        0.30258065462112427,
        -0.1619124412536621,
        -0.18999280035495758,
        -0.024745076894760132,
        0.023316817358136177,
        0.10509146004915237,
        -0.15088272094726562,
        -0.1803085207939148,
        -0.05278351902961731,
        -0.1056753620505333,
        0.09558083117008209,
        -0.13902543485164642,
        0.0005571799702011049,
        0.14902274310588837,
        -0.13570977747440338,
        0.0405147448182106,
        0.06060611456632614,
        -0.08897273242473602,
        0.016205159947276115,
        0.06858845800161362,
        0.08089940249919891,
        0.020283259451389313,
        -0.06087299808859825,
        0.1147165447473526,
        -0.06167212873697281,
        -0.1988050490617752,
        0.04771919175982475,
        0.17465302348136902,
        0.09041597694158554,
        -0.11962772160768509,
        0.1708814948797226,
        0.06956972181797028,
        -0.06881318986415863,
        0.1154739260673523,
        0.06571512669324875,
        0.03208319470286369,
        -0.04160688817501068,
        0.05248371511697769,
        0.09255333989858627,
        -0.015138138085603714,
        -0.013644770719110966,
        -0.024111751466989517,
        0.07044226676225662,
        0.031738195568323135,
        -0.302390456199646,
        0.19235041737556458,
        -0.06304915994405746,
        -0.061667170375585556,
        -0.18465229868888855,
        0.16663353145122528,
        0.117116279900074,
        -0.024814559146761894,
        -0.05334198847413063,
        0.09987718611955643,
        -0.11518719047307968,
        0.11856447905302048,
        -0.19532115757465363,
        -0.011820139363408089,
        0.20345690846443176,
        -0.14084435999393463,
        0.10486156493425369,
        -0.06895218044519424,
        -0.05199137702584267,
        -0.11239548027515411,
        0.03207889944314957,
        -0.05922125652432442,
        0.08753862977027893,
        0.14771324396133423,
        0.13333168625831604,
        0.09917089343070984,
        0.08323871344327927,
        -0.05238758400082588,
        -0.11498112976551056,
        -0.15568366646766663,
        -0.004596393089741468,
        -0.009666924364864826,
        0.06647778302431107,
        -0.20031186938285828,
        -0.057813860476017,
        0.11344220489263535,
        -0.06151140108704567,
        -0.0865246132016182,
        -0.07793429493904114,
        -0.13734553754329681,
        -0.029435671865940094,
        -0.1396232545375824,
        -0.13388395309448242,
        -0.3207593858242035,
        0.14791014790534973,
        0.04480665177106857,
        -0.13542012870311737,
        0.013477245345711708,
        -0.05087102949619293,
        -0.01155008189380169,
        -0.11473492532968521,
        -0.12311864644289017,
        -0.057078659534454346,
        -0.002529325895011425,
        -0.0031534077133983374,
        0.24116410315036774,
        -0.02053474634885788,
        -0.16703176498413086,
        0.07947859168052673,
        -0.02593115344643593,
        0.049640145152807236,
        -0.10169520229101181,
        -0.10146107524633408,
        0.049478571861982346,
        0.09075241535902023,
        -0.030369771644473076,
        -0.1173773780465126,
        0.14603540301322937,
        -0.1616886556148529,
        -0.11532878130674362,
        0.04941743612289429,
        -0.028740696609020233,
        -0.19838891923427582,
        0.055695194751024246,
        0.23561139404773712,
        0.282833993434906,
        -0.21160635352134705,
        0.05635402351617813,
        -0.1092766746878624,
        -0.0505804605782032,
        0.15224285423755646,
        0.30772385001182556,
        0.039358872920274734,
        -0.1065063327550888,
        0.010376385413110256,
        0.1359647810459137,
        -0.17983296513557434,
        0.07396235316991806,
        -0.14033621549606323,
        -0.2264382243156433,
        0.14405667781829834,
        0.08147715032100677,
        -0.08997702598571777,
        0.29796910285949707,
        -0.05834360793232918,
        0.028463583439588547,
        -0.08546828478574753,
        -0.04812996834516525,
        0.041661255061626434,
        0.05175541713833809,
        0.15881198644638062,
        -0.16222216188907623,
        -0.3342610001564026,
        0.20275412499904633,
        -0.20583657920360565,
        -0.2228928655385971,
        0.00835466105490923,
        -0.03827054053544998,
        -0.17427510023117065,
        0.07493707537651062,
        -0.11622527986764908,
        -0.22251355648040771,
        0.08073624223470688,
        -0.2605617344379425,
        0.20278356969356537,
        -0.05995199829339981,
        0.05166193097829819,
        0.14095859229564667,
        0.09587003290653229,
        -0.08719833195209503,
        0.05097878724336624,
        -0.09333374351263046,
        -0.11822129786014557,
        0.025065461173653603,
        -0.18753820657730103,
        -0.07494613528251648,
        0.16427624225616455,
        0.053399503231048584,
        -0.244537815451622,
        -0.01614479348063469,
        0.08736401796340942,
        -0.10258858650922775,
        0.09153144806623459,
        -0.020569097250699997,
        -0.004513558000326157,
        0.08831998705863953,
        -0.033770136535167694,
        0.1828191876411438,
        0.20056261122226715,
        0.154287651181221,
        -0.016596557572484016,
        0.010563638061285019,
        -0.12030290067195892,
        -0.08067362755537033,
        0.05797915905714035,
        -0.12935855984687805,
        0.11927960067987442,
        -0.02132248319685459,
        0.29048120975494385,
        -0.14827394485473633,
        -0.06366690248250961,
        -0.09669634699821472,
        0.13981810212135315,
        -0.16095884144306183,
        0.041097138077020645,
        -0.07766081392765045,
        -0.12624508142471313,
        0.10764791071414948,
        -0.03231482207775116,
        -0.088274747133255,
        -0.09690964221954346,
        0.14109934866428375,
        -0.09464020282030106,
        0.005589458625763655,
        -0.1016860082745552,
        0.018197789788246155,
        -0.21013352274894714,
        -0.11087334901094437,
        -0.17206338047981262,
        0.23694470524787903,
        -0.024831688031554222,
        -0.0763920396566391,
        -0.13095636665821075,
        0.006116529460996389,
        -0.04780925437808037,
        0.04033498466014862,
        -0.08482980728149414,
        0.12243982404470444,
        0.15509891510009766,
        -0.20238935947418213,
        0.07671315968036652,
        0.0854359045624733,
        0.018807971850037575,
        0.06775039434432983,
        -0.13809457421302795,
        0.027215994894504547,
        0.25475791096687317,
        -0.06071101129055023,
        0.16458792984485626,
        0.06213860958814621,
        0.07965314388275146,
        0.08470696210861206,
        -0.12546144425868988,
        0.08580633252859116,
        -0.2606099843978882,
        0.03774699196219444,
        -0.1997009664773941,
        -0.27153047919273376,
        0.14923740923404694,
        0.05070371553301811,
        0.24749460816383362,
        0.08975909650325775,
        0.03252357244491577,
        0.23762215673923492,
        -0.12592405080795288,
        0.1289553940296173,
        -0.1457308679819107,
        0.13415758311748505,
        0.15896651148796082,
        -0.16547828912734985,
        -0.037828318774700165,
        0.09933154284954071,
        -0.04231293126940727,
        0.059800609946250916,
        -0.14094001054763794,
        -0.16875018179416656,
        0.05877130478620529,
        0.0070441351272165775,
        0.08818492293357849,
        -0.14317701756954193,
        -0.03238871693611145,
        -0.2321564108133316,
        0.05402703210711479,
        -0.02295977994799614,
        0.29003027081489563,
        -0.05132408067584038,
        -0.043006543070077896,
        -0.1627437174320221,
        -0.02623155154287815,
        0.34784260392189026,
        0.05410987138748169,
        -0.1314108669757843,
        0.024481670930981636,
        -0.24481257796287537,
        -0.20952901244163513,
        -0.22888971865177155,
        0.29729631543159485,
        0.02519102580845356,
        -0.16859790682792664,
        -0.04603344202041626,
        -0.05017726123332977,
        0.05524603649973869,
        -0.09653331339359283,
        0.12875258922576904,
        0.023653564974665642,
        -0.10877809673547745,
        -0.09430771321058273,
        0.17752444744110107,
        -0.07821685820817947,
        -0.29129645228385925,
        0.11983051151037216,
        -0.04807323217391968,
        0.07421252876520157,
        -0.03310070186853409,
        0.2067168653011322,
        -0.02143048122525215,
        -0.010617843829095364,
        -0.022407136857509613,
        -0.10157816857099533,
        -0.09145542234182358,
        -0.1237349733710289,
        -0.07299024611711502,
        0.1158524602651596,
        0.08069650828838348,
        0.05910308286547661,
        -0.06183559447526932,
        -0.10041000694036484,
        -0.008162232115864754,
        0.12598077952861786,
        0.12589573860168457,
        -0.06371010839939117,
        -0.0012216700706630945,
        0.19470877945423126,
        0.10353106260299683,
        -0.007052958942949772,
        0.127016082406044,
        -0.18728291988372803,
        0.17255711555480957,
        0.02318221889436245,
        0.039999738335609436,
        0.1795419454574585,
        -0.08824951201677322,
        0.058215200901031494,
        0.03180498257279396,
        0.008346830494701862,
        -0.13508644700050354,
        0.24889935553073883,
        0.2642398774623871,
        0.03396527096629143,
        0.026732148602604866,
        0.004191794898360968,
        -0.0010145780397579074,
        -0.0343032106757164,
        -0.1447153091430664,
        -0.22304123640060425,
        0.04491221532225609,
        0.07615089416503906,
        -0.11419868469238281,
        -0.1457962840795517,
        0.12338683009147644,
        -0.06096149608492851,
        0.06835012137889862,
        -0.03892231360077858,
        0.27304986119270325,
        -0.08556697517633438,
        -0.016907762736082077,
        -0.13753876090049744,
        0.037645600736141205,
        -0.0977366641163826,
        -0.07806426286697388,
        0.12936970591545105,
        -0.1255948692560196,
        -0.18707719445228577,
        -0.1680716574192047,
        0.11512337625026703,
        0.15915857255458832,
        -0.22679726779460907,
        -0.07937024533748627,
        -0.22001494467258453,
        0.12616989016532898,
        0.12058952450752258,
        -0.15724031627178192,
        0.031593769788742065,
        -0.023757053539156914,
        -0.10125882923603058,
        -0.04115835577249527,
        0.008924189023673534,
        0.22129355370998383,
        -0.09245661646127701,
        0.08533251285552979,
        0.10458822548389435,
        0.1749868243932724,
        -0.004165260586887598,
        -0.06645078957080841,
        -0.16851384937763214,
        0.25218838453292847,
        -0.14362689852714539,
        -0.0005747730028815567,
        0.16121163964271545,
        -0.15167947113513947,
        -0.030272359028458595,
        0.1385776400566101,
        0.048445865511894226,
        0.0009455956751480699,
        0.1565767079591751,
        -0.3828681707382202,
        0.05117825046181679,
        -0.01862836629152298,
        0.11194164305925369,
        -0.01727927289903164,
        -0.08909764140844345,
        0.02466709166765213,
        0.019564278423786163,
        0.06410016864538193,
        -0.1264171302318573,
        0.06315923482179642,
        0.2681729197502136,
        -0.022811366245150566,
        0.005334827117621899,
        0.33738604187965393,
        -0.38471174240112305,
        -0.20600655674934387,
        0.0008567105396650732,
        0.05579680949449539,
        0.011691495776176453,
        0.1195819079875946,
        -0.14951586723327637,
        -0.0007192502962425351,
        0.10390222072601318,
        0.0876283124089241,
        0.12488874047994614,
        -0.031394507735967636,
        -0.16136150062084198,
        -0.16171063482761383,
        0.1022382453083992,
        0.1994066834449768,
        0.13487529754638672,
        -0.10532835870981216,
        0.2865631580352783,
        0.10588807612657547,
        -0.09266544133424759,
        -0.09767217934131622,
        -0.08880110085010529,
        -0.07591594010591507,
        -0.24289566278457642,
        0.09266810864210129,
        -0.12010893225669861,
        0.16036896407604218,
        0.18790492415428162,
        0.012898582033813,
        0.027205513790249825,
        -0.0743296891450882,
        -0.05820486694574356,
        0.03635690361261368,
        -0.14331667125225067,
        -0.05039805546402931,
        0.13052958250045776,
        -0.10796838998794556,
        -0.036459121853113174,
        0.20155787467956543,
        -0.022467052564024925,
        0.17601093649864197,
        -0.13169346749782562,
        0.015527667477726936,
        -0.1645922213792801,
        -0.17864319682121277,
        -0.12198525667190552,
        -0.12463667243719101,
        -0.07589127868413925,
        0.29172322154045105,
        0.15264856815338135,
        -0.11552269756793976,
        0.03440719097852707,
        -0.0932987779378891,
        0.010539249517023563,
        -0.21349166333675385,
        0.05412274971604347,
        -0.15207920968532562,
        0.09277313202619553,
        -0.11520691961050034,
        -0.09114304184913635,
        -0.024740422144532204,
        0.17039166390895844,
        -0.14879213273525238,
        0.005942557938396931,
        0.1652069091796875,
        0.050520844757556915,
        -0.4069552719593048,
        0.2351030707359314,
        -0.048649806529283524,
        -0.1521761566400528,
        0.08075840771198273,
        -0.14158037304878235,
        -0.1354852020740509,
        0.14937832951545715,
        0.0866881012916565,
        0.21689535677433014,
        -0.20379853248596191,
        -0.025976456701755524,
        0.17586949467658997,
        0.13583754003047943,
        0.17911948263645172,
        -0.1495293825864792,
        0.0646391436457634,
        0.10876449197530746,
        -0.1670728325843811,
        0.12618862092494965,
        -0.05986332520842552,
        -0.11163175106048584,
        -0.14166754484176636,
        0.12319237738847733,
        0.10521088540554047,
        0.1439152956008911,
        -0.10009076446294785,
        0.2779133915901184,
        -0.10368945449590683,
        -0.33873555064201355,
        -0.06158902123570442,
        0.016693154349923134,
        0.08706685155630112,
        -0.14466263353824615,
        0.18384280800819397,
        0.040371477603912354,
        -0.13675940036773682,
        0.16386406123638153,
        0.01834649033844471,
        -0.17454220354557037,
        0.015855655074119568,
        0.07327761501073837,
        0.015592227689921856,
        -0.14557187259197235,
        -0.078127421438694,
        -0.19455812871456146,
        -0.013827839866280556,
        0.22598505020141602,
        0.07136815041303635,
        0.10569380968809128,
        -0.15082937479019165,
        0.0060656508430838585,
        0.09243854135274887,
        -0.05016215518116951,
        0.3805769979953766,
        -0.2471785545349121,
        -0.10089287906885147,
        -0.0941225215792656,
        0.04551360756158829,
        -0.0743572786450386,
        0.17072613537311554,
        0.0927845686674118,
        -0.25421324372291565,
        -0.09324801713228226,
        -0.004980152938514948,
        -0.06923693418502808,
        -0.06973421573638916,
        0.05915350466966629,
        0.035928722470998764,
        -0.008640418760478497,
        -0.3095335066318512,
        -0.26467978954315186,
        0.11105167865753174,
        0.020112868398427963,
        0.03380325809121132,
        -0.0933287963271141,
        0.16478368639945984,
        -0.002643582643941045,
        -0.19042132794857025,
        -0.016721775755286217,
        -0.03567482903599739,
        0.11932092905044556,
        -0.16042600572109222,
        -0.23925642669200897,
        -0.10343992710113525,
        0.024541040882468224,
        0.005947462748736143,
        -0.05346066877245903,
        0.0580272451043129,
        -0.07071816176176071,
        -0.0577068105340004,
        -0.11042776703834534,
        0.03987244889140129,
        -0.10916724801063538,
        -0.1403025984764099,
        -0.039831627160310745,
        0.18470823764801025,
        0.1864771991968155,
        0.06019524112343788,
        0.03803568333387375,
        0.1896674782037735,
        -0.050297804176807404,
        0.13573458790779114,
        0.03152525797486305,
        0.1329541951417923,
        0.20082777738571167,
        0.08488693833351135,
        -0.10085442662239075,
        0.22873617708683014,
        0.07539694756269455,
        -0.18982617557048798,
        -0.04282403364777565,
        -0.07562576234340668,
        -0.08007314056158066,
        -0.07862237095832825,
        0.1978113204240799,
        -0.03462066873908043,
        0.09563468396663666,
        -0.13143731653690338,
        -0.053345028311014175,
        -0.13529443740844727,
        -0.19755946099758148,
        -0.07434044778347015,
        0.13918641209602356,
        0.09708422422409058,
        -0.05546301603317261,
        -0.26606306433677673,
        -0.11872529983520508,
        -0.009855231270194054,
        0.2452051192522049,
        -0.042171280831098557,
        0.06730567663908005,
        0.18613532185554504,
        -0.03271613270044327,
        -0.1339310258626938,
        0.0027331660967320204,
        -0.20209412276744843,
        -0.12953200936317444,
        -0.13411639630794525,
        0.0574449747800827,
        0.28370484709739685,
        -0.3474711775779724,
        0.17285990715026855,
        -0.08313468098640442,
        0.04786143824458122,
        0.05448707938194275,
        -0.2005295604467392,
        -0.2535577416419983,
        0.0599132664501667,
        0.08369262516498566,
        0.12704285979270935,
        0.10021550953388214,
        0.16678732633590698,
        0.14472679793834686,
        -0.06242411211133003,
        0.1644545942544937,
        0.06670357286930084,
        -0.08616027981042862,
        0.2985398769378662,
        0.13633549213409424,
        0.10497714579105377,
        -0.13158883154392242,
        -0.08261574804782867,
        0.2460067719221115,
        0.046484190970659256,
        -0.08405287563800812,
        0.0504211001098156,
        0.0026524332351982594,
        0.07310310006141663,
        0.07415338605642319,
        0.05357645824551582,
        0.08899926394224167,
        0.027840884402394295,
        -0.24112482368946075,
        -0.09605223685503006,
        0.19089485704898834,
        0.06610915809869766,
        0.023387599736452103,
        0.2653454840183258,
        -0.027813587337732315,
        -0.027921536937355995,
        -0.14170321822166443,
        0.07404328882694244,
        0.10858574509620667,
        -0.2102845311164856,
        -0.06544379144906998,
        0.0018755653873085976,
        -0.10360188782215118,
        0.19167529046535492,
        0.04293432459235191,
        -0.2381114661693573,
        -0.1176670491695404,
        -0.1471790224313736,
        -0.11006913334131241,
        0.2757885456085205,
        -0.21869778633117676,
        -0.00677447859197855,
        -0.061851851642131805,
        0.04308521747589111,
        -0.10311901569366455,
        0.016469020396471024,
        -0.11441180855035782,
        -0.005085731390863657,
        -0.09544399380683899,
        -0.16338840126991272,
        0.03810615837574005,
        0.16429519653320312,
        -0.291400283575058,
        0.14927572011947632,
        -0.169369637966156,
        -0.04053064435720444,
        -0.13737031817436218,
        0.14821979403495789,
        0.09636054933071136,
        0.04617084562778473,
        0.09991683065891266,
        0.1613331437110901,
        -0.04637704789638519,
        0.19567951560020447,
        0.0061737531796097755,
        0.08989040553569794,
        0.3583851158618927,
        0.03228325769305229,
        0.08091965317726135,
        -0.08754950761795044,
        -0.03305492177605629,
        0.07412755489349365,
        -0.22702090442180634,
        0.15902861952781677,
        -0.0021888345945626497,
        -0.12740696966648102,
        -0.1376245617866516,
        0.29535961151123047,
        -0.02949179708957672,
        0.06040038913488388,
        0.34937143325805664,
        0.05143778398633003,
        -0.04980063438415527,
        -0.17013898491859436,
        0.12675301730632782,
        0.04761557653546333,
        0.06444434076547623,
        -0.015162074938416481,
        0.05694988742470741,
        -0.06078344210982323,
        0.08249451220035553,
        -0.1848723143339157,
        -0.011504914611577988,
        0.10238818824291229,
        -0.003977008163928986,
        0.18990300595760345,
        0.08275412023067474,
        -0.04893976449966431,
        -0.21456056833267212,
        0.07766620069742203,
        0.10383784770965576,
        -0.09267929196357727,
        -0.19173748791217804,
        0.08564341068267822,
        0.0758109986782074,
        -0.04409901052713394,
        0.10892393440008163,
        0.07424995303153992,
        -0.06136234849691391,
        0.03280949220061302,
        0.040690429508686066,
        0.06717430055141449,
        0.2185070514678955,
        0.24849696457386017,
        -0.03742365166544914,
        0.03826867416501045,
        0.06892377138137817,
        0.0735887661576271,
        -0.18506090342998505,
        0.06714101880788803,
        -0.07614993304014206,
        0.05308692157268524,
        -0.08284109085798264,
        0.0508301816880703,
        -0.03039281629025936,
        -0.010849878191947937,
        0.27889394760131836,
        -0.09636089205741882,
        -0.14773507416248322,
        -0.12956663966178894,
        0.017733896151185036,
        0.09811311960220337,
        0.04417940974235535,
        -0.19134289026260376,
        0.22571486234664917,
        0.19180889427661896,
        0.022221960127353668,
        -0.0705186054110527,
        0.05132745951414108,
        -0.26848042011260986,
        0.11089472472667694,
        0.012102216482162476,
        -0.02369803376495838,
        0.030477844178676605,
        0.16234107315540314,
        0.015105915255844593,
        -0.0028316439129412174,
        -0.16281352937221527,
        -0.2317303568124771,
        0.026436571031808853,
        -0.11666204035282135,
        0.0378551259636879,
        -0.09787985682487488,
        0.018314387649297714,
        0.009019463323056698,
        0.09080173820257187,
        -0.165527805685997,
        0.027409080415964127,
        0.17952857911586761,
        -0.010160849429666996,
        0.3756672739982605,
        0.17848935723304749,
        -0.0831000953912735,
        -0.12041595578193665,
        -0.15230455994606018,
        0.11810659617185593,
        -0.11985722929239273,
        -0.0716467872262001,
        0.0380069799721241,
        -0.06488648802042007,
        0.07070561498403549,
        0.06667746603488922,
        0.09125419706106186,
        0.22832472622394562,
        -0.1336752325296402,
        0.111603744328022,
        -0.2033143937587738,
        -0.027186965569853783,
        0.035696227103471756,
        0.08766395598649979,
        0.1618911474943161,
        0.06386205554008484,
        -0.17741766571998596,
        -0.00483993673697114,
        -0.008617809042334557,
        -0.1091228649020195,
        -0.2635500729084015,
        -0.04408605024218559,
        -0.000856007682159543,
        0.08150860667228699,
        0.1628354787826538,
        -0.041021302342414856,
        -0.06349034607410431,
        0.2013922482728958,
        -0.10731329023838043,
        -0.21727913618087769,
        0.07926962524652481,
        -0.0164442528039217,
        0.11797958612442017,
        0.1439257711172104,
        0.013371684588491917,
        -0.23459674417972565,
        0.1632666438817978,
        -0.08527447283267975,
        0.06789789348840714,
        0.22221939265727997,
        0.20548872649669647,
        0.20477788150310516,
        0.1002531349658966,
        0.1050337478518486,
        0.30296406149864197,
        -0.005029184743762016,
        -0.08609334379434586,
        0.08488438278436661,
        0.028072472661733627,
        -0.1272222101688385,
        0.14097246527671814,
        -0.04275483638048172,
        -0.020092623308300972,
        0.10830659419298172,
        0.0016214150236919522,
        0.07168213278055191,
        0.08327071368694305,
        0.0038092471659183502,
        -0.343351274728775,
        0.1398499310016632,
        -0.2044312208890915,
        -0.09343612194061279,
        0.0909961611032486,
        -0.03343218192458153,
        -0.12669241428375244,
        -0.14358167350292206,
        0.05882875993847847,
        -0.06092418357729912,
        0.005041434429585934,
        0.21744272112846375,
        0.05986487865447998,
        0.19702354073524475,
        0.16864755749702454,
        -0.29221683740615845,
        -0.04065408557653427,
        -0.24070937931537628,
        0.19228801131248474,
        -0.21137042343616486,
        0.07336004078388214,
        -0.09955836832523346,
        -0.25505614280700684,
        0.04652070999145508,
        -0.07265756279230118,
        -0.08722400665283203,
        -0.06203298270702362,
        -0.26099056005477905,
        0.025885524228215218,
        -0.2191387116909027,
        0.05456564947962761,
        -0.05090662091970444,
        -0.2017291933298111,
        0.25411468744277954,
        -0.003202053951099515,
        0.12438538670539856,
        0.22982771694660187,
        0.1642683893442154,
        0.2438833862543106,
        -0.007013000547885895,
        -0.24547694623470306,
        -0.16714538633823395,
        -0.037697143852710724,
        0.037167035043239594,
        0.09874708950519562,
        -0.03484627604484558,
        -0.03727291524410248,
        -0.12617778778076172,
        -0.23886409401893616,
        -0.1967482566833496,
        0.03942878916859627,
        0.17382346093654633,
        0.09468504786491394,
        -0.11975734680891037,
        -0.23325355350971222,
        0.12186918407678604,
        -0.032472286373376846,
        -0.05076293647289276,
        0.03292933478951454,
        -0.09470275789499283,
        0.12278994172811508,
        -0.032451435923576355,
        -0.11864404380321503,
        0.16739210486412048,
        0.06505616009235382,
        0.0755365788936615,
        0.07447557896375656,
        0.18896852433681488,
        -0.10939230024814606,
        0.17355041205883026,
        0.13671180605888367,
        0.08786296844482422,
        -0.23407411575317383,
        0.022672099992632866,
        0.09007985889911652,
        0.10034994035959244,
        -0.06694759428501129,
        0.17471162974834442,
        -0.010570511221885681,
        -0.030378753319382668,
        -0.055356163531541824,
        -0.07606477290391922,
        0.0520302951335907,
        -0.06150611490011215,
        0.09211668372154236,
        0.11888900399208069,
        0.02715061418712139,
        0.07338393479585648,
        -0.11601575464010239,
        0.12464788556098938,
        0.11999533325433731,
        0.10547133535146713,
        0.14609618484973907,
        -0.05429815128445625,
        0.04363728687167168,
        0.1434103548526764,
        -0.09116644412279129,
        0.1639465093612671,
        -0.06307903677225113,
        -0.07425861805677414,
        0.1023479551076889,
        -0.2624296247959137,
        0.03967299312353134,
        0.1145251989364624,
        0.16316840052604675,
        0.02246375009417534,
        -0.07547394931316376,
        0.11470457911491394,
        0.03796953707933426,
        -0.016377169638872147,
        -0.06736048310995102,
        0.11726890504360199,
        -0.09770045429468155,
        -0.017870625481009483,
        -0.08938026428222656,
        0.1410689502954483,
        -0.060037098824977875,
        0.147081658244133,
        -0.021306468173861504,
        0.15313874185085297,
        -0.07221657037734985,
        0.09602054208517075,
        -0.1369638890028,
        0.04460477828979492,
        0.10269470512866974,
        0.033599067479372025,
        0.04683462530374527,
        -0.026144932955503464,
        -0.15504306554794312,
        -0.08733542263507843,
        0.09257245808839798,
        0.2246626317501068,
        0.18392778933048248,
        0.21497276425361633,
        -0.13075560331344604,
        -0.13120192289352417,
        0.058391448110342026,
        0.2472161054611206,
        -0.036250121891498566,
        0.0906376838684082,
        0.026444057002663612,
        0.03539622575044632,
        -0.1323593109846115,
        -0.06040656194090843,
        0.05328315868973732,
        -0.0031831690575927496,
        -0.03651757538318634,
        -0.013444202020764351,
        -0.08750161528587341,
        -0.38512444496154785,
        0.13911791145801544,
        0.16618362069129944,
        0.10557114332914352,
        0.12260521203279495,
        -0.050368767231702805,
        -0.14402087032794952,
        -0.12258554250001907,
        -0.05395299568772316,
        -0.19914011657238007,
        0.13025163114070892,
        0.10662936419248581,
        0.10026472061872482,
        0.16992388665676117,
        0.10481861978769302,
        -0.24296870827674866,
        -0.05034036189317703,
        -0.003865740727633238,
        -0.16167885065078735,
        -0.14308415353298187,
        -0.24732716381549835,
        0.008408831432461739,
        -0.17592808604240417,
        -0.15990391373634338,
        0.20298951864242554,
        0.10073089599609375,
        0.0039533767849206924,
        0.18469972908496857,
        0.1526471972465515,
        0.306015282869339,
        0.16000735759735107,
        -0.21881334483623505,
        0.017686184495687485,
        0.16574861109256744,
        0.2093663215637207,
        -0.07732460647821426,
        -0.16417880356311798,
        0.140016570687294,
        -0.05562533810734749,
        -0.020978713408112526,
        0.27364304661750793,
        0.1405252367258072,
        -0.14485512673854828,
        0.07141371816396713,
        0.12845847010612488,
        0.03612009808421135,
        -0.18353353440761566,
        0.1141180545091629,
        -0.1407516598701477,
        -0.014806272462010384,
        -0.1844237744808197,
        0.1850610226392746,
        -0.08960583806037903,
        0.2764558494091034,
        0.12810596823692322,
        0.02889544516801834,
        0.058718908578157425,
        0.18494102358818054,
        0.21352608501911163,
        0.15139588713645935,
        -0.10777228325605392,
        -0.07454632967710495,
        0.121862031519413,
        -0.26241445541381836,
        0.16148975491523743,
        -0.04409245029091835,
        -0.1374211609363556,
        -0.08384736627340317,
        -0.12434602528810501,
        -0.021244818344712257,
        0.019181979820132256,
        0.03863612562417984,
        0.26048094034194946,
        -0.03264768049120903,
        0.16035211086273193,
        -0.032216627150774,
        -0.1604880392551422,
        -0.11260838806629181,
        0.04934942349791527,
        0.03297433629631996,
        -0.23443195223808289,
        -0.1407875418663025,
        -0.2787603437900543,
        -0.11399366706609726,
        -0.06546241790056229,
        -0.20759010314941406,
        -0.16207866370677948,
        -0.06758495420217514,
        0.07351502031087875,
        -0.01790732704102993,
        -0.10893281549215317,
        -0.027821732684969902,
        0.020603066310286522,
        -0.1094106063246727,
        0.05518840625882149,
        -0.20462480187416077,
        0.10761872678995132,
        -0.2057611346244812,
        -0.01906270906329155,
        0.003302986966446042,
        0.05255523696541786,
        0.21706217527389526,
        -0.2120000272989273,
        -0.03875274583697319,
        -0.062498290091753006,
        0.09502618759870529,
        0.13599300384521484,
        -0.09866683185100555,
        0.11374189704656601,
        -0.14799152314662933,
        -0.145299032330513,
        0.04515668749809265,
        -0.11120891571044922,
        -0.014173246920108795,
        0.23198053240776062,
        0.046311575919389725,
        0.0870746448636055,
        0.22215549647808075,
        -0.03003094531595707,
        -0.19346773624420166,
        0.0935177430510521,
        -0.22173438966274261,
        0.13296326994895935,
        0.12619036436080933,
        -0.16608114540576935,
        0.107118621468544,
        0.0801437497138977,
        -0.04761438071727753,
        -0.048632849007844925,
        -0.008333506062626839,
        0.05323096737265587,
        -0.11074495315551758,
        -0.12076660245656967,
        -0.03697612136602402,
        -0.1546853631734848,
        0.04829884693026543,
        -0.21994438767433167,
        -0.14145925641059875,
        0.06267812103033066,
        0.018338462337851524,
        0.24235688149929047,
        -0.11426781117916107,
        -0.16206005215644836,
        -0.02218017540872097,
        0.019854718819260597,
        -0.16300342977046967,
        -0.05270399898290634,
        0.022423788905143738,
        0.061172064393758774,
        0.0886547714471817,
        -0.008859698660671711,
        0.029258619993925095,
        0.0862012654542923,
        -0.14200347661972046,
        0.07920560985803604,
        0.037755273282527924,
        -0.21403378248214722,
        0.016819553449749947,
        0.17399072647094727,
        0.0299989003688097,
        -0.18502281606197357,
        0.2682279348373413,
        -0.20031651854515076,
        -0.02653382159769535,
        0.20888511836528778,
        -0.1609237790107727,
        0.054375097155570984,
        -0.04427282512187958,
        -0.21142040193080902,
        -0.1049855574965477,
        0.017077285796403885,
        -0.20558151602745056,
        -0.09654980897903442,
        0.18001773953437805,
        0.10351864993572235,
        0.1599479764699936,
        0.06818641722202301,
        0.09087201207876205,
        0.03714537248015404,
        0.028922533616423607,
        0.04936150088906288,
        -0.06089775264263153,
        0.25515368580818176,
        -0.12976787984371185,
        -0.28726136684417725,
        0.024984247982501984,
        -0.0483100600540638,
        -0.0683852881193161,
        0.16878552734851837,
        -0.10919207334518433,
        -0.06816449016332626,
        0.12638972699642181,
        -0.15176017582416534,
        -0.18394865095615387,
        0.07704317569732666,
        0.01500838901847601,
        0.08904053270816803,
        0.11331766098737717,
        0.20772266387939453,
        0.04777836799621582,
        0.027541495859622955,
        0.06458964198827744,
        -0.10240492969751358,
        -0.20852622389793396,
        -0.0486874058842659,
        -0.07091180235147476,
        -0.11341499537229538,
        0.10728805512189865,
        0.23981043696403503,
        0.013212122954428196,
        -0.31884223222732544,
        0.12934425473213196,
        0.2307325154542923,
        -0.054511092603206635,
        -0.0019340685103088617,
        0.27423861622810364,
        0.08268672972917557,
        0.13672877848148346,
        -0.03692273795604706,
        0.01816481351852417,
        -0.09408580511808395,
        0.003914430737495422,
        -0.066909059882164,
        0.02722824364900589,
        0.092659592628479,
        0.030538808554410934,
        0.014213143847882748,
        0.0567534975707531,
        0.28988566994667053,
        0.1625262349843979,
        0.08141285181045532,
        0.018975703045725822,
        -0.35137712955474854,
        -0.10169637948274612,
        0.004416967276483774,
        -0.2294280081987381,
        -0.01286163181066513,
        0.09072559326887131,
        -0.008276949636638165,
        -0.1428140550851822,
        -0.2587772309780121,
        0.23153191804885864,
        0.07067172974348068,
        -0.003406423144042492,
        0.16002169251441956,
        0.05000237002968788,
        0.10771415382623672,
        -1.7195452528540045e-05,
        -0.004434664733707905,
        -0.1258077174425125,
        0.14750252664089203,
        -0.21797798573970795,
        0.0351528562605381,
        -0.30572274327278137,
        0.2092447131872177,
        0.15052182972431183,
        -0.16466164588928223,
        -0.26809483766555786,
        -0.1419781744480133,
        0.13112832605838776,
        -0.04446686431765556,
        0.18987324833869934,
        0.10639528185129166,
        0.033348217606544495,
        -0.04938095435500145,
        0.2663158178329468,
        0.08547874540090561,
        0.026126790791749954,
        -0.11029203981161118,
        -0.08382873982191086,
        -0.1556442826986313,
        -0.29166194796562195,
        0.32426610589027405,
        -0.18419846892356873,
        -0.13167604804039001,
        -0.04775698482990265,
        -0.0004816786968149245,
        -0.06309055536985397,
        -0.13391517102718353,
        -0.0640672817826271,
        0.07754120975732803,
        0.25655385851860046,
        0.005088708829134703,
        0.07412266731262207,
        -0.12620246410369873,
        -0.29641976952552795,
        -0.16048455238342285,
        -0.09189289808273315,
        0.16091004014015198,
        0.15150141716003418,
        0.024930153042078018,
        -0.011439133435487747,
        -0.002495306311175227,
        -0.08881431072950363,
        0.1992211788892746,
        -0.07593463361263275,
        -0.24980570375919342,
        0.06513006240129471,
        -0.10052227228879929,
        -0.01055342610925436,
        -0.26669207215309143,
        0.08110888302326202,
        0.1019950658082962,
        -0.09056344628334045,
        0.15023423731327057,
        0.2222796380519867,
        -0.14161869883537292,
        0.003395691281184554,
        -0.04607411101460457,
        -0.0569806769490242,
        -0.03243075683712959,
        -0.11434154957532883,
        -0.03951955959200859,
        0.09476909041404724,
        -0.1105501726269722,
        0.040889400988817215,
        0.05369146168231964,
        -0.12044598907232285,
        0.08816306293010712,
        0.09823402762413025,
        -0.15468116104602814,
        -0.17656898498535156,
        0.2263224720954895,
        0.03085484355688095,
        0.006634943187236786,
        0.169316828250885,
        -0.12967734038829803,
        -0.1408153623342514,
        0.014349722303450108,
        0.09425557404756546,
        0.15124477446079254,
        -0.04900702089071274,
        -0.04088086634874344,
        0.18658308684825897,
        -0.10559886693954468,
        0.16543011367321014,
        0.10894232243299484,
        -0.15218088030815125,
        -0.11030121892690659,
        0.2474692165851593,
        -0.2533498704433441,
        -0.12641294300556183,
        -0.10009540617465973,
        0.039601508527994156,
        -0.048723962157964706,
        -0.030554383993148804,
        -0.062024395912885666,
        0.2643077075481415,
        -0.15056726336479187,
        0.12969209253787994,
        0.13023842871189117,
        0.03704550117254257,
        -0.1644439399242401,
        -0.05236925184726715,
        0.023747643455863,
        0.045782048255205154,
        0.273544043302536,
        0.12918326258659363,
        -0.04401037096977234,
        -0.15475881099700928,
        -0.028539983555674553,
        0.15912187099456787,
        -0.007127624005079269,
        -0.1162257120013237,
        -0.008494645357131958,
        0.11118184030056,
        0.20474457740783691,
        0.08650171756744385,
        0.1489134579896927,
        -0.004661365412175655,
        0.21180814504623413,
        0.086172915995121,
        0.17452947795391083,
        0.2736673355102539,
        -0.07015247642993927,
        0.05335632711648941,
        -0.08176611363887787,
        -0.026038948446512222,
        0.15260210633277893,
        -0.06163788586854935,
        0.15332244336605072,
        0.04109544679522514,
        -0.307694673538208,
        0.10514917969703674,
        0.043090686202049255,
        0.13081248104572296,
        0.05777869001030922,
        0.06300348043441772,
        -0.24151358008384705,
        -0.03406066820025444,
        0.13677239418029785,
        0.045228585600852966,
        -0.006252625025808811,
        0.05688745900988579,
        -0.15701702237129211,
        -0.23146656155586243,
        -0.2113361358642578,
        -0.025804229080677032,
        -0.01054981630295515,
        0.08571173995733261,
        -0.23027075827121735,
        0.0886915773153305,
        -0.06302125751972198,
        -0.06504972279071808,
        0.07019434124231339,
        -0.08455862104892731,
        -0.033367615193128586,
        0.17398859560489655,
        -0.05684245377779007,
        0.16526487469673157,
        -0.0592554546892643,
        -0.03274239972233772,
        -0.0467902347445488,
        -0.19432656466960907,
        -0.2794390320777893,
        -0.11600103974342346,
        -0.0003377391258254647,
        -0.35622507333755493,
        0.010272253304719925,
        0.19803397357463837,
        0.06318756937980652,
        -0.14989857375621796,
        -0.024883083999156952,
        0.09327273815870285,
        0.06909990310668945,
        -0.1169741228222847,
        -0.046081334352493286,
        0.192171111702919,
        -0.24205254018306732,
        -0.10667512565851212,
        -0.08831865340471268,
        0.11890725046396255,
        0.09811189025640488,
        0.18565189838409424,
        0.08465608954429626,
        -0.09898847341537476,
        -0.09596022218465805,
        -0.21579551696777344,
        0.21756649017333984,
        0.011334539391100407,
        0.13015107810497284,
        -0.12779413163661957,
        -0.10328248143196106,
        0.02774161845445633,
        -0.0024662672076374292,
        0.02012721821665764,
        0.0135665787383914,
        0.08468005806207657,
        -0.07203368097543716,
        0.17735008895397186,
        -0.0984867513179779,
        -0.02046467922627926,
        -0.02613227441906929,
        -0.11479456722736359,
        -0.04956970363855362,
        -0.19914837181568146,
        -0.1336764693260193,
        0.02494029887020588,
        -0.02058410830795765,
        0.07384918630123138,
        0.15907104313373566,
        0.10194558650255203,
        -0.19573800265789032,
        0.27588772773742676,
        0.2835589349269867,
        -0.13782963156700134,
        0.19753119349479675,
        -0.1732410341501236,
        -0.059145260602235794,
        0.03976196050643921,
        -0.05192131549119949,
        -0.014877207577228546,
        -0.06099200248718262,
        -0.21096035838127136,
        0.04383070766925812,
        0.2301291972398758,
        -0.13072477281093597,
        -0.11518797278404236,
        -0.008790167048573494,
        0.11201611906290054,
        0.2741507887840271,
        0.13934260606765747,
        -0.27910926938056946,
        0.11409856379032135,
        0.02803630195558071,
        0.05830938741564751,
        0.09559715539216995,
        -0.4574747681617737,
        -0.08098023384809494,
        -0.2039388120174408,
        0.04699089750647545,
        0.05020071566104889,
        -0.2245974838733673,
        0.03126287832856178,
        0.06918172538280487,
        -0.2150077223777771,
        0.1762278825044632,
        0.20674370229244232,
        0.23934361338615417,
        0.03466803580522537,
        0.051807284355163574,
        0.12747961282730103,
        0.14026165008544922,
        0.024783127009868622,
        -0.2292548269033432,
        -0.16992872953414917,
        0.06617079675197601,
        -0.036083873361349106,
        0.037573687732219696,
        -0.26154038310050964,
        -0.21592968702316284,
        0.07977158576250076,
        -0.13910365104675293,
        -0.10988238453865051,
        0.13166594505310059,
        0.2202320247888565,
        -0.31089064478874207,
        -0.1398538202047348,
        -0.021285951137542725,
        -0.1561592072248459,
        -0.01954994536936283,
        -0.07971533387899399,
        -0.10204970091581345,
        0.06089811399579048,
        -0.07804878801107407,
        -0.11620384454727173,
        0.10149354487657547,
        0.047288358211517334,
        0.018282301723957062,
        -0.047355081886053085,
        0.020289842039346695,
        -0.09072542935609818,
        -0.08306991308927536,
        -0.06633467227220535,
        0.10565339028835297,
        0.12302552163600922,
        0.09979790449142456,
        0.11557313054800034,
        0.0653003603219986,
        0.17666073143482208,
        -0.005355649162083864,
        -0.10603471845388412,
        0.1833828091621399,
        -0.13366326689720154,
        0.02527718059718609,
        0.07822844386100769,
        0.08231877535581589,
        0.158456951379776,
        0.22950881719589233,
        -0.1148403137922287,
        0.25162041187286377,
        0.06453242152929306,
        0.11751623451709747,
        0.134970560669899,
        -0.0638720765709877,
        -0.22820928692817688,
        0.011637981049716473,
        -0.06701991707086563,
        0.06321950256824493,
        0.087456613779068,
        0.04515557736158371,
        0.005279794801026583,
        0.1483583301305771,
        0.09016162157058716,
        -0.14113928377628326,
        0.10568239539861679,
        -0.21069778501987457,
        -0.06718524545431137,
        -0.11801328510046005,
        0.1357279270887375,
        -0.04116072133183479,
        -0.06992250680923462,
        -0.152279794216156,
        -0.016575908288359642,
        -0.08013369888067245,
        0.12814868986606598,
        0.08388037234544754,
        -0.0907205268740654,
        0.15922877192497253,
        0.2206118404865265,
        -0.037310682237148285,
        -0.12757018208503723,
        0.12834373116493225,
        0.0401577427983284,
        -0.02436111867427826,
        -0.32442012429237366,
        -0.1168699860572815,
        -0.23726749420166016,
        -0.09621093422174454,
        0.0325222983956337,
        0.055033281445503235,
        0.009390329010784626,
        0.11007524281740189,
        -0.0010215302463620901,
        -0.0929505005478859,
        0.1662874072790146,
        -0.1578580141067505,
        0.29989156126976013,
        -0.19983941316604614,
        0.3134463131427765,
        -0.009489502757787704,
        0.1886620819568634,
        0.1183524876832962,
        0.1049584299325943,
        0.06561465561389923,
        -0.10473242402076721,
        0.11944368481636047,
        0.1507365107536316,
        -0.11277897655963898,
        0.3544032573699951,
        0.23812192678451538,
        0.09633219242095947,
        0.111569344997406,
        0.08951441943645477,
        0.017575707286596298,
        -0.11679480969905853,
        0.16687066853046417,
        -0.00038835019222460687,
        0.1687704473733902,
        -0.09759911149740219,
        -0.02185739390552044,
        -0.03884948045015335,
        0.09436897188425064,
        -0.17288841307163239,
        0.0925062894821167,
        -0.3336865305900574,
        0.16081567108631134,
        -0.10335685312747955,
        -0.23517000675201416,
        0.24118107557296753,
        -0.3025566637516022,
        -0.12708386778831482,
        0.09690769016742706,
        0.0025716032832860947,
        0.016721611842513084,
        0.204890176653862,
        0.04570528492331505,
        -0.2960783839225769,
        -0.15224690735340118,
        -0.06133268028497696,
        0.09615176916122437,
        0.07342572510242462,
        -0.12975864112377167,
        -0.05676421895623207,
        0.03484155237674713,
        -0.0847531408071518,
        0.14867928624153137,
        0.08696193993091583,
        -0.032207366079092026,
        -0.14130309224128723,
        -0.07582247257232666,
        -0.01653277315199375,
        -0.18455243110656738,
        0.05198203772306442,
        -0.18293941020965576,
        -0.008993779309093952,
        0.1116948351264,
        -0.03614931181073189,
        0.15526482462882996,
        0.14919540286064148,
        -0.10300644487142563,
        0.15552301704883575,
        0.1764182448387146,
        0.18136656284332275,
        -0.24825221300125122,
        -0.16792380809783936,
        0.03169329836964607,
        -0.06634406745433807,
        0.09694740176200867,
        -0.08152125775814056,
        0.06213928759098053,
        0.057385578751564026,
        0.05299701914191246,
        0.13866636157035828,
        -0.029171492904424667,
        0.18913038074970245,
        -0.011839883401989937,
        0.1071467399597168,
        0.041516706347465515,
        0.09511011093854904,
        0.04158828780055046,
        -0.020634407177567482,
        0.19468174874782562,
        -0.05366680026054382,
        0.21071773767471313,
        -0.07445012032985687,
        0.10183806717395782,
        0.09107557684183121,
        -0.04953806847333908,
        0.11724738776683807,
        0.2704002261161804,
        -0.10977117717266083,
        -0.1440884917974472,
        -0.09994955360889435,
        -0.05321592837572098,
        0.2369018942117691,
        -0.13103993237018585,
        -0.10395456850528717,
        0.024403786286711693,
        -0.0805126428604126,
        -0.10736288875341415,
        0.20429788529872894,
        -0.03127247467637062,
        -0.18896621465682983,
        0.198471337556839,
        -0.06904485076665878,
        -0.16968049108982086,
        -0.09633855521678925,
        0.014075466431677341,
        0.16770264506340027,
        0.17833267152309418,
        -0.06268962472677231,
        -0.14135925471782684,
        0.18556725978851318,
        -0.059782978147268295,
        0.27919694781303406,
        -0.036962997168302536,
        -0.03201762214303017,
        -0.21069876849651337,
        0.029787667095661163,
        -0.09359109401702881,
        0.23091571033000946,
        -0.13639770448207855,
        0.1642383635044098,
        0.08668792992830276,
        0.059929780662059784,
        -0.07616675645112991,
        -0.24510641396045685,
        -0.1901622861623764,
        0.05070527642965317,
        0.01105342898517847,
        -0.08774404227733612,
        -0.08194413036108017,
        0.13815148174762726,
        -0.0524543821811676,
        0.015013889409601688,
        -0.03621064871549606,
        0.1504358947277069,
        -0.14979732036590576,
        0.02145775780081749,
        -0.24997909367084503,
        0.21795311570167542,
        0.10050396621227264,
        0.13161936402320862,
        -0.0035527946893125772,
        -0.01903277449309826,
        -0.08945176005363464,
        0.2881089746952057,
        0.04364212602376938,
        -0.026725808158516884,
        -0.22620156407356262,
        -0.23827843368053436,
        -0.04426012188196182,
        0.011783983558416367,
        0.014358235523104668,
        0.13146807253360748,
        -0.0823407918214798,
        -0.2720056176185608,
        -0.2054499089717865,
        0.04540080204606056,
        -0.09668920189142227,
        -0.12135610729455948,
        0.20205706357955933,
        0.0324067547917366,
        -0.2300136834383011,
        0.04730387404561043,
        -0.1082381010055542,
        0.03437428176403046,
        0.23534178733825684,
        -0.17564177513122559,
        0.18929603695869446,
        0.03929978981614113,
        -0.049347057938575745,
        0.03428943082690239,
        -0.10960197448730469,
        -0.10248930007219315,
        -0.14493970572948456,
        -0.10053076595067978,
        -0.3219243288040161,
        -0.11673291772603989,
        0.16629494726657867,
        -0.01406505424529314,
        0.004972638096660376,
        0.10199174284934998,
        -0.07414603978395462,
        0.012005147524178028,
        0.02768554352223873,
        0.08148786425590515,
        -0.07126521319150925,
        0.08927592635154724,
        0.1513562798500061,
        -0.24429820477962494,
        0.024022603407502174,
        -0.010749856941401958,
        -0.23752126097679138,
        0.027032990008592606,
        0.0509783998131752,
        -0.14360642433166504,
        -0.03505370765924454,
        0.041602302342653275,
        -0.03905773162841797,
        -0.07558750361204147,
        0.09075581282377243,
        0.20470872521400452,
        0.09211277216672897,
        -0.06184966117143631,
        -0.09467389434576035,
        0.024799944832921028,
        -0.21149516105651855,
        -0.11497408896684647,
        -0.03759034350514412,
        0.1853620707988739,
        0.04493324086070061,
        0.15037298202514648,
        0.04578321427106857,
        -0.11096960306167603,
        -0.06219487637281418,
        -0.1429087519645691,
        -0.11741489917039871,
        0.06223278492689133,
        -0.22531758248806,
        -0.0520804338157177,
        -0.2435251921415329,
        0.11288787424564362,
        0.06147588789463043,
        -0.19553959369659424,
        0.23172199726104736,
        0.1340324878692627,
        0.12740549445152283,
        -0.010678263381123543,
        -0.10705380141735077,
        0.017394252121448517,
        -0.09826431423425674,
        0.01948489062488079,
        -0.03871003910899162,
        0.18844415247440338,
        0.007001214195042849,
        0.08283517509698868,
        0.07465282082557678,
        -0.12507838010787964,
        -0.01921777054667473,
        -0.12827971577644348,
        0.0874355137348175,
        -0.02961208112537861,
        -0.06433216482400894,
        -0.1297391951084137,
        -0.10981744527816772,
        0.09829654544591904,
        -0.13140133023262024,
        0.1851082593202591,
        -0.017763106152415276,
        -0.033870793879032135,
        0.06056792289018631,
        -0.1275683343410492,
        0.19339431822299957,
        0.027637379243969917,
        0.25416773557662964,
        -0.020555909723043442,
        -0.029715165495872498,
        -0.09385081380605698,
        0.13384264707565308,
        -0.1535954475402832,
        0.0905095785856247,
        0.2058412879705429,
        -0.25971245765686035,
        0.08141817152500153,
        0.13663889467716217,
        -0.22331182658672333,
        -0.006323433946818113,
        0.17798557877540588,
        0.09827236831188202,
        -0.0671105906367302,
        0.18917155265808105,
        -0.16574019193649292,
        0.21643178164958954,
        0.17610672116279602,
        -0.022628100588917732,
        -0.11800737679004669,
        -0.15826550126075745,
        -0.06066574901342392,
        0.23967649042606354,
        -0.058808524161577225,
        -0.10441593825817108,
        -0.23086518049240112,
        0.1268051266670227,
        0.1364678293466568,
        0.15776962041854858,
        0.04157751426100731,
        -0.09703978896141052,
        0.08562599122524261,
        0.15159279108047485,
        -0.10066299140453339,
        0.12349700927734375,
        0.1754637062549591,
        0.05669515207409859,
        0.058702923357486725,
        -0.033752307295799255,
        -0.3326757550239563,
        0.1323958784341812,
        -0.03470517322421074,
        0.02500239945948124,
        -0.1351490467786789,
        0.1802787482738495,
        0.03130438178777695,
        -0.08386523276567459,
        0.16473747789859772,
        0.2460745871067047,
        -0.0998963713645935,
        -0.29306191205978394,
        0.011627618223428726,
        -0.003979809582233429,
        0.018285110592842102,
        -0.04409400373697281,
        -0.11703222244977951,
        0.10529022663831711,
        -0.03119538351893425,
        0.020233821123838425,
        -0.022054214030504227,
        0.01863783784210682,
        0.06342477351427078,
        -0.08581317216157913,
        -0.04537535458803177,
        -0.022567706182599068,
        -0.05731695517897606,
        -0.037471234798431396,
        0.017315145581960678,
        0.02190982550382614,
        -0.08441007137298584,
        -0.20893704891204834,
        0.20671316981315613,
        0.046122826635837555,
        -0.20240730047225952,
        0.2599962651729584,
        -0.1793423891067505,
        -0.2824981212615967,
        0.13741037249565125,
        0.1319396197795868,
        -0.08882564306259155,
        0.08584461361169815,
        0.14113019406795502,
        -0.04381899535655975,
        -0.19451546669006348,
        -0.2799009084701538,
        -0.020194508135318756,
        -0.14408504962921143,
        0.22475574910640717,
        0.007615017704665661,
        -0.09118235111236572,
        0.062352366745471954,
        0.14923182129859924,
        -0.054409392178058624,
        0.1642003208398819,
        -0.015107828192412853,
        0.0236048586666584,
        0.30619820952415466,
        -0.06080334261059761,
        0.026005428284406662,
        0.09311171621084213,
        -0.07318856567144394,
        -0.12251266837120056,
        0.23367059230804443,
        0.1279766708612442,
        0.12265470623970032,
        -0.4077398478984833,
        -0.013268171809613705,
        0.011689476668834686,
        -0.10146169364452362,
        0.1498950868844986,
        -0.13575507700443268,
        0.03152037039399147,
        0.16033481061458588,
        -0.16466183960437775,
        0.026286324486136436,
        0.07732798904180527,
        0.11463253945112228,
        -0.23409026861190796,
        -0.07851222157478333,
        0.003574025584384799,
        0.22282427549362183,
        -0.01614263653755188,
        0.11133726686239243,
        0.126469686627388,
        0.015483085066080093,
        -0.13440094888210297,
        0.12088686972856522,
        0.3101472854614258,
        -0.06264099478721619,
        0.009430883452296257,
        -0.003546665422618389,
        -0.1993497759103775,
        0.19330725073814392,
        -0.011354044079780579,
        0.031364042311906815,
        0.04097646847367287,
        0.24836070835590363,
        0.19485677778720856,
        0.06740576773881912,
        -0.11414538323879242,
        -0.10632631182670593,
        0.10038722306489944,
        0.18706928193569183,
        -0.0553596206009388,
        0.14442335069179535,
        0.05147489905357361,
        0.2534390389919281,
        -0.13366107642650604,
        -0.22151122987270355,
        0.14822599291801453,
        -0.07356686145067215,
        -0.15602166950702667,
        -0.11538825184106827,
        0.0546136237680912,
        0.10444705188274384,
        -0.24252091348171234,
        -0.337410032749176,
        -0.028028687462210655,
        -0.10091715306043625,
        0.027723442763090134,
        -0.14461787045001984,
        -0.0743856206536293,
        0.12919139862060547,
        0.05924215167760849,
        -0.026425715535879135,
        -0.060481805354356766,
        0.03079739585518837,
        -0.058897677809000015,
        -0.14574508368968964,
        0.22794415056705475,
        0.10818805545568466,
        0.1496245414018631,
        0.12106599658727646,
        -0.22172285616397858,
        -0.09227978438138962,
        -0.32964903116226196,
        0.0881429985165596,
        -0.09188057482242584,
        0.05232977122068405,
        0.08080075681209564,
        -0.0783408060669899,
        -0.03467264398932457,
        0.18445543944835663,
        0.10041186958551407,
        0.08642669022083282,
        0.05805455148220062,
        0.14104050397872925,
        0.030478203669190407,
        -0.17349550127983093,
        -0.0964413657784462,
        -0.18038971722126007,
        -0.15087096393108368,
        -0.009238696657121181,
        0.08976716548204422,
        -0.08699340373277664,
        -0.09205538034439087,
        0.02340172603726387,
        0.11348771303892136,
        0.04519643262028694,
        0.03904109448194504,
        -0.030185913667082787,
        -0.07219670712947845,
        0.17976224422454834,
        -0.10496287047863007,
        -0.007203256711363792,
        -0.1267160028219223,
        0.08100417256355286,
        -0.07980278879404068,
        0.14219719171524048,
        -0.05062870308756828,
        -0.17103879153728485,
        0.20981858670711517,
        0.0980316773056984,
        0.08993694186210632,
        0.10970188677310944,
        -0.021843943744897842,
        -0.04316282644867897,
        0.0783926323056221,
        -0.16995446383953094,
        0.07023515552282333,
        0.11192893236875534,
        -0.19326402246952057,
        -0.13511407375335693,
        0.025694964453577995,
        0.029720237478613853,
        0.26993992924690247,
        -0.17009320855140686,
        0.21748021245002747,
        0.11072882264852524,
        -0.005579035729169846,
        -0.38743579387664795,
        -0.11335770040750504,
        0.023207062855362892,
        -0.2022561877965927,
        -0.12740997970104218,
        0.03576184809207916,
        -0.029352644458413124,
        0.1155615821480751,
        0.0510764978826046,
        0.04171217978000641,
        0.14802458882331848,
        0.032906413078308105,
        -0.16280977427959442,
        -0.23209552466869354,
        -0.08860565721988678,
        0.025529440492391586,
        -0.23388127982616425,
        0.06826148182153702,
        -0.08836929500102997,
        -0.05722950026392937,
        0.09455781430006027,
        0.08387666940689087,
        0.04816935583949089,
        0.09310921281576157,
        0.23598244786262512,
        0.12227249890565872,
        0.23253849148750305,
        -0.037584152072668076,
        0.008966715075075626,
        0.009937995113432407,
        -0.21130529046058655,
        0.16903433203697205,
        -0.2516099810600281,
        0.028566846624016762,
        0.1664445400238037,
        0.1290445178747177,
        -0.09037499874830246,
        -0.12032726407051086,
        -0.22454354166984558,
        -0.30952855944633484,
        0.13275058567523956,
        0.1405460089445114,
        0.029027223587036133,
        -0.31683069467544556,
        -0.02176656574010849,
        0.1466473937034607,
        0.2174350470304489,
        -0.1028619036078453,
        0.293398916721344,
        0.10017065703868866,
        0.12673816084861755,
        -0.10040270537137985,
        -0.017104575410485268,
        -0.007474238518625498,
        -0.08831915259361267,
        0.16250304877758026,
        0.16312745213508606,
        -0.14840669929981232,
        0.1673586368560791,
        -0.023855382576584816,
        0.0849381685256958,
        0.102689728140831,
        0.016298547387123108,
        -0.38361436128616333,
        -0.12864136695861816,
        0.04086682200431824,
        0.17580226063728333,
        -0.175062358379364,
        0.011512655764818192,
        -0.03314797952771187,
        -0.19250938296318054,
        -0.12270025163888931,
        0.02797091007232666,
        -0.14534629881381989,
        0.2767774164676666,
        0.2598874270915985,
        0.040090080350637436,
        -0.23699858784675598,
        -0.18330444395542145,
        0.13625535368919373,
        -0.0010179304517805576,
        -0.13344065845012665,
        -0.026925338432192802,
        0.09371373057365417,
        -0.15975679457187653,
        -0.00021410723275039345,
        0.14179091155529022,
        -0.18609365820884705,
        -0.15832072496414185,
        -0.1313391774892807,
        -0.10423219203948975,
        -0.1539948433637619,
        0.0216146819293499,
        -0.17577986419200897,
        -0.19696857035160065,
        0.03710903227329254,
        -0.07565885037183762,
        0.03374186530709267,
        0.035631150007247925,
        -0.018923752009868622,
        0.13598787784576416,
        0.26877889037132263,
        0.08999576419591904,
        0.16623830795288086,
        0.09318748861551285,
        -0.03982968255877495,
        0.16935724020004272,
        0.2612003684043884,
        -0.00676007941365242,
        0.06475577503442764,
        -0.11987832188606262,
        0.09171667695045471,
        0.13596700131893158,
        -0.059408411383628845,
        0.3370811939239502,
        -0.12577232718467712,
        -0.006036332342773676,
        -0.07888119667768478,
        -0.20770469307899475,
        0.08902958035469055,
        -0.1719335913658142,
        -0.171036958694458,
        -0.017928998917341232,
        0.0857836902141571,
        0.012652569450438023,
        0.06045707315206528,
        -0.05915777012705803,
        -0.14522328972816467,
        -0.13369867205619812,
        -0.1342615783214569,
        -0.3240865170955658,
        -0.17940062284469604,
        0.10830749571323395,
        -0.17939230799674988,
        -0.04194915294647217,
        0.07195253670215607,
        0.03070942685008049,
        -0.11236847937107086,
        -0.10627131164073944,
        0.17834928631782532,
        0.06419185549020767,
        0.08545523881912231,
        -0.21198342740535736,
        -8.5831867181696e-05,
        0.1145191565155983,
        0.10117554664611816,
        0.13930563628673553,
        0.08833801746368408,
        0.028981635347008705,
        0.02346613258123398,
        0.06614312529563904,
        0.0211933646351099,
        0.07040049135684967,
        0.0912158340215683,
        -0.07694374769926071,
        -0.06116410717368126,
        0.04347684234380722,
        0.027248533442616463,
        -0.21631819009780884,
        -0.039887137711048126,
        0.1404937356710434,
        -0.23229765892028809,
        0.1498887836933136,
        0.08355927467346191,
        0.3718212842941284,
        0.01875610090792179,
        0.2545129954814911,
        0.1384430229663849,
        -0.1378168761730194,
        -0.05729568749666214,
        -0.040712591260671616,
        -0.07876221090555191,
        -0.19269192218780518,
        -0.02292882837355137,
        -0.1612815260887146,
        0.10713247954845428,
        0.14777344465255737,
        -0.07589606940746307,
        -0.03626368194818497,
        -0.10633877664804459,
        -0.2574555277824402,
        0.03575700893998146,
        0.06843602657318115,
        -0.08275095373392105,
        -0.06201998144388199,
        0.06306817382574081,
        -0.12284966558218002,
        -0.1368010938167572,
        -0.11163775622844696,
        -0.11645882576704025,
        0.16545753180980682,
        0.05912240967154503,
        0.05821370705962181,
        0.1614067554473877,
        0.026340512558817863,
        0.04105015844106674,
        -0.12806928157806396,
        -0.2054695338010788,
        0.058112770318984985,
        0.06062600016593933,
        -0.08937948942184448,
        -0.061670731753110886,
        0.007765164598822594,
        -0.11550416797399521,
        -0.07857935130596161,
        0.014139491133391857,
        -0.08063874393701553,
        0.07803922146558762,
        0.38161420822143555,
        -0.1858195662498474,
        -0.0005505895242094994,
        0.005436412524431944,
        0.0925523117184639,
        -0.26387253403663635,
        0.09740804880857468,
        -0.1293991506099701,
        -0.04670616239309311,
        -0.2594585418701172,
        -0.14432720839977264,
        0.05852310732007027,
        -0.09843689948320389,
        -0.28780585527420044,
        -0.006327333394438028,
        0.20837834477424622,
        -0.09634296596050262,
        0.031215708702802658,
        0.18521247804164886,
        0.144913449883461,
        -0.048509445041418076,
        -0.02161896787583828,
        -0.014245158061385155,
        0.15567800402641296,
        0.12375732511281967,
        0.07038642466068268,
        -0.09625060856342316,
        0.018134627491235733,
        -0.23972176015377045,
        0.2567453384399414,
        0.022305497899651527,
        0.001489660469815135,
        0.19499750435352325,
        -0.047407329082489014,
        -0.1521139144897461,
        -0.12700028717517853,
        -0.05919453874230385,
        -0.016002187505364418,
        0.2934865355491638,
        0.17552846670150757,
        0.007908947765827179,
        0.22398342192173004,
        -0.23061402142047882,
        -0.03352871909737587,
        0.1779678761959076,
        0.0760951042175293,
        -0.10296563804149628,
        -0.14817020297050476,
        0.11874733120203018,
        0.1229267418384552,
        0.1065780520439148,
        0.002155269030481577,
        -0.01790105551481247,
        -0.031150300055742264,
        -0.14082731306552887,
        0.04994653910398483,
        -0.02767743170261383,
        -0.12382660806179047,
        0.0025254650972783566,
        -0.07186678051948547,
        0.07252742350101471,
        -0.06343038380146027,
        0.1239747628569603,
        -0.2012268304824829,
        -0.08934388309717178,
        0.12387101352214813,
        -0.09441198408603668,
        0.05000367760658264,
        0.0975816398859024,
        0.047864433377981186,
        -0.10389861464500427,
        0.16470521688461304,
        -0.19633714854717255,
        -0.10067663341760635,
        -0.10990603268146515,
        -0.005235931370407343,
        -0.0835278257727623,
        -0.19632601737976074,
        0.012940121814608574,
        0.08331266045570374,
        0.03703783079981804,
        -0.024851400405168533,
        0.007709300611168146,
        0.010524427518248558,
        -0.03455838933587074,
        -0.14812403917312622,
        0.0013793042162433267,
        0.035158101469278336,
        -0.029958512634038925,
        -0.1736716777086258,
        -0.28721702098846436,
        0.1441143900156021,
        0.10690822452306747,
        0.0705481693148613,
        0.20171017944812775,
        0.04556795954704285,
        0.010170580819249153,
        -0.16250577569007874,
        -0.22338582575321198,
        0.046825703233480453,
        0.1611638069152832,
        -0.10089225322008133,
        0.12138272076845169,
        0.12976869940757751,
        0.04897654056549072,
        -0.2222573310136795,
        0.2927836775779724,
        -0.10418719053268433,
        -0.0030172693077474833,
        -0.02702421322464943,
        -0.17330515384674072,
        0.04535036161541939,
        -0.10478419810533524,
        -0.011975372210144997,
        0.052360087633132935,
        0.09644556045532227,
        -0.026264501735568047,
        -0.16130699217319489,
        -0.02141924388706684,
        0.008646075613796711,
        -0.036808256059885025,
        -0.12121716141700745,
        0.0931045338511467,
        0.05247402563691139,
        -0.030820757150650024,
        0.24596931040287018,
        0.05204272270202637,
        -0.12143337726593018,
        0.010832066647708416,
        -0.11232230067253113,
        0.08459228277206421,
        0.042551618069410324,
        -0.06694349646568298,
        -0.20059767365455627,
        0.007811876479536295,
        0.1344250589609146,
        -0.025150995701551437,
        -0.16311758756637573,
        -0.28693875670433044,
        -0.08189663290977478,
        -0.06035512313246727,
        0.05070820078253746,
        0.13289962708950043,
        0.10047808289527893,
        -0.2579039931297302,
        0.2318083792924881,
        0.01708042062819004,
        -0.056954361498355865,
        0.0539371483027935,
        0.08031213283538818,
        -0.024545446038246155,
        -0.1735694259405136,
        0.05996862053871155,
        0.06088201329112053,
        -0.19800391793251038,
        0.18791896104812622,
        0.09021442383527756,
        -0.14568938314914703,
        -0.18211376667022705,
        0.06162213161587715,
        0.15827031433582306,
        0.0121697299182415,
        0.16086621582508087,
        -0.10941438376903534,
        -0.1582440435886383,
        -0.1747765839099884,
        -0.04960344359278679,
        -0.04884197935461998,
        -0.02756490744650364,
        0.04342927783727646,
        0.18142692744731903,
        -0.015544010326266289,
        -0.061216801404953,
        -0.038780003786087036,
        0.31717365980148315,
        0.122798852622509,
        -0.06605800986289978,
        0.12929667532444,
        -0.05185965076088905,
        -0.13593903183937073,
        -0.3551185131072998,
        0.04227301478385925,
        0.11852336674928665,
        -0.07197174429893494,
        0.28753840923309326,
        -0.15182042121887207,
        -0.012528575025498867,
        -0.2862056791782379,
        -0.16951154172420502,
        0.23894697427749634,
        0.09102654457092285,
        -0.12203719466924667,
        0.03354821726679802,
        -0.018058711662888527,
        -0.2530286908149719,
        -0.07339773327112198,
        -0.22615307569503784,
        -0.16446000337600708,
        -0.02406909503042698,
        -0.08411744236946106,
        -0.18408265709877014,
        -0.013755802996456623,
        0.04909750446677208,
        0.0001646802411414683,
        0.20523083209991455,
        0.05951942503452301,
        -0.12991991639137268,
        0.14793720841407776,
        -0.04606102779507637,
        -0.007197869475930929,
        0.09429755061864853,
        -0.10143984854221344,
        0.06890588253736496,
        -0.18608376383781433,
        -0.1683046668767929,
        -0.1640855222940445,
        -0.07041661441326141,
        0.13137410581111908,
        -0.18896086513996124,
        -0.05384336784482002,
        -0.03196804225444794,
        0.10785726457834244,
        -0.06306210160255432,
        -0.11919903755187988,
        0.08178550004959106,
        0.1255214512348175,
        0.12592926621437073,
        0.13370290398597717,
        -0.16339513659477234,
        0.136307954788208,
        0.043783463537693024,
        0.26384592056274414,
        -0.29019996523857117,
        0.15788909792900085,
        0.0567261278629303,
        -0.034252189099788666,
        0.06496948003768921,
        0.04311162233352661,
        -0.19719567894935608,
        0.12157261371612549,
        -0.18174731731414795,
        -0.14977824687957764,
        -0.08342474699020386,
        0.21344760060310364,
        -0.09218595176935196,
        0.09233476221561432,
        0.1754336804151535,
        -0.16689012944698334,
        0.034554868936538696,
        -0.0024831672199070454,
        0.2665981948375702,
        -0.21625620126724243,
        0.09923306852579117,
        0.131931334733963,
        -0.06553495675325394,
        0.010370894335210323,
        -0.07438064366579056,
        0.044062625616788864,
        0.07312420755624771,
        0.09867613017559052,
        0.22177283465862274,
        -0.09971800446510315,
        0.007325490936636925,
        0.028361216187477112,
        -0.04732523486018181,
        0.15355612337589264,
        0.03375475853681564,
        -0.22258853912353516,
        0.04286269471049309,
        0.04379034787416458,
        0.0745667815208435,
        0.2905220687389374,
        -0.05074938014149666,
        -0.02974536456167698,
        0.1624283790588379,
        0.30618688464164734,
        -0.29739660024642944,
        0.03173217922449112,
        0.2075762152671814,
        0.1352429836988449,
        0.0027351996395736933,
        -0.06830728054046631,
        0.18000856041908264,
        0.08759432286024094,
        -0.1694432944059372,
        0.10725971311330795,
        0.2337990403175354,
        0.11707454174757004,
        -0.03189302235841751,
        0.2586757242679596,
        -0.0012696062913164496,
        -0.05182114243507385,
        0.06147489324212074,
        -0.05040796101093292,
        -0.017606034874916077,
        -0.05719304457306862,
        -0.1703149378299713,
        0.16620521247386932,
        0.11473003774881363,
        -0.07497420161962509,
        0.21171869337558746,
        -0.05152397230267525,
        -0.06293926388025284,
        -0.08498341590166092,
        -0.18001031875610352,
        -0.05233420804142952,
        0.13797689974308014,
        0.18226772546768188,
        0.053645797073841095,
        -0.12095748633146286,
        -0.0699792429804802,
        -0.09037517756223679,
        -0.025246746838092804,
        -0.008873081766068935,
        -0.08525068312883377,
        -0.02055732160806656,
        0.07856739312410355,
        0.20175188779830933,
        -0.2415512353181839,
        -0.007693481631577015,
        0.24278675019741058,
        -0.18649140000343323,
        0.02039128914475441,
        0.010535864159464836,
        0.15291233360767365,
        0.009244104847311974,
        0.04880022257566452,
        -0.004399040713906288,
        -0.04366401582956314,
        0.012473753653466702,
        0.3378309905529022,
        -0.29501408338546753,
        -0.01726723089814186,
        -0.07941373437643051,
        0.17184828221797943,
        0.061879027634859085,
        -0.04254781827330589,
        -0.1834702342748642,
        -0.2306799441576004,
        -0.15798234939575195,
        0.2906897962093353,
        0.03543555364012718,
        0.0005382639355957508,
        -0.042310651391744614,
        0.0706426203250885,
        -0.19279885292053223,
        -0.2924134433269501,
        -0.020133180543780327,
        0.01106820534914732,
        -0.004157473798841238,
        0.02313375659286976,
        -0.10911954939365387,
        -0.12952664494514465,
        0.11439595371484756,
        -0.1499895602464676,
        -0.04192746803164482,
        -0.07420002669095993,
        -0.14989648759365082,
        -0.020397262647747993,
        -0.030884554609656334,
        0.00976523756980896,
        0.14713743329048157,
        -0.25762873888015747,
        -0.21184667944908142,
        -0.019824085757136345,
        -0.1400403082370758,
        0.01879572868347168,
        0.02573217824101448,
        0.11464721709489822,
        0.04348636046051979,
        -0.0771188959479332,
        -0.031164325773715973,
        -0.3157358169555664,
        -0.17834261059761047,
        0.15381337702274323,
        -0.18866699934005737,
        0.019691411405801773,
        0.03893811255693436,
        -0.039496395736932755,
        0.08184085786342621,
        0.07346601039171219,
        0.2693687081336975,
        0.20885403454303741,
        0.09496726095676422,
        -0.06771308183670044,
        0.06276417523622513,
        0.2131064385175705,
        0.16251754760742188,
        0.21005721390247345,
        0.05096816271543503,
        0.010110072791576385,
        0.13351288437843323,
        -0.002450569998472929,
        0.23212838172912598,
        -0.07102727144956589,
        0.16134265065193176,
        -0.13934293389320374,
        0.1345425397157669,
        0.1462613344192505,
        -0.013057773001492023,
        -0.04940264672040939,
        0.11385197192430496,
        -0.06702771782875061,
        0.09532661736011505,
        -0.15076617896556854,
        0.09778949618339539,
        -0.015146777965128422,
        0.0006735213100910187,
        0.009069003164768219,
        -0.03729848191142082,
        -0.03386976197361946,
        0.13546490669250488,
        0.11777520924806595,
        -0.06922647356987,
        -0.0690966472029686,
        -0.0683092400431633,
        0.12848196923732758,
        -0.06935226172208786,
        0.1633535772562027,
        -0.13573838770389557,
        -0.031765565276145935,
        0.01588919572532177,
        -0.20378407835960388,
        -0.11709775030612946,
        -0.05380694195628166,
        -0.13657915592193604,
        -0.21065157651901245,
        0.25903668999671936,
        -0.2376352995634079,
        -0.11725929379463196,
        -0.0002883890410885215,
        -0.039358872920274734,
        -0.11830731481313705,
        -0.06703343987464905,
        -0.0633186623454094,
        -0.003510663751512766,
        0.11200720071792603,
        0.10383639484643936,
        -0.10071070492267609,
        0.0025818180292844772,
        0.34866446256637573,
        0.012259263545274734,
        0.19752763211727142,
        0.2744066119194031,
        -0.04416240006685257,
        0.06713756173849106,
        -0.023911505937576294,
        0.2167283296585083,
        -0.3084621727466583,
        0.16870710253715515,
        0.10567904263734818,
        -0.04838203266263008,
        -0.030052853748202324,
        0.05822998285293579,
        0.1615409553050995,
        0.0015510412631556392,
        -0.05398590862751007,
        -0.13429588079452515,
        0.11580346524715424,
        -0.05762588977813721,
        0.16269639134407043,
        -0.05642424896359444,
        -0.17170703411102295,
        -0.0030361711978912354,
        0.00018379375978838652,
        0.0913742333650589,
        0.21483515202999115,
        0.27901697158813477,
        -0.00959513708949089,
        0.11555299907922745,
        0.01919257454574108,
        0.024291357025504112,
        0.11692214757204056,
        -0.04021821543574333,
        -0.004666566848754883,
        0.012865260243415833,
        0.07599683851003647,
        0.2066674530506134,
        0.045077357441186905,
        0.15051081776618958,
        -0.03833358734846115,
        0.1703932136297226,
        0.06231909990310669,
        0.11607753485441208,
        0.09913323074579239,
        -0.03778967633843422,
        -0.01846643164753914,
        -0.040241844952106476,
        -0.19318555295467377,
        -0.07433242350816727,
        0.21426290273666382,
        0.1128300279378891,
        -0.1617298275232315,
        -0.08158984780311584,
        0.27150604128837585,
        0.036548346281051636,
        0.11825607717037201,
        -0.1537719964981079,
        0.08224258571863174,
        -0.15854735672473907,
        -0.336590051651001,
        -0.1302538961172104,
        -0.07984454184770584,
        -0.07197503000497818,
        -0.05266295745968819,
        -0.13299889862537384,
        -0.018371662124991417,
        -0.07190773636102676,
        0.04163825884461403,
        -0.17679810523986816,
        0.09931503981351852,
        0.08341329544782639,
        0.06708528846502304,
        0.06577490270137787,
        -0.1318516731262207,
        -0.15137621760368347,
        0.1787450611591339,
        0.050185542553663254,
        -0.0030302596278488636,
        0.08698993921279907,
        -0.193558931350708,
        0.0636821761727333,
        -0.006247056182473898,
        0.28093698620796204,
        0.08678633719682693,
        -0.18524333834648132,
        0.09305784851312637,
        0.06202215328812599,
        0.07500731945037842,
        -0.06847020983695984,
        -0.07708842307329178,
        0.12417268753051758,
        0.05771622434258461,
        0.01724441722035408,
        -0.08287481963634491,
        -0.15800872445106506,
        -0.14917689561843872,
        -0.025537705048918724,
        -0.07046011835336685,
        -0.14944812655448914,
        0.21574966609477997,
        -0.2012093961238861,
        -0.026578916236758232,
        0.07794374972581863,
        -0.15260018408298492,
        -0.2552280128002167,
        0.1753108650445938,
        -0.24140098690986633,
        0.049000419676303864,
        0.2681965231895447,
        -0.3971385657787323,
        -0.12906977534294128,
        -0.021570878103375435,
        0.022103246301412582,
        -0.029970072209835052,
        -0.039076488465070724,
        -0.1132136881351471,
        0.17088040709495544,
        -0.05790574848651886,
        0.17348605394363403,
        -0.07127262651920319,
        -0.09630752354860306,
        0.16478346288204193,
        -0.04749235510826111,
        -0.20286810398101807,
        -0.09252890944480896,
        0.031081179156899452,
        0.21791109442710876,
        -0.1434859037399292,
        0.2354438602924347,
        -0.13798926770687103,
        0.08317338675260544,
        -0.05611296743154526,
        -0.06288675218820572,
        0.026976341381669044,
        0.09751904755830765,
        -0.04064719378948212,
        -0.11749488860368729,
        -0.0008612621459178627,
        -0.12800809741020203,
        0.0232611782848835,
        0.04098987206816673,
        -0.18486958742141724,
        0.06589458137750626,
        0.1903790682554245,
        -0.03199866786599159,
        -0.11759835481643677,
        0.13733583688735962,
        0.10616026818752289,
        -0.09854787588119507,
        -0.14809872210025787,
        0.050717227160930634,
        -0.021482130512595177,
        0.006330763455480337,
        -0.17087358236312866,
        0.1570201814174652,
        -0.22223159670829773,
        -0.12461824715137482,
        -0.14545997977256775,
        -0.26790568232536316,
        0.05163785442709923,
        -0.36264896392822266,
        0.2145954668521881,
        -0.159390389919281,
        -0.29334530234336853,
        0.05200817808508873,
        -0.1466866135597229,
        0.0487670972943306,
        0.3392995595932007,
        0.008901133202016354,
        -0.2708011865615845,
        0.14308078587055206,
        0.2221733182668686,
        0.07172498106956482,
        -0.1217246949672699,
        -0.0413641557097435,
        0.19525033235549927,
        0.17198550701141357,
        -0.23362670838832855,
        -0.003997079096734524,
        -0.020353611558675766,
        0.0781131237745285,
        -0.13559091091156006,
        0.22666342556476593,
        -0.011599304154515266,
        0.005906389560550451,
        0.062184348702430725,
        0.22705921530723572,
        -0.2676278054714203,
        -0.17096967995166779,
        -0.02521265670657158,
        -0.1335492730140686,
        -0.18329451978206635,
        0.08820948749780655,
        -0.12913388013839722,
        0.2379457801580429,
        -0.11701744794845581,
        0.1354432851076126,
        0.002410899382084608,
        0.11023605614900589,
        0.036853473633527756,
        0.11221429705619812,
        -0.08593208342790604,
        -0.13055510818958282,
        -0.020179420709609985,
        -0.12554742395877838,
        0.1706356555223465,
        -0.11594610661268234,
        0.12869256734848022,
        0.2013625055551529,
        -0.22883501648902893,
        -0.04755789041519165,
        -0.04607722908258438,
        -0.12706153094768524,
        0.07456866651773453,
        0.08355523645877838,
        0.009819967672228813,
        -0.02900014817714691,
        0.17111249268054962,
        0.11518584936857224,
        0.08954998850822449,
        -0.1567651480436325,
        0.12492202967405319,
        0.13190242648124695,
        -0.19997906684875488,
        -0.11051280051469803,
        0.051738519221544266,
        0.040076736360788345,
        -0.004240912850946188,
        -0.07108175754547119,
        -0.08244393765926361,
        0.12966185808181763,
        0.11882977187633514,
        -0.15161345899105072,
        -0.13120435178279877,
        -0.0566956102848053,
        0.17963960766792297,
        -0.08976981043815613,
        -0.01402613241225481,
        0.1851758062839508,
        0.10424984246492386,
        0.16629397869110107,
        0.0761730894446373,
        -0.1584576815366745,
        0.008938712999224663,
        0.08962152898311615,
        -0.020944925025105476,
        -0.11787987500429153,
        0.15519781410694122,
        0.02461976185441017,
        0.008832369931042194,
        -0.09338613599538803,
        -0.11192340403795242,
        0.08888016641139984,
        -0.011970281600952148,
        0.18050524592399597,
        -0.07061757892370224,
        -0.2034013867378235,
        -0.06133035942912102,
        0.10965629667043686,
        -0.09061569720506668,
        0.03400130197405815,
        -0.07735273241996765,
        0.1806265413761139,
        -0.2530245780944824,
        0.15128979086875916,
        -0.10718658566474915,
        0.11938808113336563,
        0.15426281094551086,
        -0.17843881249427795,
        0.17712432146072388,
        0.08947893977165222,
        0.12400307506322861,
        -0.1539071649312973,
        0.13613460958003998,
        -0.25702422857284546,
        0.046581901609897614,
        0.05778113380074501,
        -0.19786785542964935,
        0.066093809902668,
        0.12392955273389816,
        -0.013652748428285122,
        -0.17078135907649994,
        -0.20669931173324585,
        0.018147271126508713,
        0.09259678423404694,
        -0.033099040389060974,
        -0.09011823683977127,
        -0.009252053685486317,
        0.2937992215156555,
        0.049510251730680466,
        -0.28678280115127563,
        -0.04695533961057663,
        -0.17860178649425507,
        0.14868587255477905,
        0.0329568013548851,
        0.06674851477146149,
        -0.1673073172569275,
        -0.049421630799770355,
        -0.060153327882289886,
        -0.0574147030711174,
        -0.20626068115234375,
        0.06868967413902283,
        -0.04568614810705185,
        -0.06346704065799713,
        -0.13667812943458557,
        -0.2954028844833374,
        -0.3025597929954529,
        -0.18887366354465485,
        0.05498703196644783,
        0.10995279252529144,
        -0.06945665925741196,
        -0.04716132953763008,
        0.019520049914717674,
        -0.04655132815241814,
        -0.2530704438686371,
        -0.048624187707901,
        0.07343690097332001,
        -0.06198031082749367,
        0.19095100462436676,
        -0.027730002999305725,
        0.15911923348903656,
        0.08145513385534286,
        0.12838880717754364,
        0.019364912062883377,
        0.16392134130001068,
        0.18727917969226837,
        0.11381642520427704,
        0.03936125338077545,
        -0.1713869273662567,
        -0.015950098633766174,
        0.03374670073390007,
        -0.02526560053229332,
        0.0922207459807396,
        -0.07639172673225403,
        -0.3399958908557892,
        -0.26471465826034546,
        0.09590209275484085,
        -0.11156062036752701,
        -0.1405889242887497,
        -0.18258711695671082,
        -0.030342696234583855,
        0.06709156930446625,
        0.2400849163532257,
        0.05151696130633354,
        0.18207645416259766,
        0.020841797813773155,
        0.08209463953971863,
        0.05205646529793739,
        0.18912242352962494,
        -0.13953235745429993,
        0.018590323626995087,
        -0.13138820230960846,
        0.07881558686494827,
        -0.11457372456789017,
        -0.10732854157686234,
        0.02487817592918873,
        0.09233397990465164,
        -0.08889895677566528,
        -0.29235967993736267,
        -0.21369926631450653,
        -0.02637314982712269,
        0.02442970499396324,
        0.034437887370586395,
        0.11531832814216614,
        -0.11956484615802765,
        -0.007050083950161934,
        0.029159989207983017,
        -0.021379124373197556,
        -0.19855761528015137,
        -0.15664638578891754,
        0.009485152550041676,
        -0.06926502287387848,
        -0.14568465948104858,
        0.029459049925208092,
        0.16685180366039276,
        -0.045839205384254456,
        -0.08671843260526657,
        -0.05287370830774307,
        0.08122573792934418,
        -0.10223249346017838,
        -0.04161509498953819,
        0.23028986155986786,
        -0.18910904228687286,
        -0.06907019019126892,
        -0.08036916702985764,
        -0.15818700194358826,
        -0.2234836220741272,
        -0.04239705204963684,
        -0.09445793181657791,
        0.07776249200105667,
        0.17460177838802338,
        0.13860173523426056,
        0.06992804259061813,
        0.01347917877137661,
        0.2368946671485901,
        0.2086210548877716,
        -0.061047133058309555,
        -0.012730507180094719,
        -0.11964194476604462,
        0.07815126329660416,
        -0.19863255321979523,
        0.16741399466991425,
        -0.07370655238628387,
        -0.1053699404001236,
        -0.15372014045715332,
        -0.10288305580615997,
        0.037567075341939926,
        0.09781000763177872,
        -0.09961532801389694,
        0.33270832896232605,
        -0.03404631465673447,
        -0.22854581475257874,
        0.10283581167459488,
        0.2473754733800888,
        0.022267622873187065,
        -0.01408857200294733,
        -0.08292558789253235,
        0.08607924729585648,
        -0.09257372468709946,
        0.17445893585681915,
        -0.014465073123574257,
        -0.3669074475765228,
        -0.2805885076522827,
        -0.1347285807132721,
        0.14201845228672028,
        0.24064569175243378,
        -0.12159447371959686,
        -0.18160147964954376,
        -0.14795567095279694,
        0.017478913068771362,
        0.008720848709344864,
        -0.11530864238739014,
        -0.21054285764694214,
        0.005411403253674507,
        0.020289303734898567,
        0.15318579971790314,
        -0.02187734842300415,
        -0.18109852075576782,
        0.3920902907848358,
        0.05268317088484764,
        -0.00789627991616726,
        -0.0869297981262207,
        -0.20674076676368713,
        -0.10851901024580002,
        0.16268734633922577,
        0.08177371323108673,
        0.1681455820798874,
        0.049345728009939194,
        -0.03971957042813301,
        0.31036576628685,
        0.07275870442390442,
        0.0614069439470768,
        0.08438008278608322,
        0.19041742384433746,
        0.18963639438152313,
        0.11059319227933884,
        0.022465286776423454,
        0.096671462059021,
        0.06169002130627632,
        -0.008988674730062485,
        -0.18820485472679138,
        -0.01286977156996727,
        0.18903960287570953,
        0.07371418923139572,
        -0.08153277635574341,
        -0.020408978685736656,
        0.07400035858154297,
        0.013883187435567379,
        -0.2733358144760132,
        -0.07911103218793869,
        -0.25032293796539307,
        -0.02220933511853218,
        -0.1943432092666626,
        0.1832197904586792,
        0.19627678394317627,
        0.05064428597688675,
        0.1679023951292038,
        0.1103726327419281,
        -0.10928311198949814,
        0.15470166504383087,
        0.13040299713611603,
        -0.001451041316613555,
        -0.1228349506855011,
        -0.14027053117752075,
        -0.04400920867919922,
        0.08719450980424881,
        0.19019395112991333,
        0.0409201942384243,
        0.04248960688710213,
        -0.03452709689736366,
        0.05345217511057854,
        0.005874953232705593,
        -0.025210874155163765,
        0.2357008010149002,
        -0.15302595496177673,
        -0.040566664189100266,
        0.10227935761213303,
        0.03957595303654671,
        0.14582806825637817,
        0.16398023068904877,
        -0.1806364208459854,
        -0.06370712071657181,
        0.2267734855413437,
        0.007246008142828941,
        -0.009152469225227833,
        -0.21172960102558136,
        0.1982857882976532,
        -0.14613986015319824,
        -0.15963700413703918,
        -0.008067918010056019,
        0.032782819122076035,
        -0.07317410409450531,
        -0.21364957094192505,
        0.23082083463668823,
        -0.20062772929668427,
        0.005496454890817404,
        0.14287149906158447,
        0.04626573249697685,
        -0.20483927428722382,
        -0.1397916078567505,
        -0.010800213553011417,
        -0.2519199252128601,
        4.4197935494594276e-05,
        0.0005994419916532934,
        0.2823364734649658,
        0.09203804284334183,
        -0.005043639801442623,
        0.0957157090306282,
        0.03163986653089523,
        0.03024902753531933,
        0.16029082238674164,
        -0.05793304368853569,
        -0.04611474648118019,
        -0.002984712366014719,
        -0.09217605739831924,
        0.14475776255130768,
        0.16814562678337097,
        0.23005181550979614,
        -0.10503169894218445,
        0.05945085361599922,
        0.1939365416765213,
        0.07705410569906235,
        -0.1543617695569992,
        -0.12407034635543823,
        -0.045380741357803345,
        -0.03814545273780823,
        -0.09902027249336243,
        0.09476412087678909,
        -0.11559316515922546,
        0.011438006535172462,
        -0.09044122695922852,
        0.1438521146774292,
        0.3036971986293793,
        0.08350575715303421,
        -0.020552411675453186,
        -0.23483166098594666,
        -0.1304214596748352,
        0.07062239944934845,
        -0.026732392609119415,
        -0.19464541971683502,
        -0.1519889533519745,
        -0.16261664032936096,
        -0.08366207778453827,
        -0.19038982689380646,
        0.12368009984493256,
        0.1276438981294632,
        -0.06867602467536926,
        0.03954701870679855,
        0.034089475870132446,
        0.015406571328639984,
        -0.2983095049858093,
        -0.035365864634513855,
        -0.0854141041636467,
        -0.023608701303601265,
        0.1891556829214096,
        0.1536930352449417,
        -0.09261078387498856,
        0.23395979404449463,
        -0.15773487091064453,
        -0.09850700199604034,
        -0.01329512894153595,
        0.11080276221036911,
        -0.004800153896212578,
        -0.07121633738279343,
        0.038282766938209534,
        -0.057096365839242935,
        0.1487097144126892,
        -0.07016902416944504,
        0.05420786887407303,
        0.17340120673179626,
        0.1269296258687973,
        -0.10112877935171127,
        0.06863213330507278,
        0.018298761919140816,
        0.15855640172958374,
        -0.19562147557735443,
        0.20309220254421234,
        -0.1580875813961029,
        0.01781230792403221,
        -0.09510231018066406,
        -0.051116693764925,
        -0.025693869218230247,
        -0.23361365497112274,
        -0.01951930671930313,
        -0.09287074208259583,
        0.04614898934960365,
        0.14896737039089203,
        0.10653452575206757,
        -0.017293564975261688,
        0.10799764841794968,
        0.041191887110471725,
        -0.18583844602108002,
        0.16649746894836426,
        0.1511395126581192,
        0.07831040024757385,
        0.12360552698373795,
        0.1941278576850891,
        -0.02172495238482952,
        0.052803099155426025,
        0.0472719743847847,
        -0.3438865542411804,
        -0.04299827292561531,
        0.10334313660860062,
        0.11241809278726578,
        -0.03830639272928238,
        -0.03525326028466225,
        -0.013988696038722992,
        -0.12480966746807098,
        0.11922077089548111,
        -0.11487167328596115,
        -0.13613156974315643,
        -0.10638895630836487,
        0.05671372264623642,
        0.07419527322053909,
        0.06309608370065689,
        -0.06478345394134521,
        0.1912853866815567,
        -0.04813645780086517,
        -0.16197602450847626,
        -0.24645045399665833,
        0.10790202766656876,
        -0.11295592784881592,
        -0.05442638695240021,
        0.09163139760494232,
        0.25180700421333313,
        0.05235801637172699,
        -0.00505270017310977,
        -0.006108901463449001,
        0.12351278215646744,
        0.037275634706020355,
        0.18910162150859833,
        -0.011113020591437817,
        0.06851739436388016,
        -0.0013642850099131465,
        -0.025019725784659386,
        -0.1765172779560089,
        0.08260255306959152,
        0.1705305129289627,
        -0.17077064514160156,
        0.05148664861917496,
        0.05149053409695625,
        0.17110025882720947,
        0.027408771216869354,
        -0.21736758947372437,
        -0.02919015660881996,
        0.16767233610153198,
        -0.04192439466714859,
        0.0341886468231678,
        -0.16155055165290833,
        0.02028513327240944,
        -0.054768357425928116,
        0.014076377265155315,
        0.036763835698366165,
        0.07638269662857056,
        -0.03932337090373039,
        -0.001293934416025877,
        0.13507364690303802,
        -0.01559892762452364,
        0.05214559659361839,
        -0.012620595283806324,
        0.1081530898809433,
        0.11857859045267105,
        -0.14076177775859833,
        -0.023189062252640724,
        0.11777383089065552,
        0.08428312093019485,
        -0.05751175433397293,
        -0.021131817251443863,
        -0.04308667778968811,
        0.21935930848121643,
        0.14662177860736847,
        0.2950105369091034,
        0.07432319968938828,
        -0.2735913395881653,
        0.06479065865278244,
        -0.10275985300540924,
        0.13067039847373962,
        -0.12157314270734787,
        0.01649642176926136,
        -0.2660493552684784,
        0.10007939487695694,
        0.04422003775835037,
        -0.05047493800520897,
        0.041046008467674255,
        -0.0545913390815258,
        0.10074470192193985,
        -0.012513103894889355,
        0.13306954503059387,
        0.3053770065307617,
        0.030267179012298584,
        -0.33747562766075134,
        -0.09222307801246643,
        0.15381042659282684,
        -0.11293692141771317,
        0.060674410313367844,
        -0.02643396146595478,
        -0.3383011221885681,
        -0.1426241397857666,
        0.0601663701236248,
        0.02758185565471649,
        0.16634973883628845,
        -0.06599867343902588,
        0.11116921156644821,
        -0.1323249489068985,
        0.02535001002252102,
        -0.07951907068490982,
        -0.01957254484295845,
        0.20732976496219635,
        0.008434969000518322,
        0.09986075758934021,
        -0.05213255062699318,
        0.05433595925569534,
        0.033470042049884796,
        -0.2176954299211502,
        -0.21851485967636108,
        -0.05062359198927879,
        -0.06950774043798447,
        -0.11259979754686356,
        0.19657506048679352,
        0.0028497162275016308,
        -0.16706298291683197,
        0.12694190442562103,
        -0.009988260455429554,
        -0.1314939558506012,
        0.03522256761789322,
        -0.20987707376480103,
        0.07763829827308655,
        -0.06307973712682724,
        0.13081695139408112,
        0.12274637073278427,
        0.030159225687384605,
        0.31396743655204773,
        0.04697873815894127,
        -0.1311715692281723,
        -0.18679583072662354,
        -0.021231787279248238,
        -0.09557262063026428,
        -0.26188498735427856,
        0.030841350555419922,
        0.041518036276102066,
        -0.008451593108475208,
        0.038837820291519165,
        -0.23192813992500305,
        0.22919130325317383,
        0.278796523809433,
        -0.04190333932638168,
        -0.02860453352332115,
        0.20101286470890045,
        0.07029252499341965,
        0.008937530219554901,
        -0.07131975889205933,
        -0.13316553831100464,
        0.05489169806241989,
        -0.02198842726647854,
        -0.09511324763298035,
        -0.0077139330096542835,
        0.1842668652534485,
        -0.11622056365013123,
        -0.014820467680692673,
        0.0829814076423645,
        -0.00997596699744463,
        0.1020149365067482,
        0.1403678059577942,
        -0.1554514765739441,
        -0.12395001947879791,
        0.17576052248477936,
        0.024589072912931442,
        -0.040895503014326096,
        -0.0848991721868515,
        -0.012998002581298351,
        -0.2586972117424011,
        -0.18203507363796234,
        -0.015835747122764587,
        0.2355511635541916,
        0.20466676354408264,
        0.12207026779651642,
        -0.11550864577293396,
        -0.049049146473407745,
        -0.14785531163215637,
        0.06431079655885696,
        0.03700428083539009,
        0.23638607561588287,
        0.01879432238638401,
        0.02927275560796261,
        -0.3013294041156769,
        -0.16412939131259918,
        -0.1466188281774521,
        -0.1913899928331375,
        0.19270119071006775,
        -0.2720045745372772,
        -0.2497100979089737,
        0.22480785846710205,
        -0.06957485526800156,
        -0.5678615570068359,
        0.1388215273618698,
        -0.02125185914337635,
        0.1292598843574524,
        -0.0633116289973259,
        0.11881725490093231,
        0.15681403875350952,
        -0.023215277120471,
        0.14337129890918732,
        0.12681695818901062,
        -0.11995448917150497,
        0.0869685485959053,
        0.09462004154920578,
        0.0518023706972599,
        0.0837465226650238,
        0.11707698553800583,
        -0.13419820368289948,
        0.012074711732566357,
        -0.10806352645158768,
        -0.09505198895931244,
        0.1866164356470108,
        -0.005189929157495499,
        -0.1680254191160202,
        -0.06250294297933578,
        0.1192748174071312,
        0.022453617304563522,
        -0.002736063674092293,
        0.26688721776008606,
        -0.11364267766475677,
        0.12375374138355255,
        0.15397848188877106,
        0.04776619002223015,
        -0.04484158009290695,
        -0.009574022144079208,
        0.06865464895963669,
        -0.018584907054901123,
        -0.13116490840911865,
        0.12022487819194794,
        0.09937018901109695,
        -0.02348927967250347,
        -0.046807657927274704,
        -0.016348831355571747,
        0.31033915281295776,
        -0.028913699090480804,
        0.08047228306531906,
        0.06616070121526718,
        0.042761001735925674,
        0.1946435570716858,
        0.01008194126188755,
        -0.004851221106946468,
        0.3283063471317291,
        -0.1569656878709793,
        0.20796184241771698,
        -0.04458247125148773,
        0.13178808987140656,
        0.0033588518854230642,
        -0.1609254628419876,
        -0.22206968069076538,
        -0.009835404343903065,
        0.18261107802391052,
        -0.008492456749081612,
        0.012141983024775982,
        -0.08270435035228729,
        -0.29275524616241455,
        0.1617574542760849,
        -0.2241903841495514,
        0.23454110324382782,
        0.04129030182957649,
        -0.05318894982337952,
        -0.09742514789104462,
        0.049050915986299515,
        -0.18647794425487518,
        -0.03248037025332451,
        -0.07164215296506882,
        0.057360902428627014,
        0.02815905027091503,
        -0.25068849325180054,
        -0.039136555045843124,
        0.039136648178100586,
        0.06570316851139069,
        -0.1619938611984253,
        0.04437818005681038,
        -0.18582190573215485,
        -0.19477561116218567,
        -0.0324302613735199,
        0.09840339422225952,
        0.007367541082203388,
        0.028050769120454788,
        0.13063862919807434,
        -0.13797390460968018,
        -0.005788686219602823,
        0.01375498529523611,
        0.1868879795074463,
        -0.08716944605112076,
        0.10186091810464859,
        -0.08644845336675644,
        -0.04155992716550827,
        0.07000403106212616,
        0.0010805758647620678,
        -0.1131993904709816,
        -0.23818525671958923,
        0.21028709411621094,
        -0.026223929598927498,
        0.1554023176431656,
        0.13799653947353363,
        -0.07392145693302155,
        0.05449874326586723,
        -0.20760151743888855,
        0.0014669295633211732,
        0.05588807538151741,
        -0.14996929466724396,
        0.17498011887073517,
        0.041073210537433624,
        0.24741624295711517,
        0.016094040125608444,
        -0.022563571110367775,
        -0.1990233212709427,
        0.07347400486469269,
        -0.0368577241897583,
        0.03732837364077568,
        0.041369784623384476,
        -0.22518908977508545,
        -0.03308603912591934,
        0.18427307903766632,
        0.15040503442287445,
        0.1266659051179886,
        0.066622294485569,
        -0.2616909146308899,
        0.08006760478019714,
        -0.0173188429325819,
        -0.22584772109985352,
        0.014223837293684483,
        -0.06362949311733246,
        0.015324278734624386,
        0.06434543430805206,
        0.3417876362800598,
        0.0651494711637497,
        -0.16631102561950684,
        -0.18294882774353027,
        -0.01056671142578125,
        -0.02198946662247181,
        -0.2774924039840698,
        -0.13517026603221893,
        0.09415198862552643,
        -0.24745017290115356,
        -0.019492043182253838,
        -0.1131272166967392,
        0.2546931505203247,
        0.06350477784872055,
        -0.26758134365081787,
        0.2385694533586502,
        -0.2250588983297348,
        -0.10756317526102066,
        0.0009218651102855802,
        0.12456390261650085,
        -0.02627621777355671,
        0.004340249579399824,
        -0.16305401921272278,
        -0.15482205152511597,
        0.0326426737010479,
        0.20032115280628204,
        0.11870969086885452,
        0.11243404448032379,
        0.043079476803541183,
        0.03877251222729683,
        -0.07155775278806686,
        -0.07340992242097855,
        0.036263369023799896,
        -0.12982062995433807,
        -0.0632481724023819,
        0.02220291458070278,
        -0.011023404076695442,
        0.0379699282348156,
        -0.0885622575879097,
        0.05145219713449478,
        -0.11374706029891968,
        0.07007556408643723,
        -0.08049868792295456,
        -0.15422683954238892,
        -0.22995366156101227,
        0.07286974787712097,
        -0.00020677786960732192,
        -0.21729834377765656,
        -0.0761091560125351,
        0.033927176147699356,
        -0.12374741584062576,
        -0.059337928891181946,
        -0.13804522156715393,
        0.10178975760936737,
        0.057651832699775696,
        -0.18096740543842316,
        -0.04652772471308708,
        -0.14252689480781555,
        -0.12081354856491089,
        -0.1425570845603943,
        -0.022036341950297356,
        0.034690648317337036,
        -0.13911695778369904,
        -0.19360682368278503,
        0.07932353764772415,
        -0.13903659582138062,
        -0.09907442331314087,
        0.04089464247226715,
        -0.109609454870224,
        -0.21111831068992615,
        0.10141845047473907,
        -0.18389715254306793,
        -0.22481030225753784,
        0.11608926951885223,
        0.0426182746887207,
        0.03728582337498665,
        -0.322819322347641,
        0.08018957823514938,
        0.09758640825748444,
        0.1384093314409256,
        -0.09294910728931427,
        0.19983035326004028,
        0.056050900369882584,
        0.13369666039943695,
        0.03143349662423134,
        -0.17581018805503845,
        0.10051920264959335,
        0.1192324236035347,
        -0.02895621955394745,
        -0.17066605389118195,
        -0.015717273578047752,
        -0.1447405219078064,
        -0.1854962706565857,
        0.03704139217734337,
        0.06907434016466141,
        -0.1404474526643753,
        -0.14860239624977112,
        0.3722306489944458,
        0.06685364991426468,
        -0.24507559835910797,
        0.208592489361763,
        0.06443139910697937,
        0.021820636466145515,
        -0.10864370316267014,
        0.14038391411304474,
        -0.01132898684591055,
        -0.05032632499933243,
        0.12381353974342346,
        0.2180110365152359,
        -0.13918283581733704,
        -0.19171062111854553,
        0.1970963180065155,
        -0.19614718854427338,
        -0.024126389995217323,
        0.13239020109176636,
        0.05037515610456467,
        0.05253293737769127,
        -0.025054050609469414,
        0.2612442076206207,
        0.0031646823044866323,
        -0.07935037463903427,
        -0.06580394506454468,
        -0.15235228836536407,
        0.12632693350315094,
        -0.06836118549108505,
        0.11637011915445328,
        -0.28163278102874756,
        0.17907945811748505,
        0.06561002880334854,
        -0.0038408248219639063,
        0.1358821988105774,
        -0.150986909866333,
        0.05380673334002495,
        0.11781298369169235,
        0.08687512576580048,
        0.13504061102867126,
        -0.18897195160388947,
        0.012027190998196602,
        0.16627004742622375,
        -0.19645556807518005,
        0.08434838056564331,
        0.06327108293771744,
        -0.17326141893863678,
        -0.04232967644929886,
        0.10592321306467056,
        -0.05527062341570854,
        -0.09974019229412079,
        0.14609339833259583,
        -0.10017717629671097,
        0.0718333050608635,
        -0.17151109874248505,
        0.057497356086969376,
        -0.08333263546228409,
        -0.03234315663576126,
        0.003782599698752165,
        -0.09126605093479156,
        -0.049136459827423096,
        0.18657523393630981,
        0.23116694390773773,
        -0.1992613524198532,
        0.03336722403764725,
        0.03582863509654999,
        -0.13362330198287964,
        0.14566262066364288,
        0.022654127329587936,
        -0.012062097899615765,
        0.06970086693763733,
        -0.13192982971668243,
        -0.14394041895866394,
        0.09958440810441971,
        0.16435027122497559,
        -0.09194841235876083,
        0.06443189829587936,
        -0.017274770885705948,
        0.1957373321056366,
        -0.11592014878988266,
        0.10444752126932144,
        0.10298670083284378,
        0.06485117226839066,
        -0.10807991027832031,
        0.04737349972128868,
        -0.14425994455814362,
        0.06811254471540451,
        0.1812734156847,
        0.1150827407836914,
        -0.025159578770399094,
        -0.2602814733982086,
        -0.13233599066734314,
        -0.032816626131534576,
        -0.07287294417619705,
        0.04139132797718048,
        0.18099424242973328,
        -0.0041260384023189545,
        -0.1908329576253891,
        -0.09840834885835648,
        -0.21416281163692474,
        0.09416155517101288,
        0.016430724412202835,
        -0.15480747818946838,
        -0.07732725888490677,
        -0.04313789680600166,
        -0.1373765766620636,
        0.02573220431804657,
        -0.12344585359096527,
        -0.01107148826122284,
        0.12709027528762817,
        0.04371850937604904,
        0.14870548248291016,
        -0.28612565994262695,
        -0.0343431793153286,
        -0.020035553723573685,
        0.20654204487800598,
        -0.1671621948480606,
        0.16759198904037476,
        -0.13124369084835052,
        -0.11097355931997299,
        0.05048224329948425,
        0.1678638607263565,
        -0.0592450350522995,
        -0.13366807997226715,
        -0.12320106476545334,
        -0.1065671294927597,
        -0.06762013584375381,
        0.11423898488283157,
        -0.06618224829435349,
        -0.01971009559929371,
        0.010595539584755898,
        -0.24212004244327545,
        -0.1558011770248413,
        -0.10012727975845337,
        0.2112746238708496,
        -0.1954311579465866,
        -0.12207140773534775,
        -0.0867554172873497,
        0.13728049397468567,
        -0.06673553586006165,
        -0.17420294880867004,
        -0.028935980051755905,
        0.10011237859725952,
        -0.02430080994963646,
        -0.14076921343803406,
        -0.19713403284549713,
        0.09560353308916092,
        0.10372354835271835,
        0.02436133660376072,
        0.209257110953331,
        -0.03701159358024597,
        0.27392077445983887,
        0.16953063011169434,
        0.02974334917962551,
        0.023665810003876686,
        -0.03260889649391174,
        -0.2759050726890564,
        -0.28699448704719543,
        -0.07151421159505844,
        0.03766315057873726,
        0.03590678423643112,
        -0.13403278589248657,
        0.0487423837184906,
        -0.03888737037777901,
        -0.006168910302221775,
        -0.012697452679276466,
        0.0625610500574112,
        0.027461502701044083,
        -0.11213023960590363,
        0.21763503551483154,
        0.10065460950136185,
        -0.12636782228946686,
        0.14414872229099274,
        0.10003703832626343,
        0.2533561885356903,
        -0.17863094806671143,
        -0.03874969482421875,
        -0.2188253402709961,
        0.10560540109872818,
        -0.03347907215356827,
        -0.12665097415447235,
        0.12302223592996597,
        -0.061323411762714386,
        -0.14771217107772827,
        0.028424551710486412,
        0.18823042511940002,
        -0.248569056391716,
        0.00588583666831255,
        -0.2789342701435089,
        0.17737719416618347,
        0.033520061522722244,
        0.034689221531152725,
        -0.05309649556875229,
        0.19038350880146027,
        -0.2300480157136917,
        0.10332219302654266,
        0.09343542158603668,
        -0.042806025594472885,
        0.029059769585728645,
        -0.0741378515958786,
        0.10094551742076874,
        0.008716614916920662,
        -0.1838185340166092,
        -0.14104631543159485,
        -0.16784799098968506,
        -0.2359553724527359,
        0.17027662694454193,
        0.07490313798189163,
        -0.05993320792913437,
        -0.027857620269060135,
        0.06913578510284424,
        0.138833686709404,
        0.2025545984506607,
        0.12563641369342804,
        0.12390512228012085,
        -0.09197429567575455,
        0.2183670550584793,
        -0.012331278063356876,
        0.013778747990727425,
        0.132674902677536,
        0.020581483840942383,
        -0.08896154165267944,
        -0.017051685601472855,
        0.10525994747877121,
        0.07713856548070908,
        -0.17421481013298035,
        0.30988067388534546,
        -0.12230618298053741,
        0.03788135573267937,
        -0.028369877487421036,
        0.18064738810062408,
        -0.11319874227046967,
        -0.06440708786249161,
        0.2042635679244995,
        0.047254279255867004,
        -0.042211271822452545,
        0.010160455480217934,
        -0.08878955990076065,
        0.08692225813865662,
        -0.024641435593366623,
        0.12004803121089935,
        0.07251326739788055,
        -0.058017075061798096,
        0.2257070392370224,
        -0.1362522840499878,
        -0.002153360517695546,
        0.030890092253684998,
        -0.18587453663349152,
        -0.23386481404304504,
        0.26240143179893494,
        0.0050815800204873085,
        0.05573089048266411,
        0.18405446410179138,
        -0.055034030228853226,
        -0.09797777235507965,
        0.07713542878627777,
        0.03129391744732857,
        -0.2435327172279358,
        -0.09492839127779007,
        0.14032314717769623,
        0.06661240756511688,
        0.02476019412279129,
        0.03192597255110741,
        0.04205368459224701,
        -0.01839805766940117,
        0.031049633398652077,
        -0.1322263926267624,
        -0.13984404504299164,
        0.04930732771754265,
        0.017183149233460426,
        0.1261059045791626,
        0.08985849469900131,
        -0.0435912124812603,
        0.22013095021247864,
        -0.12178326398134232,
        -0.07562501728534698,
        -0.17457051575183868,
        0.042707644402980804,
        -0.15588347613811493,
        0.1783914417028427,
        0.012083211913704872,
        -0.2343396246433258,
        -0.05602894350886345,
        0.07071501761674881,
        0.1343228816986084,
        0.2204241007566452,
        -0.07519242912530899,
        -0.23752200603485107,
        -0.21334855258464813,
        0.19952614605426788,
        0.028446700423955917,
        -0.11920919269323349,
        -0.09115966409444809,
        0.01455628965049982,
        -0.09476955980062485,
        -0.16843856871128082,
        0.12980356812477112,
        -0.17489002645015717,
        -0.17111057043075562,
        0.14129500091075897,
        0.13139230012893677,
        0.11335670948028564,
        -0.01949126087129116,
        0.18656469881534576,
        0.05732705071568489,
        -0.0599990114569664,
        0.02528214082121849,
        -0.06447792798280716,
        -0.1613682210445404,
        0.048200126737356186,
        -0.09581637382507324,
        0.25823524594306946,
        0.024169331416487694,
        -0.06632772088050842,
        -0.0022560174111276865,
        -0.27012133598327637,
        -0.15286821126937866,
        -0.07690437138080597,
        0.1805039495229721,
        0.30686628818511963,
        0.2482641041278839,
        0.33471187949180603,
        0.11414290964603424,
        -0.04771485924720764,
        -0.13729441165924072,
        0.22454193234443665,
        -0.10902349650859833,
        -0.03879188373684883,
        0.050306182354688644,
        -0.08854300528764725,
        0.03884941712021828,
        0.24127806723117828,
        0.03538592904806137,
        0.11849148571491241,
        -0.09037723392248154,
        -0.08603901416063309,
        -0.14826883375644684,
        0.08337734639644623,
        0.1182185560464859,
        -0.01586005464196205,
        -0.1435876488685608,
        -0.05147415027022362,
        0.12802161276340485,
        0.4078413248062134,
        -0.10306264460086823,
        0.14971348643302917,
        -0.15679503977298737,
        0.2049703150987625,
        0.15600594878196716,
        0.22427137196063995,
        0.11027228832244873,
        0.06240473687648773,
        -0.18220412731170654,
        -0.025010284036397934,
        0.17722885310649872,
        -0.04332583770155907,
        0.27150964736938477,
        0.1743190735578537,
        -0.17968720197677612,
        -0.15710416436195374,
        -0.23815125226974487,
        0.07520303875207901,
        -0.2370862513780594,
        -0.21413648128509521,
        -0.18273213505744934,
        -0.02464303933084011,
        0.0484410896897316,
        -0.13145172595977783,
        0.022645803168416023,
        0.06146704778075218,
        0.0008244873024523258,
        0.14751997590065002,
        -0.0817432552576065,
        0.03406309336423874,
        -0.10477504879236221,
        0.14061862230300903,
        -0.037028804421424866,
        0.015289869159460068,
        0.02204723283648491,
        0.029117606580257416,
        -0.17559906840324402,
        -0.1142057254910469,
        0.17830684781074524,
        0.04021824151277542,
        0.0005691775004379451,
        0.08510991185903549,
        0.08924725651741028,
        -0.25816047191619873,
        -0.1631183624267578,
        -0.10553181916475296,
        -0.08326327055692673,
        0.04590839892625809,
        0.013817855156958103,
        -0.25590580701828003,
        0.04729405790567398,
        -0.19295626878738403,
        0.25811314582824707,
        -0.022456318140029907,
        -0.1353461891412735,
        -0.001245547435246408,
        0.34419161081314087,
        0.05456914007663727,
        0.2450159788131714,
        0.17936833202838898,
        -0.12287361174821854,
        0.07488688826560974,
        0.06962258368730545,
        0.07765816152095795,
        -0.17649874091148376,
        0.06415897607803345,
        0.0037089779507368803,
        0.028413034975528717,
        -0.188449427485466,
        -0.04465460404753685,
        -0.27803102135658264,
        0.11855067312717438,
        0.1128411591053009,
        0.13003821671009064,
        0.11602973937988281,
        -0.2960185706615448,
        0.027707237750291824,
        -0.03947420045733452,
        0.01820615865290165,
        0.17092697322368622,
        -0.016109267249703407,
        -0.04663529992103577,
        -0.04623868316411972,
        0.19882844388484955,
        -0.001971221063286066,
        -0.11316107958555222,
        -0.14443090558052063,
        0.11779439449310303,
        -0.26913559436798096,
        0.14672523736953735,
        0.06810087710618973,
        -0.02067343145608902,
        -0.00028795748949050903,
        -0.11997254937887192,
        -0.12089956551790237,
        0.187654510140419,
        -0.06095774844288826,
        -0.03224482759833336,
        0.05851055309176445,
        0.04261351376771927,
        -0.14874474704265594,
        0.05707482621073723,
        0.11232847720384598,
        0.09528926759958267,
        0.07488703727722168,
        -0.015015793964266777,
        -0.1257934719324112,
        -0.007645526900887489,
        0.10384029150009155,
        0.08541818708181381,
        0.1940448135137558,
        0.17417162656784058,
        0.026410242542624474,
        0.08726240694522858,
        0.12510046362876892,
        0.013008274137973785,
        -0.40892380475997925,
        0.06966380029916763,
        0.09799493849277496,
        0.17743374407291412,
        -0.1816694140434265,
        -0.08845002949237823,
        0.01456513348966837,
        -0.02215084247291088,
        -0.2517909109592438,
        0.15857769548892975,
        -0.03356151282787323,
        -0.16551803052425385,
        0.01808822713792324,
        0.11923921853303909,
        0.20207667350769043,
        0.22100727260112762,
        -0.1659739464521408,
        -0.06661157310009003,
        0.17075316607952118,
        -0.16524702310562134,
        -0.05180850252509117,
        0.05354395508766174,
        -0.0629461407661438,
        0.0664856880903244,
        -0.24372999370098114,
        -0.1612163782119751,
        -0.05844612792134285,
        -0.18730081617832184,
        0.04411535710096359,
        0.08927895128726959,
        -0.10904598981142044,
        -0.06880442053079605,
        0.12220416963100433,
        -0.24828357994556427,
        0.2892615795135498,
        0.1533048152923584,
        -0.024023696780204773,
        -0.11173930019140244,
        0.11025024950504303,
        0.27394700050354004,
        -0.069161057472229,
        -0.12524926662445068,
        -0.16728731989860535,
        0.025632323697209358,
        -0.10651279240846634,
        -0.10410293191671371,
        -0.05128321796655655,
        0.22016747295856476,
        0.29219964146614075,
        -0.20159465074539185,
        -0.006075500510632992,
        -0.05193465203046799,
        0.18198321759700775,
        -0.07001965492963791,
        -0.12472685426473618,
        -0.16097517311573029,
        0.18269717693328857,
        -0.09939073771238327,
        -0.054469138383865356,
        -0.010893921367824078,
        -0.10043270140886307,
        -0.13281980156898499,
        0.09512064605951309,
        0.003525150241330266,
        -0.04892570897936821,
        0.04560272395610809,
        0.02155224047601223,
        -0.02078245021402836,
        0.16319088637828827,
        -0.16661682724952698,
        0.19017347693443298,
        -0.032202526926994324,
        -0.09678573161363602,
        0.12989576160907745,
        0.1035565435886383,
        -0.026482725515961647,
        0.13507364690303802,
        -0.13688935339450836,
        0.12142158299684525,
        -0.17068764567375183,
        0.044765401631593704,
        -0.09305381774902344,
        0.09784766286611557,
        -0.10878680646419525,
        -0.08800069987773895,
        0.1390160620212555,
        0.1061880812048912,
        -0.06370405107736588,
        -0.1389872133731842,
        0.17982392013072968,
        0.2863180935382843,
        0.02370636910200119,
        0.21029548346996307,
        0.18143515288829803,
        -0.27231353521347046,
        0.02992975153028965,
        0.01467304676771164,
        -0.24092969298362732,
        0.0670388713479042,
        0.06497790664434433,
        0.03499586135149002,
        -0.04837915301322937,
        0.10916675627231598,
        0.1689262092113495,
        -0.1816917210817337,
        -0.0015527214854955673,
        -0.12298055738210678,
        0.005700073670595884,
        0.0412868969142437,
        -0.06568118184804916,
        -0.08544056117534637,
        -0.004829335026443005,
        -0.2522844672203064,
        -0.033997125923633575,
        0.09799151122570038,
        -0.003883705474436283,
        0.07352949678897858,
        -0.19670046865940094,
        -0.0316179096698761,
        -0.006562929134815931,
        -0.0769740417599678,
        -0.20084266364574432,
        0.08921872079372406,
        -0.18279050290584564,
        0.11757747083902359,
        -0.1257905215024948,
        0.24296045303344727,
        0.027245819568634033,
        0.1778024286031723,
        -0.2412765771150589,
        0.1755310595035553,
        -0.12395112216472626,
        -0.01342490129172802,
        -0.13954296708106995,
        0.06843063980340958,
        -0.04083991423249245,
        0.23594161868095398,
        -0.14755117893218994,
        -0.3913661241531372,
        0.19195441901683807,
        0.09377004206180573,
        0.17858748137950897,
        0.010550666600465775,
        -0.09168075770139694,
        0.12874926626682281,
        -0.2562601864337921,
        0.14822687208652496,
        -0.11044128239154816,
        -0.030849123373627663,
        -0.12688679993152618,
        0.08937131613492966,
        0.10156630724668503,
        0.2287326604127884,
        -0.3767505884170532,
        0.04480860382318497,
        0.004148900508880615,
        0.1809210479259491,
        0.09546484053134918,
        0.08147726953029633,
        -0.14108960330486298,
        -0.06250324845314026,
        -0.06822607666254044,
        -0.24960273504257202,
        0.16184170544147491,
        0.10363078117370605,
        -0.0812034159898758,
        0.27483123540878296,
        0.040506113320589066,
        0.03625870496034622,
        0.25945183634757996,
        -0.060610853135585785,
        0.12116256356239319,
        -0.05595623701810837,
        0.13749022781848907,
        -0.054670434445142746,
        -0.14285896718502045,
        -0.19745631515979767,
        0.013797858729958534,
        -0.04291391000151634,
        -0.12014005333185196,
        -0.0016851900145411491,
        -0.12404710054397583,
        0.0012897023698315024,
        0.1195661798119545,
        0.07202348858118057,
        -0.06005764380097389,
        0.10919658094644547,
        -0.0371570959687233,
        -0.16056592762470245,
        0.08835480362176895,
        0.1358286738395691,
        0.17756721377372742,
        -0.2750271260738373,
        0.09796523302793503,
        -0.22894126176834106,
        -0.07082100957632065,
        -0.1111835241317749,
        -0.1738061159849167,
        0.06603719294071198,
        0.02505199983716011,
        0.3663855195045471,
        0.0052246106788516045,
        0.20652297139167786,
        0.19946226477622986,
        -0.11632299423217773,
        0.04585473984479904,
        -0.07374388724565506,
        -0.1424654722213745,
        0.10810991376638412,
        0.050883758813142776,
        0.22340305149555206,
        0.04365262761712074,
        -0.17247582972049713,
        -0.0502958744764328,
        0.07945866882801056,
        0.020663518458604813,
        0.0004706688632722944,
        -0.1130129024386406,
        0.2100052386522293,
        -0.013239751569926739,
        0.08341769129037857,
        -0.0275683905929327,
        0.01971452124416828,
        -0.13706757128238678,
        -0.0325995609164238,
        -0.15619325637817383,
        0.08834362775087357,
        -0.09745918959379196,
        -0.1399359405040741,
        0.04449150711297989,
        0.056707754731178284,
        -0.24733282625675201,
        0.18045584857463837,
        -0.04817074537277222,
        -0.18261581659317017,
        -0.04934219270944595,
        -0.17305321991443634,
        -0.2648163139820099,
        -0.013069073669612408,
        -0.1596382111310959,
        0.14530934393405914,
        0.13311687111854553,
        0.056717026978731155,
        -0.023369628936052322,
        0.20440834760665894,
        -0.0934826135635376,
        -0.10096531361341476,
        -0.2129552811384201,
        0.17382939159870148,
        0.16854014992713928,
        -0.0966557189822197,
        0.09988035261631012,
        0.10114209353923798,
        -0.1665371209383011,
        0.07487408816814423,
        0.011459985747933388,
        0.03869587928056717,
        0.049620840698480606,
        -0.13830168545246124,
        0.07650569826364517,
        0.1600237786769867,
        -0.008829274214804173,
        -0.1743735522031784,
        0.021866584196686745,
        -0.13826335966587067,
        0.0399554967880249,
        0.08075027167797089,
        0.17288832366466522,
        0.2160411775112152,
        0.11838512122631073,
        0.08074190467596054,
        0.017613280564546585,
        -0.03331957384943962,
        0.06636527180671692,
        0.1964796483516693,
        0.14537547528743744,
        0.10385530441999435,
        -0.0035167750902473927,
        0.2361396998167038,
        -0.033542122691869736,
        -0.0724266842007637,
        -0.14592066407203674,
        0.15043020248413086,
        0.2504135072231293,
        0.2222960740327835,
        0.03381657600402832,
        0.0025412512477487326,
        -0.03711727634072304,
        0.01095020491629839,
        0.26492947340011597,
        -0.24840055406093597,
        0.01665569841861725,
        0.10708802938461304,
        -0.06115209311246872,
        0.1960843950510025,
        -0.04349888116121292,
        -0.13166017830371857,
        -0.08882389217615128,
        0.0026985795702785254,
        0.12857882678508759,
        0.05127671733498573,
        0.05680868774652481,
        0.01317573618143797,
        0.08192482590675354,
        0.01255709771066904,
        0.14992333948612213,
        -0.1526842713356018,
        0.21153055131435394,
        0.05819686874747276,
        -0.21650484204292297,
        -0.08598770201206207,
        -0.02241353690624237,
        -0.31750404834747314,
        0.21384075284004211,
        0.14439421892166138,
        -0.33941975235939026,
        0.3275056779384613,
        -0.12685561180114746,
        -0.03896890580654144,
        -0.03459770604968071,
        -0.23899225890636444,
        -0.026488719508051872,
        -0.06157936900854111,
        0.11506720632314682,
        -0.0072629814967513084,
        0.014004911296069622
      ]
    },
    {
      "architecture": "normalization",
      "bias": [
        0.018902935087680817,
        -0.7080564498901367,
        0.13658453524112701,
        -0.9375364184379578,
        -0.45880720019340515,
        -0.0767647922039032,
        -0.40765833854675293,
        -0.3759917616844177,
        0.005578175187110901,
        -0.4812842905521393,
        0.2776961326599121,
        -0.2040499895811081,
        0.29311123490333557,
        0.04274968057870865,
        0.2015790492296219,
        0.5675320625305176,
        0.19188028573989868,
        0.2847546637058258,
        0.6653304696083069,
        0.8842824101448059,
        0.460360586643219,
        0.4236534535884857,
        -0.7509981989860535,
        0.683545708656311,
        -0.8440115451812744,
        -0.13889002799987793,
        0.3714998960494995,
        -0.027714237570762634,
        -0.42002663016319275,
        -0.2263420820236206,
        -0.3714923858642578,
        0.20160797238349915,
        0.4121548533439636,
        0.04414264112710953,
        -0.058337852358818054,
        -0.5705149173736572,
        -0.4839339852333069,
        -0.16018769145011902,
        -0.2618255615234375,
        0.12130501866340637,
        -0.2523774206638336,
        -0.27530163526535034,
        0.7003232836723328,
        0.5090877413749695,
        0.9652584195137024,
        0.6746289730072021,
        0.006142552942037582,
        0.8147554397583008,
        -0.31227290630340576,
        0.12172674387693405,
        -0.1792154163122177,
        0.18945851922035217,
        -0.45371192693710327,
        -0.6012231707572937,
        0.3122396469116211,
        0.512703001499176,
        0.11395630240440369,
        0.10120336711406708,
        0.04514414817094803,
        0.4728618860244751,
        -0.5803403258323669,
        -0.41140806674957275,
        -0.5604798197746277,
        -0.08792108297348022,
        -0.7041404843330383,
        0.6594094038009644,
        -0.2486693114042282,
        0.1669960618019104,
        0.11427012085914612,
        0.05194605886936188,
        0.002845238894224167,
        -0.12138889729976654,
        0.07242641597986221,
        -0.13856413960456848,
        -0.23149877786636353,
        -0.03414367139339447,
        0.13354375958442688,
        0.2686775028705597,
        0.3756123483181,
        0.2641964852809906,
        -0.04648697376251221,
        -0.8438271880149841,
        0.2658936679363251,
        0.48163723945617676,
        0.3438187837600708,
        0.6861090064048767,
        -0.679869532585144,
        -0.1886862814426422,
        -0.38861656188964844,
        0.2860003709793091,
        -0.18236181139945984,
        1.0502821207046509,
        -0.26360082626342773,
        0.5113702416419983,
        -0.3529558777809143,
        -0.36242955923080444,
        0.025682929903268814,
        0.18431921303272247,
        -0.3324853777885437,
        -0.35380107164382935
      ],
      "weights": [
        1.263774037361145,
        1.3462163209915161,
        1.6096439361572266,
        1.5186604261398315,
        1.283428430557251,
        1.528627872467041,
        1.4173444509506226,
        1.4962198734283447,
        1.4316191673278809,
        1.593146800994873,
        1.5305192470550537,
        1.2520853281021118,
        1.435817837715149,
        1.629013180732727,
        1.2027121782302856,
        1.6395331621170044,
        1.66520357131958,
        1.6100841760635376,
        1.5709383487701416,
        1.3960511684417725,
        1.3157567977905273,
        1.7938885688781738,
        1.6395124197006226,
        1.254611611366272,
        1.3523733615875244,
        1.5397731065750122,
        1.5426017045974731,
        1.4974591732025146,
        1.4336715936660767,
        1.1404774188995361,
        1.596754789352417,
        1.232502818107605,
        1.477799892425537,
        1.3883522748947144,
        1.5516234636306763,
        1.3497974872589111,
        1.5020856857299805,
        1.7094659805297852,
        1.3714724779129028,
        1.392626166343689,
        1.6027368307113647,
        1.3940927982330322,
        1.26156485080719,
        1.5684181451797485,
        1.4231306314468384,
        1.4772019386291504,
        1.705507755279541,
        1.3035414218902588,
        1.7572901248931885,
        1.654099941253662,
        1.3000015020370483,
        1.3655810356140137,
        1.6165621280670166,
        1.8076218366622925,
        1.1988533735275269,
        1.713655710220337,
        1.5630351305007935,
        1.8318220376968384,
        1.3286885023117065,
        1.410401463508606,
        1.4929465055465698,
        1.327808141708374,
        1.2908178567886353,
        1.9776034355163574,
        1.3102837800979614,
        1.6957817077636719,
        1.430607557296753,
        1.5643584728240967,
        1.340508222579956,
        1.2332056760787964,
        1.3261715173721313,
        1.5459405183792114,
        1.6011162996292114,
        1.6517720222473145,
        1.548138976097107,
        1.2584511041641235,
        1.7478728294372559,
        1.5930653810501099,
        1.6029235124588013,
        1.9725900888442993,
        1.315934658050537,
        1.5523916482925415,
        1.5123622417449951,
        1.0900769233703613,
        1.4367674589157104,
        1.6450715065002441,
        1.5618826150894165,
        1.6934175491333008,
        1.3826085329055786,
        1.3185749053955078,
        1.4263179302215576,
        1.3122085332870483,
        1.3229210376739502,
        1.4177693128585815,
        1.3378033638000488,
        1.5460484027862549,
        1.3633785247802734,
        1.7137340307235718,
        1.4044992923736572,
        1.3893132209777832
      ]
    },
    {
      "activation": "rectified",
      "architecture": "dense",
      "bias": [],
      "weights": []
    },
    {
      "activation": "linear",
      "architecture": "dense",
      "bias": [
        0.0008585019968450069,
        -0.0039857071824371815,
        0.00355586432851851,
        -0.00019630955648608506,
        0.0007770314696244895,
        0.0036652726121246815,
        -0.00023065830464474857,
        -0.001809056499041617,
        0.0010172859765589237,
        0.0005402819951996207,
        -0.0013157895300537348,
        0.0004012066056020558,
        -0.00029378870385698974,
        -0.0013077490730211139,
        0.0006638621562160552,
        -0.001360530499368906,
        0.00043104076758027077,
        -0.0005343185621313751,
        0.002824965165928006,
        0.0013969320571050048,
        -0.007537828758358955,
        0.0035608119796961546,
        0.00027261089417152107,
        -0.0003434571553952992,
        -0.0004981278325431049,
        0.0004076999903190881,
        0.0017036113422363997,
        -0.002484075492247939,
        -0.003496045246720314,
        -0.0014498118543997407,
        -0.0033506988547742367,
        0.0001453259028494358,
        -0.0005898273666389287,
        -0.0020145715679973364,
        0.0024682777002453804,
        8.075411460595205e-05,
        -0.00026088248705491424,
        0.003003636607900262,
        0.001599715556949377,
        -0.0017628299538046122,
        -0.0033482566941529512,
        0.0008912140619941056,
        -0.00040582873043604195,
        0.0006686963024549186,
        -0.0045007579028606415,
        0.0017147762700915337,
        -0.001210005721077323,
        -0.00022667166194878519,
        0.0015481123700737953,
        -0.0009351117187179625,
        -0.001160933286882937,
        -0.000778992020059377,
        0.0018681467045098543,
        -0.0011207365896552801,
        0.0016985372640192509,
        0.004665275104343891,
        -0.0002540678542573005,
        -0.0027900121640414,
        0.0031628452707082033,
        0.0014880704693496227,
        -0.00048239054740406573,
        -0.002547549083828926,
        0.0003665412950795144,
        -0.003730246564373374,
        -0.00047248025657609105,
        -0.0018077421700581908,
        -0.0008670626557432115,
        0.0004675282980315387,
        0.0012252036249265075,
        -6.120041507529095e-05,
        -0.0011861135717481375,
        -0.001236475189216435,
        0.00018068776989821345,
        0.002113760681822896,
        -6.852945080026984e-05,
        -0.003499855985864997,
        0.002516169333830476,
        -0.0011193776736035943,
        -0.0009071064996533096,
        -0.0027246882673352957,
        0.0013287760084494948,
        -0.0019104230450466275,
        -0.003386164316907525,
        0.0007471423014067113,
        -0.00473541347309947,
        0.0009001755388453603,
        -0.0020203778985887766,
        0.0030420073308050632,
        0.0029544641729444265,
        0.0011369602289050817,
        0.0002982112346217036,
        -0.0020450951997190714,
        0.00320827285759151,
        0.0018130587413907051,
        -0.0009879301069304347,
        -6.437378033297136e-05,
        -0.0031859376467764378,
        -0.007701712194830179,
        -0.0006558416644111276,
        0.0006439347052946687
      ],
      "weights": [
        0.06665913760662079,
        0.18736456334590912,
        -0.02396184392273426,
        0.15203987061977386,
        -0.10261925309896469,
        -0.022831078618764877,
        0.040030814707279205,
        -0.09677646309137344,
        -0.0640503466129303,
        -0.3751072883605957,
        -0.03928328678011894,
        0.21555998921394348,
        -0.03395361453294754,
        -0.1840626746416092,
        0.18605922162532806,
        -0.11494462192058563,
        -0.03757490962743759,
        -0.018414517864584923,
        -0.235269695520401,
        0.2022612988948822,
        -0.12601298093795776,
        -0.042357224971055984,
        -0.2411467283964157,
        0.19317583739757538,
        0.17481645941734314,
        0.19387918710708618,
        -0.05806950107216835,
        0.1503061056137085,
        -0.1758205145597458,
        0.15614208579063416,
        0.1698339730501175,
        -0.09420671314001083,
        0.09048694372177124,
        0.06368139386177063,
        0.022992243990302086,
        -0.10441691428422928,
        0.05682956799864769,
        -0.017504122108221054,
        -0.06920822709798813,
        -0.141570582985878,
        0.06584563106298447,
        0.08965831249952316,
        0.28557220101356506,
        -0.03542061895132065,
        0.1970868706703186,
        -0.16963274776935577,
        0.01971595361828804,
        -0.10552027821540833,
        0.031152743846178055,
        0.13682298362255096,
        0.26583370566368103,
        0.18056347966194153,
        -0.04762011021375656,
        0.06991154700517654,
        0.08026142418384552,
        -0.21053318679332733,
        0.3083638548851013,
        -0.059400301426649094,
        -0.08501753956079483,
        -0.20477013289928436,
        -0.05134141445159912,
        -0.16821497678756714,
        -0.08018621802330017,
        0.0014282020274549723,
        0.007860508747398853,
        -0.17319637537002563,
        -0.17004883289337158,
        0.09990295022726059,
        0.11605064570903778,
        -0.050827234983444214,
        0.07812082022428513,
        0.1942916214466095,
        0.2193915694952011,
        0.13095012307167053,
        0.03750766068696976,
        -0.05332372337579727,
        -0.08418028801679611,
        -0.05468779802322388,
        -0.1560819149017334,
        0.12487651407718658,
        0.24190184473991394,
        -0.19200314581394196,
        0.25194600224494934,
        0.13758641481399536,
        -0.14507772028446198,
        0.06728005409240723,
        -0.10128452628850937,
        -0.22688932716846466,
        0.05327074974775314,
        -0.005741722881793976,
        0.2591552734375,
        -0.06701549887657166,
        -0.022992020472884178,
        0.03958319500088692,
        -0.1344451606273651,
        -0.07794008404016495,
        -0.07150909304618835,
        -0.08133713155984879,
        0.18898408114910126,
        -0.06601875275373459,
        -0.160233736038208,
        0.009497270919382572,
        -0.05220126360654831,
        -0.1808944046497345,
        -0.23422197997570038,
        -0.15710869431495667,
        -0.06594144552946091,
        -0.17976699769496918,
        -0.0644117146730423,
        -0.09185025095939636,
        0.27499672770500183,
        0.03620327264070511,
        -0.020323047414422035,
        -0.20056194067001343,
        -0.026005102321505547,
        -0.3793696165084839,
        0.1422852873802185,
        -0.09917716681957245,
        0.004956565797328949,
        -0.06262864917516708,
        -0.02040417678654194,
        -0.18497474491596222,
        -0.3959323465824127,
        -0.09332092106342316,
        0.062411390244960785,
        0.09707470238208771,
        -0.1063804179430008,
        -0.17937351763248444,
        0.06595708429813385,
        0.13517405092716217,
        0.08125825971364975,
        -0.09667354822158813,
        -0.13342170417308807,
        0.0920904278755188,
        0.07554313540458679,
        0.021331297233700752,
        -0.06535313278436661,
        0.2222691923379898,
        -0.02547403611242771,
        0.02509119361639023,
        0.05482341721653938,
        0.07710497826337814,
        -0.15845154225826263,
        -0.1024947389960289,
        0.03124270588159561,
        -0.21180984377861023,
        0.13739150762557983,
        -0.055788781493902206,
        -0.09092508256435394,
        -0.06287288665771484,
        -0.0793994590640068,
        -0.04728487879037857,
        -0.2644094228744507,
        -0.045477673411369324,
        0.018711723387241364,
        -0.17044611275196075,
        -0.2904145121574402,
        -0.13836458325386047,
        0.08760296553373337,
        -0.10276149958372116,
        0.2035459727048874,
        0.005283852573484182,
        -0.1416720747947693,
        -0.0778595581650734,
        0.1501089334487915,
        0.06706477701663971,
        -0.10134392231702805,
        0.20728617906570435,
        0.1511727273464203,
        0.07621875405311584,
        0.1772860437631607,
        0.04664768651127815,
        0.08514190465211868,
        -0.13816380500793457,
        0.11873088032007217,
        -0.09123075753450394,
        -0.17770695686340332,
        -0.012453739531338215,
        0.07211726158857346,
        -0.12625277042388916,
        -0.05467121675610542,
        0.08981417864561081,
        -0.06377517431974411,
        0.30190566182136536,
        -0.026110073551535606,
        0.12417285889387131,
        -0.050138793885707855,
        -0.12836745381355286,
        -0.015028316527605057,
        -0.03320791944861412,
        0.028406411409378052,
        0.09374067932367325,
        -0.03881838917732239,
        -0.26398465037345886,
        0.08040323853492737,
        -0.07781337946653366,
        -0.1295841634273529,
        -0.1480417549610138,
        0.10153546184301376,
        0.07833999395370483,
        0.07388336211442947,
        -0.23475927114486694,
        0.14682862162590027,
        -0.0073685781098902225,
        0.1659531593322754,
        -0.004012241959571838,
        0.21868792176246643,
        0.014080888591706753,
        0.12738217413425446,
        -0.09713295102119446,
        0.07540620863437653,
        -0.15602169930934906,
        -0.08790916204452515,
        -0.005295968148857355,
        -0.08391114324331284,
        -0.16126249730587006,
        0.11967198550701141,
        -0.06931652128696442,
        0.17012850940227509,
        0.11197882145643234,
        -0.08863846212625504,
        0.006904467009007931,
        -0.12611132860183716,
        -0.13028167188167572,
        0.09084007143974304,
        -0.33207374811172485,
        -0.01901445910334587,
        0.1072908416390419,
        0.05835920572280884,
        0.06690408289432526,
        -0.004176301881670952,
        0.18059323728084564,
        -0.12064429372549057,
        -0.0919107049703598,
        0.045095350593328476,
        -0.06831279397010803,
        0.018114794045686722,
        -0.11218749731779099,
        -0.011000184342265129,
        0.10590974986553192,
        -0.12004069983959198,
        0.026776794344186783,
        -0.10710721462965012,
        -0.01641397923231125,
        -0.12722621858119965,
        0.10724235326051712,
        -0.06770939379930496,
        0.05258439853787422,
        0.11690225452184677,
        0.0827985405921936,
        0.08743973821401596,
        -0.11367108672857285,
        -0.1212221160531044,
        -0.13188056647777557,
        0.015884051099419594,
        -0.014231142587959766,
        0.09868352860212326,
        0.020310763269662857,
        0.03485840559005737,
        -0.14377586543560028,
        -0.2882375717163086,
        -0.03507222235202789,
        -0.2118825614452362,
        -0.08986859768629074,
        -0.24858351051807404,
        -0.08581608533859253,
        0.08756574988365173,
        0.14691680669784546,
        0.22651174664497375,
        -0.02840849943459034,
        0.025993166491389275,
        -0.13880297541618347,
        -0.005393194034695625,
        -0.12729360163211823,
        0.14727982878684998,
        0.09797102957963943,
        -0.08939743787050247,
        -0.11272361129522324,
        -0.12065543979406357,
        -0.17715276777744293,
        0.18571315705776215,
        0.018506519496440887,
        0.2064712941646576,
        -0.16976512968540192,
        -0.18896494805812836,
        -0.34626057744026184,
        0.21482907235622406,
        0.19081009924411774,
        0.05343130603432655,
        0.06270204484462738,
        -0.009567526169121265,
        -0.09579096734523773,
        0.15448080003261566,
        -0.22248896956443787,
        -0.11129776388406754,
        0.0787680521607399,
        -0.04350969195365906,
        0.12124213576316833,
        0.2503478229045868,
        -0.11220183968544006,
        0.08602399379014969,
        0.19321578741073608,
        -0.15195640921592712,
        0.11820898205041885,
        -0.1506481170654297,
        0.19939588010311127,
        -0.11988075077533722,
        -0.04356297478079796,
        0.022438175976276398,
        -0.33578649163246155,
        0.023880284279584885,
        0.2680879831314087,
        0.12227191776037216,
        0.24763734638690948,
        -0.020199568942189217,
        0.00867931917309761,
        0.11707096546888351,
        0.13478651642799377,
        0.07696504145860672,
        -0.056645654141902924,
        0.03588247671723366,
        -0.09179113060235977,
        -0.014098728075623512,
        0.003831505076959729,
        0.23710493743419647,
        0.08672565966844559,
        -0.12826424837112427,
        0.12183571606874466,
        0.031046181917190552,
        -0.05116534233093262,
        0.07790675014257431,
        -0.11672213673591614,
        0.08822227269411087,
        -0.09665568917989731,
        0.05929771065711975,
        -0.05658828094601631,
        -0.0686495304107666,
        0.009313719347119331,
        -0.2505912184715271,
        -0.0632144957780838,
        0.3684622049331665,
        -0.2111974060535431,
        0.15521535277366638,
        0.005322412122040987,
        -0.27050402760505676,
        0.05026581883430481,
        -0.031822942197322845,
        -0.07674660533666611,
        -0.02204933762550354,
        0.0801549181342125,
        -0.056167177855968475,
        0.2701668441295624,
        0.051574453711509705,
        0.2208413928747177,
        0.158656507730484,
        0.025825804099440575,
        -0.01335090957581997,
        -0.15539486706256866,
        -0.0007930106949061155,
        -0.1696314513683319,
        0.09179133176803589,
        -0.14648380875587463,
        0.02579907327890396,
        -0.022019963711500168,
        -0.1610252410173416,
        0.014815481379628181,
        0.030766228213906288,
        -0.0018423653673380613,
        0.1958593875169754,
        0.12049415707588196,
        0.026958364993333817,
        0.2332005500793457,
        -0.29055383801460266,
        -0.16135184466838837,
        -0.2122780680656433,
        -0.015186913311481476,
        0.1293259859085083,
        0.09489663690328598,
        0.057272009551525116,
        0.03032059781253338,
        -0.11488725990056992,
        -0.086945541203022,
        -0.16564832627773285,
        0.04247834160923958,
        -0.06593361496925354,
        0.10782517492771149,
        0.09425251930952072,
        0.004764706362038851,
        0.12704883515834808,
        -0.10159333795309067,
        0.05814553424715996,
        0.07735098898410797,
        0.03769240528345108,
        0.19213809072971344,
        -0.009664038196206093,
        -0.02772035449743271,
        0.09702862054109573,
        0.23251263797283173,
        -0.28402721881866455,
        0.002176745794713497,
        0.049804575741291046,
        -0.1253393590450287,
        -0.15843379497528076,
        0.23026621341705322,
        -0.2943706512451172,
        0.04962112754583359,
        0.045539118349552155,
        0.3093109726905823,
        -0.053609348833560944,
        -0.048338714987039566,
        -0.17957042157649994,
        -0.02861764095723629,
        0.1585657000541687,
        0.14219574630260468,
        0.024502450600266457,
        -0.04081111028790474,
        -0.08997151255607605,
        0.1514938473701477,
        -0.21352316439151764,
        -0.04860531911253929,
        -0.1084318682551384,
        0.09019935876131058,
        0.20856530964374542,
        0.019773708656430244,
        -0.17898854613304138,
        0.13445964455604553,
        0.010265156626701355,
        0.06763217598199844,
        -0.08810009062290192,
        0.08243916928768158,
        -0.09256985038518906,
        0.16987062990665436,
        0.0001042818184942007,
        0.20602963864803314,
        0.1382431983947754,
        -0.2701221704483032,
        0.017682110890746117,
        0.0684189647436142,
        0.10405129939317703,
        0.2396058440208435,
        -0.33389919996261597,
        -0.06964550167322159,
        -0.125885471701622,
        0.09515344351530075,
        -0.09153583645820618,
        0.11150289326906204,
        0.051410872489213943,
        0.03168503940105438,
        0.061718858778476715,
        0.04310919716954231,
        0.1278734654188156,
        0.12841953337192535,
        0.14629128575325012,
        -0.05293063446879387,
        0.08428318798542023,
        0.04949697479605675,
        -0.13723701238632202,
        -0.2534341812133789,
        0.011378285475075245,
        0.08452760428190231,
        -0.026335494592785835,
        0.043379656970500946,
        -0.23990890383720398,
        0.1896516978740692,
        0.09947429597377777,
        0.18958164751529694,
        -0.12439616024494171,
        -0.07814578711986542,
        0.02416788972914219,
        -0.09612754732370377,
        -0.006743218284100294,
        -0.03704550117254257,
        0.11094461381435394,
        -0.13525910675525665,
        0.12325897067785263,
        0.09197669476270676,
        0.12356025725603104,
        0.08245401829481125,
        0.11686939001083374,
        -0.051428016275167465,
        -0.14663536846637726,
        0.02007058635354042,
        0.04741383343935013,
        -0.08617844432592392,
        0.21904493868350983,
        0.06524928659200668,
        0.18794415891170502,
        -0.15993069112300873,
        0.08104956895112991,
        0.059604544192552567,
        -0.008101661689579487,
        -0.038337334990501404,
        0.023728998377919197,
        0.08955571800470352,
        0.14672154188156128,
        -0.07087551057338715,
        0.14536847174167633,
        -0.01817535050213337,
        -0.0907035544514656,
        -0.15956296026706696,
        0.24500155448913574,
        -0.1672362983226776,
        -0.05243302136659622,
        -0.10974561423063278,
        0.13266785442829132,
        0.018798138946294785,
        0.07592695951461792,
        0.040460534393787384,
        0.02859880030155182,
        -0.02565869502723217,
        -0.09232279658317566,
        -0.13313092291355133,
        -0.06479687243700027,
        0.030435912311077118,
        0.1462080031633377,
        0.055923882871866226,
        -0.20094968378543854,
        0.1887967586517334,
        0.23250313103199005,
        -0.19967371225357056,
        -0.09885793924331665,
        -0.1986328810453415,
        -0.008482186123728752,
        0.10451702028512955,
        0.0647495687007904,
        -0.008516001515090466,
        0.08236101269721985,
        -0.025721872225403786,
        -0.0958215519785881,
        -0.18794061243534088,
        -0.1268012374639511,
        0.15947112441062927,
        -0.060675885528326035,
        0.0005116609390825033,
        0.005656516179442406,
        -0.008018295280635357,
        0.13147275149822235,
        0.0037331830244511366,
        0.059121958911418915,
        0.08365355432033539,
        -0.06036188080906868,
        0.19903501868247986,
        0.02748357318341732,
        0.0887037143111229,
        -0.049734704196453094,
        -0.07455543428659439,
        -0.08205033093690872,
        -0.057587213814258575,
        -0.13853789865970612,
        0.1452069878578186,
        0.0826086476445198,
        -0.04102310165762901,
        0.17923039197921753,
        -0.13112686574459076,
        -0.1154523566365242,
        -0.0007599661475978792,
        0.06432751566171646,
        0.041067082434892654,
        0.11251004785299301,
        0.0010851906845346093,
        -0.2257215529680252,
        -0.0787162110209465,
        0.06619182229042053,
        -0.04156772419810295,
        0.0035922303795814514,
        0.16751013696193695,
        0.22709277272224426,
        -0.16705533862113953,
        0.10639743506908417,
        -0.15811817348003387,
        -0.0007110090809874237,
        0.0013912944123148918,
        -0.2244866043329239,
        0.1797737330198288,
        0.16805696487426758,
        -0.10667965561151505,
        0.00014414667384698987,
        0.20719178020954132,
        0.10107654333114624,
        0.12641549110412598,
        0.007203682791441679,
        -0.13303861021995544,
        0.12807291746139526,
        -0.06651098281145096,
        -0.29388317465782166,
        -0.1718621551990509,
        -0.06321431696414948,
        0.24871926009655,
        -0.042459066957235336,
        -0.3700389266014099,
        -0.031626179814338684,
        0.15114736557006836,
        0.19957970082759857,
        0.0293068066239357,
        0.24296727776527405,
        0.02015858329832554,
        0.16567403078079224,
        0.07637845724821091,
        -0.059979625046253204,
        -0.06564212590456009,
        0.03281453624367714,
        -0.13303090631961823,
        0.016907308250665665,
        -0.021163662895560265,
        0.08260753005743027,
        -0.02251502498984337,
        -0.1220734491944313,
        0.03702349215745926,
        -0.015993831679224968,
        -0.0015325916465371847,
        -0.06333637237548828,
        -0.05641801655292511,
        -0.18444862961769104,
        0.06084727868437767,
        -0.018371907994151115,
        -0.15721949934959412,
        -0.161355659365654,
        -0.1635790467262268,
        -0.11974956840276718,
        0.04672057554125786,
        -0.04852600023150444,
        0.18149302899837494,
        -0.23477663099765778,
        -0.027979929000139236,
        -0.04286448284983635,
        0.06784089654684067,
        0.16888175904750824,
        0.04029589891433716,
        -0.18197323381900787,
        -0.12402551621198654,
        0.23852072656154633,
        0.23776863515377045,
        0.06697437912225723,
        0.08513651043176651,
        -0.18157653510570526,
        0.22129833698272705,
        -0.067649245262146,
        -0.04945973679423332,
        -0.031228920444846153,
        -0.1221020519733429,
        -0.023844322189688683,
        0.06200399994850159,
        0.09736710041761398,
        -0.12444481998682022,
        0.11960846930742264,
        -0.17419874668121338,
        -0.0007314729155041277,
        0.0985167995095253,
        -0.24705155193805695,
        -0.003423708723857999,
        0.12552858889102936,
        -0.014096385799348354,
        0.11424276232719421,
        -0.04258303716778755,
        -0.013926894403994083,
        -0.3366919755935669,
        -0.021175192669034004,
        -0.09066624194383621,
        -0.07067519426345825,
        -0.09047933667898178,
        -0.013390609994530678,
        0.02152220904827118,
        -0.1753149926662445,
        -0.11991018056869507,
        -0.058275558054447174,
        0.19248543679714203,
        -0.16971789300441742,
        -0.14603735506534576,
        0.14587447047233582,
        0.055439043790102005,
        -0.1947219967842102,
        -0.2656240165233612,
        0.024957431480288506,
        0.13498423993587494,
        0.05025620386004448,
        0.057994477450847626,
        0.05516444146633148,
        -0.17939919233322144,
        -0.029485037550330162,
        -0.14263372123241425,
        -0.08339385688304901,
        0.2517046630382538,
        0.1282447725534439,
        -0.2984325885772705,
        0.13541841506958008,
        0.14781655371189117,
        -0.05686178803443909,
        0.09197482466697693,
        -0.18997769057750702,
        0.11512118577957153,
        0.20646901428699493,
        0.12725937366485596,
        0.04397018253803253,
        0.19971182942390442,
        -0.0018234868766739964,
        -0.3189883530139923,
        0.1477920562028885,
        0.22904308140277863,
        -0.0414532795548439,
        0.21870999038219452,
        -0.012649123556911945,
        -0.08058944344520569,
        0.026566660031676292,
        -0.11275692284107208,
        -0.027200648561120033,
        0.011944901198148727,
        -0.3079869747161865,
        0.06754659861326218,
        -0.06528366357088089,
        0.012706869281828403,
        0.14172424376010895,
        0.19171574711799622,
        -0.05422934144735336,
        0.07897218316793442,
        0.052540041506290436,
        -0.0379805713891983,
        0.17004364728927612,
        -0.08596532791852951,
        -0.1040882095694542,
        0.0023674333933740854,
        -0.10570899397134781,
        -0.1241888627409935,
        0.17762960493564606,
        -0.00452177319675684,
        -0.0666486918926239,
        -0.14220978319644928,
        -0.15440496802330017,
        0.2586085796356201,
        -0.3722873628139496,
        0.056438203901052475,
        -0.018669160082936287,
        0.0905858725309372,
        -0.10335001349449158,
        0.13429009914398193,
        -1.149870513472706e-05,
        0.10178431123495102,
        -0.10009074211120605,
        -0.1597651243209839,
        0.2076205462217331,
        0.1393890231847763,
        -0.003572272602468729,
        0.12648309767246246,
        -0.12183239310979843,
        0.07465417683124542,
        0.10621371865272522,
        0.02870216593146324,
        -0.09700077027082443,
        -0.3219678997993469,
        0.01583978533744812,
        -0.10043809562921524,
        -0.10772868990898132,
        0.03561551868915558,
        0.2565115988254547,
        0.09660401195287704,
        0.07552816718816757,
        0.17277275025844574,
        0.11764136701822281,
        -0.0854123905301094,
        0.23559695482254028,
        -0.023379234597086906,
        0.14990650117397308,
        -0.010295821353793144,
        -0.016052143648266792,
        0.04175877943634987,
        0.06903817504644394,
        0.24484921991825104,
        -0.12523649632930756,
        -0.25233548879623413,
        0.22192086279392242,
        -0.2499593198299408,
        0.14253923296928406,
        -0.076270692050457,
        0.14031971991062164,
        -0.02456246316432953,
        0.07783716171979904,
        -0.14674152433872223,
        0.05357874184846878,
        0.15888667106628418,
        -0.1699293553829193,
        0.190743550658226,
        0.09139961749315262,
        -0.02648427151143551,
        -0.0024117701686918736,
        0.13582508265972137,
        -0.08199099451303482,
        -0.20081369578838348,
        0.23307588696479797,
        0.06043257564306259,
        -0.22946229577064514,
        -0.13762420415878296,
        0.1098267063498497,
        0.11012284457683563,
        0.0227388646453619,
        0.018713995814323425,
        -0.12112464010715485,
        0.0007125845877453685,
        0.07550262659788132,
        0.09979119151830673,
        0.13744759559631348,
        -0.09814940392971039,
        -0.31667596101760864,
        -0.14490920305252075,
        0.19008702039718628,
        0.1586378514766693,
        -0.06694645434617996,
        0.008222505450248718,
        -0.10639490932226181,
        -0.07131695002317429,
        0.04000828042626381,
        0.32902130484580994,
        -0.20601212978363037,
        -0.014588100835680962,
        0.03731951490044594,
        -0.24839197099208832,
        -0.176611065864563,
        -0.11130280047655106,
        -0.140666201710701,
        0.09915759414434433,
        0.24654054641723633,
        0.18001271784305573,
        -0.32978764176368713,
        0.2790089249610901,
        -0.030130987986922264,
        0.08759209513664246,
        0.06532283127307892,
        0.12437495589256287,
        0.08719412982463837,
        -0.12638311088085175,
        0.13941940665245056,
        -0.08061588555574417,
        -0.09237831085920334,
        -0.002462509786710143,
        0.18620212376117706,
        -0.16586171090602875,
        -0.13581711053848267,
        -0.02333175390958786,
        0.035408005118370056,
        -0.02827499434351921,
        0.21942530572414398,
        -0.023210600018501282,
        0.1146925538778305,
        0.17717096209526062,
        -0.02437065728008747,
        -0.09509669989347458,
        0.02986976131796837,
        -0.15200074017047882,
        0.08414239436388016,
        0.07718468457460403,
        0.09705375134944916,
        -0.1080072745680809,
        0.023610001429915428,
        -0.0746120736002922,
        -0.026530612260103226,
        -0.21662147343158722,
        -0.00022056147281546146,
        -0.09871117770671844,
        -0.05793679505586624,
        -0.025952285155653954,
        0.25690457224845886,
        0.05494632571935654,
        0.06480860710144043,
        0.26941820979118347,
        -0.08220569044351578,
        0.17546074092388153,
        0.05840613320469856,
        -0.16003772616386414,
        -0.05618903413414955,
        0.14211997389793396,
        -0.008145193569362164,
        -0.09300695359706879,
        0.19617001712322235,
        0.10351089388132095,
        0.09576912969350815,
        -0.027120795100927353,
        -0.24030883610248566,
        -0.03767276182770729,
        0.059593427926301956,
        0.0070437234826385975,
        -0.03030228428542614,
        0.15915197134017944,
        -0.06391000747680664,
        -0.07779490202665329,
        -0.31115370988845825,
        -0.10338408499956131,
        0.17281347513198853,
        0.24360167980194092,
        -0.15795685350894928,
        0.04168132320046425,
        0.18072554469108582,
        0.1092226579785347,
        -0.035484429448843,
        0.09507244825363159,
        -0.05138761177659035,
        -0.11259138584136963,
        0.07840169221162796,
        0.15614037215709686,
        0.08926446735858917,
        -0.2536185383796692,
        -0.10134430229663849,
        -0.16454489529132843,
        -0.021924316883087158,
        -0.02979639172554016,
        0.14494383335113525,
        -0.07640006393194199,
        -0.12169134616851807,
        0.023767488077282906,
        -0.15285678207874298,
        0.08532337844371796,
        0.15756338834762573,
        -0.06724852323532104,
        0.009431642480194569,
        0.023654727265238762,
        -0.022703981027007103,
        -0.08513468503952026,
        0.0435483381152153,
        -0.11242841184139252,
        0.13169895112514496,
        -0.2891222834587097,
        0.2479880452156067,
        -0.06725353002548218,
        -0.03645971789956093,
        -0.05854935944080353,
        0.1379634439945221,
        -0.21944603323936462,
        0.06279369443655014,
        0.025344854220747948,
        0.059945911169052124,
        -0.26297229528427124,
        0.13207055628299713,
        -0.05950338765978813,
        -0.25338539481163025,
        -0.07377174496650696,
        0.003512653522193432,
        0.08334572613239288,
        0.17399582266807556,
        0.01689952053129673,
        -0.15247401595115662,
        -0.06482326984405518,
        -0.06460951268672943,
        -0.3020256459712982,
        0.023933302611112595,
        0.08206024020910263,
        -0.17987433075904846,
        0.020277349278330803,
        -0.3715885281562805,
        -0.08677314966917038,
        -0.0006173778674565256,
        0.21107600629329681,
        0.05068761482834816,
        -0.2263117879629135,
        -0.25170397758483887,
        0.12208830565214157,
        -0.15809030830860138,
        0.02856290526688099,
        0.15850819647312164,
        -0.05436759069561958,
        0.10740526765584946,
        -0.20917367935180664,
        0.05372922867536545,
        -0.11002831161022186,
        -0.08523847907781601,
        -0.030238596722483635,
        -0.07408919185400009,
        0.1210709884762764,
        -0.19097478687763214,
        -0.29640108346939087,
        0.19723930954933167,
        -0.21723391115665436,
        -0.3186992406845093,
        -0.14981532096862793,
        0.1610998958349228,
        -0.023658955469727516,
        0.029502801597118378,
        0.07060122489929199,
        0.12153252214193344,
        -0.1683083325624466,
        0.12789177894592285,
        0.22668495774269104,
        -0.056062038987874985,
        0.18470074236392975,
        0.08929459750652313,
        -0.11490418761968613,
        -0.12172988802194595,
        0.042321376502513885,
        0.2712222933769226,
        0.0063481577672064304,
        -0.06452617049217224,
        0.09214354306459427,
        -0.0804230198264122,
        -0.130606546998024,
        -0.08505456149578094,
        0.0211714506149292,
        0.17800071835517883,
        0.04092034697532654,
        -0.1319575309753418,
        0.26679956912994385,
        0.18831652402877808,
        0.10961063206195831,
        0.20883551239967346,
        -0.10317013412714005,
        0.15239742398262024,
        0.16078664362430573,
        0.059327132999897,
        0.13671229779720306,
        -0.17227669060230255,
        -0.1577392816543579,
        0.13541480898857117,
        0.06033671274781227,
        -0.20415563881397247,
        0.16091173887252808,
        -0.007747436873614788,
        0.11324630677700043,
        0.11036484688520432,
        -0.02560662105679512,
        0.06953267753124237,
        -0.2030971795320511,
        -0.0009103652555495501,
        0.11084191501140594,
        0.13748522102832794,
        -0.3595435619354248,
        -0.0625649020075798,
        0.02685101144015789,
        -0.09044411033391953,
        -0.06717860698699951,
        0.15486615896224976,
        0.17765957117080688,
        0.12664663791656494,
        -0.007926679216325283,
        0.060074690729379654,
        0.07504619657993317,
        -0.042195577174425125,
        -0.15452955663204193,
        -0.1728987991809845,
        -0.14758054912090302,
        -0.08739037066698074,
        -0.10855384171009064,
        0.057009994983673096,
        -0.1773037612438202,
        0.11996113508939743,
        0.013401741161942482,
        0.2498435527086258,
        -0.17180603742599487,
        0.09933433681726456,
        0.048209380358457565,
        -0.04184500873088837,
        -0.23442202806472778,
        -0.061248764395713806,
        0.07234933972358704,
        -0.014559119939804077,
        0.0738859474658966,
        0.13865543901920319,
        -0.2447025328874588,
        0.01346350833773613,
        -0.07790692150592804,
        -0.07698322087526321,
        -0.1977221518754959,
        0.22814390063285828,
        0.16682492196559906,
        0.06083240732550621,
        -0.01059205736964941,
        0.05174819380044937,
        0.16978898644447327,
        0.05701149255037308,
        0.01612614281475544,
        0.0786561369895935,
        -0.17204582691192627,
        0.10890055447816849,
        -0.045768581330776215,
        -0.04680664464831352,
        -0.03935730829834938,
        0.14172768592834473,
        0.056953396648168564,
        -0.30414435267448425,
        -0.08121056109666824,
        -0.1085466593503952,
        -0.152100071310997,
        -0.0791887491941452,
        -0.22625850141048431,
        0.01533808745443821,
        -0.06986723095178604,
        0.16946910321712494,
        0.011150003410875797,
        -0.08215578645467758,
        0.07025139778852463,
        0.23393632471561432,
        -0.1326509267091751,
        0.14766961336135864,
        0.08924221247434616,
        0.3072618246078491,
        -0.14228899776935577,
        0.09703061729669571,
        -0.02915794588625431,
        0.05987640470266342,
        0.16190236806869507,
        -0.05223994329571724,
        0.26423993706703186,
        -0.031837098300457,
        0.005829078145325184,
        0.06997432559728622,
        -0.09287724643945694,
        -0.08631283789873123,
        0.043970316648483276,
        -0.1674317568540573,
        -0.14509057998657227,
        0.002173604443669319,
        -0.22982653975486755,
        -0.1758507937192917,
        -0.005642707925289869,
        -0.05246070399880409,
        0.12648138403892517,
        0.05511713773012161,
        -0.22701354324817657,
        0.13681933283805847,
        -0.07163255661725998,
        -0.005639316514134407,
        -0.21715980768203735,
        -0.06316383183002472,
        0.10457620024681091,
        0.07063772529363632,
        0.0004244647570885718,
        0.03724980354309082,
        -0.10483420640230179,
        0.12298837304115295,
        0.2615639865398407,
        -0.04813254252076149,
        -0.1022982969880104,
        0.07242410629987717,
        0.14094270765781403,
        0.05784917622804642,
        0.15348435938358307,
        0.16430583596229553,
        0.21758638322353363,
        0.07971792668104172,
        -0.029646657407283783,
        0.0644693598151207,
        0.06663578748703003,
        -0.003987965174019337,
        -0.16501609981060028,
        0.10270057618618011,
        -0.2111702859401703,
        -0.09379243850708008,
        0.11460478603839874,
        -0.11267787963151932,
        -0.05493289232254028,
        0.06433743983507156,
        -0.1722962111234665,
        0.0804174616932869,
        0.07945769280195236,
        -0.0017465836135670543,
        -0.09317468851804733,
        -0.2152433842420578,
        0.09818287938833237,
        0.24429254233837128,
        -0.21175450086593628,
        -0.08657000213861465,
        -0.18627026677131653,
        -0.014751632697880268,
        0.06642353534698486,
        -0.10372693836688995,
        0.12300936877727509,
        -0.2783052325248718,
        0.0898057147860527,
        0.2529243528842926,
        0.12912583351135254,
        0.12515151500701904,
        -0.122856006026268,
        -0.0026589129120111465,
        0.061967235058546066,
        -0.0141573091968894,
        -0.2353707104921341,
        0.22420360147953033,
        -0.2736648917198181,
        0.10381624847650528,
        -0.006811310537159443,
        -0.14926590025424957,
        -0.15021319687366486,
        -0.18897108733654022,
        0.0789560005068779,
        0.11647854745388031,
        0.08040047436952591,
        -0.24220894277095795,
        -0.1290532499551773,
        0.07177189737558365,
        -0.24038881063461304,
        -0.03186311572790146,
        0.1512005627155304,
        0.08957803249359131,
        -0.1354447454214096,
        0.010032465681433678,
        0.13119091093540192,
        0.20131057500839233,
        0.08623186498880386,
        0.040915846824645996,
        -0.023843033239245415,
        0.050612885504961014,
        0.1110854297876358,
        -0.013033206574618816,
        0.16986572742462158,
        0.14664112031459808,
        0.1731909066438675,
        0.10654372721910477,
        0.27267614006996155,
        -0.22584544122219086,
        -0.21761566400527954,
        -0.2611108422279358,
        0.02774053066968918,
        -0.13907137513160706,
        0.09278198331594467,
        0.17680373787879944,
        -0.07018189132213593,
        -0.030777297914028168,
        0.0037330137565732002,
        -0.08237007260322571,
        -0.060075387358665466,
        -0.00968082994222641,
        0.015940558165311813,
        0.045863889157772064,
        0.07822131365537643,
        -0.3085287809371948,
        0.041600700467824936,
        0.014835855923593044,
        -0.10679491609334946,
        0.2214822918176651,
        0.15334929525852203,
        -0.10568925738334656,
        0.09735416620969772,
        -0.17478463053703308,
        0.015906959772109985,
        -0.007037044037133455,
        -0.12239240854978561,
        0.10192519426345825,
        -0.22406955063343048,
        -0.023449605330824852,
        -0.09080155938863754,
        0.10943163931369781,
        -0.017924543470144272,
        -0.07760569453239441,
        -0.014640300534665585,
        0.1379365473985672,
        -0.09245296567678452,
        0.09853002429008484,
        0.07854055613279343,
        0.14736349880695343,
        -0.23387660086154938,
        0.15631285309791565,
        0.00533294165506959,
        0.11130909621715546,
        0.008810973726212978,
        -0.048769183456897736,
        0.25229930877685547,
        -0.25965622067451477,
        -0.014219296164810658,
        -0.053851787000894547,
        -0.006363550201058388,
        0.23105819523334503,
        -0.0383874773979187,
        0.14063982665538788,
        0.00749119883403182,
        0.17545050382614136,
        0.15321025252342224,
        -0.011845258064568043,
        -0.17359402775764465,
        -0.13869674503803253,
        -0.09795583039522171,
        -0.17339834570884705,
        -0.05965728685259819,
        -0.009167401120066643,
        -0.010369288735091686,
        0.05115392059087753,
        0.07744325697422028,
        0.15676257014274597,
        -0.08518793433904648,
        -0.03329969197511673,
        0.1615675687789917,
        -0.04399406164884567,
        0.059569600969552994,
        -0.002617616904899478,
        0.12461614608764648,
        -0.02819596789777279,
        -0.026432538405060768,
        -0.14576485753059387,
        -0.021937185898423195,
        0.027880534529685974,
        0.05025779828429222,
        -0.20342162251472473,
        -0.04174232482910156,
        0.2670529782772064,
        -0.00817953608930111,
        -0.010143284685909748,
        -0.14746299386024475,
        -0.03600766882300377,
        -0.2302032858133316,
        -0.11585796624422073,
        -0.005072385538369417,
        -0.21335983276367188,
        0.09365453571081161,
        -0.16763851046562195,
        -0.09580055624246597,
        0.2777600884437561,
        -0.12039622664451599,
        -0.1357935070991516,
        0.12991394102573395,
        -0.24208293855190277,
        0.14651909470558167,
        -0.03442690148949623,
        -0.03092995658516884,
        0.18518443405628204,
        -0.19104932248592377,
        -0.041358832269907,
        0.06003338843584061,
        -0.09055443853139877,
        0.22533847391605377,
        0.23751698434352875,
        0.05110176280140877,
        -0.1437336802482605,
        0.1102156713604927,
        0.0041752764955163,
        0.178782656788826,
        0.2825097441673279,
        0.16546128690242767,
        0.023163871839642525,
        0.06777841597795486,
        -0.12082498520612717,
        0.21869975328445435,
        -0.17767463624477386,
        0.04309776425361633,
        -0.09235507249832153,
        0.11499007791280746,
        0.14032335579395294,
        -0.05428612604737282,
        0.034533459693193436,
        -0.29538974165916443,
        -0.050754182040691376,
        -0.11095566302537918,
        0.08755810558795929,
        -0.05526040494441986,
        0.06901733577251434,
        -0.14841489493846893,
        0.05801757797598839,
        0.02985108084976673,
        -0.2278442531824112,
        -0.03911100700497627,
        -0.013640964403748512,
        -0.11651762574911118,
        -0.2742691934108734,
        -0.19922643899917603,
        -0.1331329047679901,
        -0.22317145764827728,
        -0.07305902987718582,
        -0.111953005194664,
        -0.09158521145582199,
        -0.21254675090312958,
        0.2226940542459488,
        -0.19511985778808594,
        0.1551208347082138,
        0.043875232338905334,
        0.000562313012778759,
        -0.17620550096035004,
        0.12563370168209076,
        0.16779562830924988,
        0.008398701436817646,
        0.06623487919569016,
        0.07391775399446487,
        -0.029957326129078865,
        0.07204872369766235,
        -0.05062635987997055,
        0.0785437747836113,
        0.19411468505859375,
        0.13897185027599335,
        -0.07584300637245178,
        0.028350869193673134,
        -0.022123342379927635,
        0.11276713013648987,
        -0.16569620370864868,
        0.08311226218938828,
        -0.04463595896959305,
        -0.023601718246936798,
        -0.05066230520606041,
        -0.1778518408536911,
        0.3277224898338318,
        -0.19877180457115173,
        -0.04256134480237961,
        -0.04973702132701874,
        -0.16559964418411255,
        -0.1587611585855484,
        0.05593958869576454,
        -0.08163394033908844,
        -0.07199743390083313,
        0.030535083264112473,
        0.0892014428973198,
        0.034389808773994446,
        -0.08259031921625137,
        -0.25548598170280457,
        -0.0791107714176178,
        -0.0013897279277443886,
        -0.08727861195802689,
        -0.10738711804151535,
        -0.08269575983285904,
        0.1526428461074829,
        0.04926091805100441,
        0.12956397235393524,
        -0.10711519420146942,
        -0.2509123682975769,
        -0.08767593652009964,
        0.1852806806564331,
        0.16096749901771545,
        0.023305315524339676,
        0.023801526054739952,
        0.060320522636175156,
        0.06028100848197937,
        -0.0774780735373497,
        -0.28353598713874817,
        -0.09391839057207108,
        -0.026372291147708893,
        -0.22710144519805908,
        -0.14568783342838287,
        -0.22318919003009796,
        -0.07574640959501266,
        0.06901450455188751,
        -0.018539566546678543,
        -0.18055444955825806,
        -0.10930244624614716,
        -0.028765792027115822,
        0.08897071331739426,
        0.10621844232082367,
        0.11781829595565796,
        0.1638203114271164,
        -0.03239259868860245,
        -0.13418301939964294,
        0.026939891278743744,
        -0.02520941197872162,
        0.15931323170661926,
        -0.09295636415481567,
        0.07116115838289261,
        -0.08799343556165695,
        0.12486448138952255,
        0.037276268005371094,
        0.22515136003494263,
        -0.056720636785030365,
        0.2826884686946869,
        0.14243876934051514,
        -0.010104384273290634,
        0.09924446791410446,
        0.2859991490840912,
        -0.27309828996658325,
        -0.1487094908952713,
        -0.09577272832393646,
        0.009929710067808628,
        0.0741068422794342,
        0.23695923388004303,
        0.09114617854356766,
        -0.09650738537311554,
        -0.0781688317656517,
        -0.13315939903259277,
        0.05209614336490631,
        -0.12900473177433014,
        0.009020235389471054,
        0.038363512605428696,
        -0.03860458731651306,
        0.1575954556465149,
        -0.3439195454120636,
        0.17521096765995026,
        -0.19798004627227783,
        -0.2520405054092407,
        -0.2492338865995407,
        0.13385765254497528,
        -0.023758428171277046,
        0.06812797486782074,
        -0.07834849506616592,
        0.18349991738796234,
        -0.07355586439371109,
        -0.10764586925506592,
        0.009672571904957294,
        0.15179653465747833,
        0.07925095409154892,
        -0.0023899287916719913,
        0.08386148512363434,
        -0.17999498546123505,
        0.08375849574804306,
        0.11544492095708847,
        0.033154215663671494,
        0.07931734621524811,
        -0.2471434324979782,
        -0.08982407301664352,
        -0.05424950644373894,
        -0.05174071341753006,
        0.04533118009567261,
        -0.05175827443599701,
        -0.21634851396083832,
        0.03889564424753189,
        -0.09851530194282532,
        0.03171563893556595,
        -0.3012447953224182,
        0.09657703340053558,
        0.21460796892642975,
        0.11172749847173691,
        0.04163951054215431,
        0.13262322545051575,
        -0.28341978788375854,
        0.0014289439423009753,
        -0.033301640301942825,
        0.091550312936306,
        0.00879618339240551,
        0.21013344824314117,
        0.2033539116382599,
        -0.11622394621372223,
        -0.0009096298599615693,
        0.0854133814573288,
        0.046023719012737274,
        -0.0021565472707152367,
        0.19485174119472504,
        -0.1615487039089203,
        0.055118661373853683,
        -0.06484370678663254,
        0.18938761949539185,
        -0.1937246024608612,
        -0.240162655711174,
        0.16554318368434906,
        -0.10303200781345367,
        -0.08750761300325394,
        0.12706847488880157,
        0.10745149850845337,
        -0.1983800083398819,
        0.15943209826946259,
        -0.11411111801862717,
        0.0566977895796299,
        0.1661725789308548,
        -0.042551785707473755,
        0.2439219355583191,
        0.2594046890735626,
        -0.07825969159603119,
        -0.2803554832935333,
        -0.035797279328107834,
        0.15048304200172424,
        -0.11834381520748138,
        0.09157904237508774,
        0.11543139815330505,
        -0.010324746370315552,
        -0.1750282645225525,
        -0.24320973455905914,
        -0.017331834882497787,
        -0.1624186933040619,
        -0.01120010670274496,
        -0.02953505516052246,
        -0.0503842793405056,
        -0.22315874695777893,
        -0.31539252400398254,
        0.07600147277116776,
        0.34051838517189026,
        0.012753459624946117,
        0.05485740676522255,
        0.024311281740665436,
        0.1695856899023056,
        0.13953641057014465,
        0.05509623512625694,
        -0.12150300294160843,
        -0.2160526067018509,
        0.18058858811855316,
        0.003761899657547474,
        0.062397200614213943,
        0.1540042906999588,
        -0.0846605896949768,
        -0.07736850529909134,
        -0.22911012172698975,
        -0.21616555750370026,
        0.014962519519031048,
        -0.16905909776687622,
        -0.15911011397838593,
        0.029018322005867958,
        0.20832036435604095,
        0.14058969914913177,
        -0.04301588237285614,
        0.0419471450150013,
        0.06719150394201279,
        0.0052989632822573185,
        -0.015091905370354652,
        0.15771324932575226,
        -0.1869526356458664,
        0.15646889805793762,
        0.04198736324906349,
        -0.10617007315158844,
        -0.08456497639417648,
        0.03041776828467846,
        -0.18442627787590027,
        0.014189575798809528,
        -0.17724914848804474,
        -0.08369584381580353,
        -0.043223269283771515,
        0.13267309963703156,
        -0.1299399584531784,
        -0.16952785849571228,
        0.1617773026227951,
        0.14000433683395386,
        0.08098462969064713,
        -0.016848256811499596,
        -0.10710907727479935,
        -0.15715599060058594,
        -0.24107813835144043,
        0.0023755724541842937,
        0.03290829807519913,
        0.1385755091905594,
        -0.18075557053089142,
        -0.08375915884971619,
        0.046344466507434845,
        0.09015145897865295,
        0.2097352147102356,
        0.0675019919872284,
        0.2372579723596573,
        0.0602521188557148,
        0.28484344482421875,
        0.20259901881217957,
        -0.049115318804979324,
        -0.0968160331249237,
        0.17880935966968536,
        -0.08049334585666656,
        -0.038344819098711014,
        0.007101015187799931,
        0.03226600959897041,
        0.016852326691150665,
        -0.154245063662529,
        0.03336165100336075,
        0.08274044841527939,
        -0.23780600726604462,
        -0.2587817311286926,
        -0.06321776658296585,
        0.005524155218154192,
        -0.2977136969566345,
        0.15945012867450714,
        0.0030405677389353514,
        -0.02875746414065361,
        -0.028831785544753075,
        0.0104638347402215,
        -0.04904982075095177,
        0.05338781327009201,
        -0.20626705884933472,
        0.038097821176052094,
        0.11092613637447357,
        0.03178974241018295,
        0.013524997048079967,
        -0.11330558359622955,
        -0.15148290991783142,
        0.11685539782047272,
        0.06087518110871315,
        -0.2110108584165573,
        -0.13714084029197693,
        0.0735091120004654,
        -0.115381620824337,
        -0.09572318196296692,
        0.12584514915943146,
        -0.1746404469013214,
        0.033812250941991806,
        -0.12688682973384857,
        0.11153732985258102,
        -0.1256435066461563,
        0.05021324008703232,
        0.08773745596408844,
        0.27037906646728516,
        0.2615203857421875,
        -0.11131563782691956,
        0.07669942826032639,
        -0.07375847548246384,
        -0.08716309815645218,
        -0.23719178140163422,
        -0.12637023627758026,
        0.2290894240140915,
        0.04496173560619354,
        0.10380855202674866,
        0.09290072321891785,
        -0.10595667362213135,
        -0.18143446743488312,
        0.1207374781370163,
        -0.11900081485509872,
        -0.1884504109621048,
        0.06901443749666214,
        0.10216455906629562,
        0.11745777726173401,
        0.15357141196727753,
        0.06658998876810074,
        0.1393892765045166,
        0.17523792386054993,
        0.015320844016969204,
        0.21495550870895386,
        -0.08855092525482178,
        -0.03406544774770737,
        -0.03602967783808708,
        0.0643036738038063,
        0.20223915576934814,
        -0.019600821658968925,
        -0.07277888059616089,
        0.103362075984478,
        0.17857208847999573,
        0.07693128287792206,
        0.05982464551925659,
        0.25181910395622253,
        0.0024774549528956413,
        -0.24244579672813416,
        0.06997010111808777,
        -0.14658530056476593,
        -0.08549891412258148,
        -0.22768935561180115,
        -0.13024373352527618,
        -0.2396118938922882,
        -0.06200069934129715,
        0.08881931006908417,
        -0.24713794887065887,
        0.11797762662172318,
        0.13887350261211395,
        0.09183961153030396,
        0.05414772778749466,
        0.015460447408258915,
        0.07042472809553146,
        -0.11798995733261108,
        0.03062211349606514,
        0.1438473016023636,
        0.04841045290231705,
        -0.08324066549539566,
        0.07797008007764816,
        -0.0734926164150238,
        0.04365311190485954,
        0.01999482326209545,
        -0.14839909970760345,
        0.16776974499225616,
        0.19123873114585876,
        0.31913748383522034,
        -0.2974160611629486,
        -0.07858774065971375,
        0.01881357468664646,
        -0.16183722019195557,
        0.14120520651340485,
        -0.013009123504161835,
        -0.022418592125177383,
        -0.05508080869913101,
        0.20325763523578644,
        0.03646897152066231,
        -0.12057438492774963,
        -0.029867522418498993,
        0.07206866890192032,
        -0.05999366566538811,
        -0.043544549494981766,
        -0.30542510747909546,
        -0.1754223257303238,
        0.14098015427589417,
        -0.2158765345811844,
        0.07828087359666824,
        0.2001815140247345,
        -0.05966551601886749,
        -0.006048695649951696,
        -0.170314759016037,
        0.03704842925071716,
        -0.20000581443309784,
        0.06557391583919525,
        0.1613033413887024,
        -0.01562756858766079,
        -0.04286682605743408,
        0.2190452516078949,
        -0.11358611285686493,
        -0.21894486248493195,
        -0.010241985321044922,
        0.09213431179523468,
        -0.203188955783844,
        -0.14068196713924408,
        0.165938600897789,
        0.03707735985517502,
        0.04019612818956375,
        -0.15258857607841492,
        -0.013637078925967216,
        -0.27979740500450134,
        -0.14561554789543152,
        -0.08089970797300339,
        0.12498778849840164,
        0.0597335547208786,
        -0.04465334117412567,
        -0.013707813806831837,
        -0.023584213107824326,
        0.16512440145015717,
        0.10766279697418213,
        0.062314387410879135,
        0.16161185503005981,
        -0.08656113594770432,
        -0.1487158089876175,
        0.2578403055667877,
        0.17357878386974335,
        0.08307088911533356,
        -0.24423715472221375,
        -0.11549246311187744,
        -0.15915702283382416,
        -0.07208910584449768,
        -0.0445404015481472,
        -0.12368041276931763,
        -0.11162573844194412,
        0.1401957869529724,
        0.1761041134595871,
        0.13168561458587646,
        -0.1612025946378708,
        -0.3452316224575043,
        0.12232162058353424,
        -0.06140824034810066,
        -0.027613531798124313,
        -0.03703681752085686,
        0.19401924312114716,
        0.07326249033212662,
        0.05875645577907562,
        -0.20013222098350525,
        -0.15515752136707306,
        0.25811058282852173,
        0.014370780438184738,
        -0.2659919559955597,
        -0.041428472846746445,
        0.01775987632572651,
        0.1291181743144989,
        0.22595149278640747,
        0.17775140702724457,
        0.08544469624757767,
        -0.10660288482904434,
        -0.24692004919052124,
        -0.21396097540855408,
        -0.06960199773311615,
        -0.31426945328712463,
        -0.21422289311885834,
        0.1674390733242035,
        -0.045269399881362915,
        0.004001261666417122,
        -0.29276859760284424,
        0.12457802891731262,
        0.303089439868927,
        -0.10807908326387405,
        0.1358271837234497,
        -0.009335090406239033,
        0.04961970075964928,
        0.09609810262918472,
        -0.21559083461761475,
        0.02966739982366562,
        -0.06357821822166443,
        0.14764352142810822,
        0.041394367814064026,
        -0.1379762440919876,
        0.12112540006637573,
        0.035037074238061905,
        -0.04540400207042694,
        -0.16922129690647125,
        -0.04007144644856453,
        -0.13517709076404572,
        -0.03491487354040146,
        -0.11493009328842163,
        0.11842723190784454,
        0.03987564891576767,
        -0.08460154384374619,
        -0.05434926226735115,
        0.10047242790460587,
        -0.06850200891494751,
        0.12120851129293442,
        0.1954619437456131,
        0.14560015499591827,
        0.023118367418646812,
        0.00726718595251441,
        0.02298552170395851,
        0.09803794324398041,
        -0.05153384804725647,
        -0.17374111711978912,
        -0.1353549063205719,
        -0.11662772297859192,
        -0.0020651035010814667,
        -0.1562810093164444,
        0.028259778395295143,
        0.16534073650836945,
        -0.16520589590072632,
        0.2746464014053345,
        0.03786777704954147,
        0.03333405405282974,
        0.03152001276612282,
        0.17472480237483978,
        0.13122260570526123,
        0.05322343111038208,
        0.12364920228719711,
        0.31475502252578735,
        0.046379417181015015,
        0.13885070383548737,
        0.11803664267063141,
        -0.10746877640485764,
        0.060974083840847015,
        0.22191406786441803,
        0.04990623518824577,
        -0.06268545985221863,
        0.10529617220163345,
        -0.024617593735456467,
        -0.0324445441365242,
        -0.053871382027864456,
        0.06554930657148361,
        -0.05798114463686943,
        -0.03181726112961769,
        -0.14120067656040192,
        -0.08329777419567108,
        -0.07459255307912827,
        -0.20754149556159973,
        0.0570414662361145,
        0.001979347551241517,
        0.001798114157281816,
        0.14585277438163757,
        0.11577853560447693,
        0.040377650409936905,
        0.20349565148353577,
        0.1724618375301361,
        -0.07799501717090607,
        -0.07878459990024567,
        -0.12371326982975006,
        0.019145231693983078,
        -0.015207117423415184,
        0.18235018849372864,
        0.14087675511837006,
        0.15332123637199402,
        -0.2249438464641571,
        0.039747484028339386,
        -0.005143631715327501,
        0.053761884570121765,
        0.281759649515152,
        0.08118860423564911,
        0.10492061078548431,
        -0.018020935356616974,
        -0.06244916841387749,
        -0.03194994106888771,
        -0.09337648749351501,
        -0.14884862303733826,
        -0.20467257499694824,
        -0.20232746005058289,
        -0.09769941866397858,
        0.10189684480428696,
        0.23938290774822235,
        -0.058432579040527344,
        -0.2936275005340576,
        -0.09550487995147705,
        0.0015401457203552127,
        -0.14499926567077637,
        -0.05621902272105217,
        0.08271357417106628,
        -0.04304860904812813,
        -0.25679585337638855,
        -0.16311317682266235,
        -0.12454181164503098,
        -0.27633416652679443,
        -0.0395376980304718,
        0.08625341951847076,
        -0.23658455908298492,
        0.09415722638368607,
        -0.22699187695980072,
        -0.1028534322977066,
        -0.0703965276479721,
        0.16337990760803223,
        0.03787138685584068,
        0.2878347337245941,
        -0.08632785826921463,
        0.17416344583034515,
        -0.015867138281464577,
        -0.24848519265651703,
        -0.04938625544309616,
        -0.3741646409034729,
        0.260179340839386,
        0.04017062857747078,
        -0.0467362180352211,
        -0.024291975423693657,
        -0.1846921294927597,
        -0.21442432701587677,
        -0.1078784167766571,
        0.0017724649515002966,
        0.03962628170847893,
        -0.1301163136959076,
        0.01869242638349533,
        -0.010708274319767952,
        0.06728754192590714,
        -0.034285493195056915,
        -0.09049985557794571,
        0.11925669014453888,
        0.2977427840232849,
        -0.08459576219320297,
        -0.07131421566009521,
        0.12061742693185806,
        0.10978961735963821,
        0.20011907815933228,
        0.011288045905530453,
        -0.018444055691361427,
        0.020794713869690895,
        0.010933494195342064,
        -0.3001416325569153,
        0.005880445707589388,
        0.003605557605624199,
        0.045762740075588226,
        0.01915126107633114,
        -0.12785190343856812,
        -0.11678042262792587,
        -0.11151573807001114,
        -0.04317474365234375,
        -0.02601279877126217,
        0.18885228037834167,
        -0.12597499787807465,
        0.004631269723176956,
        0.0044517433270812035,
        0.16829630732536316,
        0.03721880912780762,
        -0.04315924271941185,
        0.062356673181056976,
        -0.1325131505727768,
        0.08849270641803741,
        -0.19943980872631073,
        -0.08934260159730911,
        0.1989309936761856,
        -0.036973271518945694,
        0.1356554478406906,
        0.15052081644535065,
        -0.20483286678791046,
        0.17731013894081116,
        0.08887911587953568,
        0.025931978598237038,
        -0.11241228878498077,
        -0.18659013509750366,
        0.005010026507079601,
        0.01623709127306938,
        -0.02568247728049755,
        -0.12734180688858032,
        -0.13055072724819183,
        -0.024294886738061905,
        -0.19190654158592224,
        -0.12202899903059006,
        0.011282743886113167,
        -0.08978225290775299,
        -0.09967643022537231,
        -0.1607653945684433,
        -0.16157415509223938,
        0.18461427092552185,
        0.14345091581344604,
        -0.022003013640642166,
        -0.0008035228820517659,
        0.13978742063045502,
        0.09691153466701508,
        0.10857739299535751,
        0.229130357503891,
        -0.05091008543968201,
        -0.08755309879779816,
        0.04425676912069321,
        0.10518020391464233,
        0.09588831663131714,
        -0.02922104112803936,
        -0.14504842460155487,
        0.12173977494239807,
        -0.16367359459400177,
        0.28015273809432983,
        -0.10203416645526886,
        0.08367813378572464,
        -0.0860426053404808,
        0.14524520933628082,
        -0.03303024172782898,
        0.20803147554397583,
        -0.14582909643650055,
        0.08164047449827194,
        0.047316163778305054,
        -0.17156819999217987,
        0.0014988769544288516,
        -0.02856815978884697,
        0.03859792649745941,
        -0.2790340185165405,
        0.13689348101615906,
        0.1665830910205841,
        0.04541268199682236,
        0.047688353806734085,
        0.2046283632516861,
        -0.06488155573606491,
        -0.04541986808180809,
        0.00147725036367774,
        -0.06262501329183578,
        -0.1132480800151825,
        -0.15881501138210297,
        -0.1749935746192932,
        0.13941149413585663,
        -0.09489073604345322,
        -0.02976806089282036,
        0.061825577169656754,
        -0.06498405337333679,
        -0.039172571152448654,
        -0.12552396953105927,
        -0.05310555920004845,
        0.1368483304977417,
        0.11201027035713196,
        -0.07188767939805984,
        -0.18673577904701233,
        0.01795719936490059,
        -0.2314383089542389,
        -0.11434346437454224,
        0.061460673809051514,
        0.16029570996761322,
        0.1725059300661087,
        -0.30402272939682007,
        0.06457237154245377,
        0.1084185391664505,
        -0.06773855537176132,
        0.15032991766929626,
        -0.10515329986810684,
        0.06342798471450806,
        -0.010543848387897015,
        -0.17827998101711273,
        0.005685121286660433,
        0.06105424836277962,
        0.1471680998802185,
        -0.1263478845357895,
        -0.11117267608642578,
        0.058655060827732086,
        -0.1437550038099289,
        0.15305663645267487,
        0.03746374323964119,
        -0.18516245484352112,
        0.09448223561048508,
        0.003745795926079154,
        0.22375676035881042,
        0.23026420176029205,
        -0.20975244045257568,
        0.15554670989513397,
        -0.006813955493271351,
        -0.0980348140001297,
        0.15911322832107544,
        0.04079839587211609,
        -0.16428819298744202,
        0.09122654795646667,
        0.05563371255993843,
        -0.2366047203540802,
        0.17827992141246796,
        0.10347791016101837,
        -0.004387314897030592,
        0.010096951387822628,
        -0.037191569805145264,
        -0.05932500213384628,
        -0.16533151268959045,
        -0.03892497718334198,
        -0.13261814415454865,
        -0.10300229489803314,
        -0.02889932692050934,
        0.2959601879119873,
        0.24351023137569427,
        0.1462787687778473,
        -0.03932178393006325,
        -0.14529511332511902,
        0.046114079654216766,
        -0.06987004727125168,
        -0.1890530288219452,
        0.09287752211093903,
        -0.05055883526802063,
        -0.09968110918998718,
        0.18109746277332306,
        -0.14300799369812012,
        0.1693604588508606,
        -0.0999460220336914,
        0.04915016144514084,
        0.0029517835937440395,
        -0.2939694821834564,
        -0.13120770454406738,
        0.25241029262542725,
        0.06532683968544006,
        0.012672188691794872,
        0.07600782066583633,
        0.07648609578609467,
        0.29463085532188416,
        0.08834759891033173,
        -0.1755426675081253,
        0.23043157160282135,
        0.1361810564994812,
        0.009915782138705254,
        0.03730086237192154,
        0.17539484798908234,
        0.004946690984070301,
        -0.0196073055267334,
        -0.02655530348420143,
        -0.09137807786464691,
        0.023695772513747215,
        -0.0733681321144104,
        -0.2157784402370453,
        0.2904200851917267,
        0.12644173204898834,
        -0.2596941888332367,
        -0.044774431735277176,
        0.06961806118488312,
        -0.04788634553551674,
        -0.0030861312989145517,
        0.16536802053451538,
        0.09718256443738937,
        -0.008126768283545971,
        -0.026691284030675888,
        0.1877535879611969,
        -0.059038564562797546,
        -0.04789818823337555,
        0.01537507213652134,
        -0.140231192111969,
        -0.1976000964641571,
        -0.007595603354275227,
        0.04282175377011299,
        -0.023113472387194633,
        0.01869635283946991,
        0.1413397490978241,
        -0.12645691633224487,
        -0.21191143989562988,
        0.14796599745750427,
        -0.0028572853188961744,
        0.28956589102745056,
        0.17470504343509674,
        -0.25749045610427856,
        -0.05951540917158127,
        0.22006934881210327,
        -0.08768539130687714,
        0.04225956276059151,
        -0.1457529067993164,
        0.13549615442752838,
        0.10198625177145004,
        0.06258638203144073,
        0.061146464198827744,
        0.07907363772392273,
        -0.08354862779378891,
        -0.028644291684031487,
        0.17346768081188202,
        0.11109676957130432,
        -0.1968306601047516,
        0.006897343322634697,
        0.12639939785003662,
        -0.0025002779439091682,
        -0.05845203623175621,
        0.004432999063283205,
        -0.13555623590946198,
        -0.017221171408891678,
        -0.11021266132593155,
        -0.0017155680106952786,
        -0.23839662969112396,
        0.025305623188614845,
        -0.027953295037150383,
        0.14794594049453735,
        -0.06128068268299103,
        -0.20286081731319427,
        -0.09490104764699936,
        -0.12475406378507614,
        -0.12043887376785278,
        0.06509742885828018,
        0.003273789072409272,
        -0.016101958230137825,
        0.042121514678001404,
        -0.07575008273124695,
        0.1257719099521637,
        -0.014547775499522686,
        0.07220476120710373,
        0.02403966337442398,
        -0.07618191838264465,
        0.10590910166501999,
        0.08578503131866455,
        -0.24029824137687683,
        -0.11145389825105667,
        -0.04350829869508743,
        -0.03302505239844322,
        0.04570867493748665,
        -0.02553481049835682,
        -0.14860129356384277,
        0.05272402614355087,
        -0.05243972688913345,
        0.15166965126991272,
        0.03453587368130684,
        0.21181078255176544,
        0.058505091816186905,
        -0.06705577671527863,
        -0.1383364051580429,
        0.13593530654907227,
        -0.10927996784448624,
        -0.06571513414382935,
        -0.13725198805332184,
        0.0637996718287468,
        -0.06778780370950699,
        0.06196817010641098,
        -0.24243712425231934,
        -0.1516193002462387,
        -0.16187246143817902,
        -0.019804315641522408,
        -0.07760468125343323,
        0.05884215980768204,
        0.13415154814720154,
        0.0389304980635643,
        -0.2499498426914215,
        0.2923813760280609,
        -0.10613476485013962,
        0.1169721707701683,
        0.25331467390060425,
        0.12393666803836823,
        0.15073011815547943,
        0.10411839187145233,
        -0.13246120512485504,
        -0.05379427969455719,
        -0.06798842549324036,
        -0.0445718988776207,
        0.2465280294418335,
        0.17619505524635315,
        -0.11617892235517502,
        -0.1904716193675995,
        -0.016612565144896507,
        -0.15803197026252747,
        0.11783915758132935,
        -0.06766461580991745,
        -0.04626256227493286,
        -0.06970413774251938,
        -0.2951454520225525,
        0.06589392572641373,
        -0.20926056802272797,
        -0.1356305629014969,
        0.11236391216516495,
        -0.22304628789424896,
        -0.06094168499112129,
        0.10002592206001282,
        -0.1986856609582901,
        -0.30785685777664185,
        -0.024632073938846588,
        -0.08619782328605652,
        0.021561283618211746,
        0.26903286576271057,
        -0.17173486948013306,
        0.15002819895744324,
        -0.2712886333465576,
        0.07807201147079468,
        0.12987418472766876,
        -0.052730742841959,
        0.022140907123684883,
        -0.11603406816720963,
        0.25064197182655334,
        0.17288543283939362,
        -0.0008881462854333222,
        0.0754094049334526,
        -0.12636752426624298,
        -0.12137054651975632,
        0.009513053111732006,
        0.05630611628293991,
        -0.19138707220554352,
        -0.05320071429014206,
        0.22672219574451447,
        -0.19054298102855682,
        -0.14618049561977386,
        0.0943090096116066,
        -0.1187535747885704,
        -0.051952943205833435,
        0.045102182775735855,
        -0.09385227411985397,
        0.021323952823877335,
        -0.03081871010363102,
        0.13331259787082672,
        0.040197744965553284,
        0.2747000753879547,
        0.18550418317317963,
        -0.2042965590953827,
        0.05581165850162506,
        0.18381661176681519,
        0.044143084436655045,
        -0.11193286627531052,
        0.1415812075138092,
        0.07882673293352127,
        -0.027623005211353302,
        -0.08814341574907303,
        -0.10554230958223343,
        -0.046622373163700104,
        0.05747504532337189,
        0.05157919228076935,
        0.24731501936912537,
        -0.011277373880147934,
        -0.13110296428203583,
        0.0643531084060669,
        -0.13988983631134033,
        0.09178747981786728,
        0.014206604100763798,
        0.10909724235534668,
        0.060944877564907074,
        -0.055996112525463104,
        -0.05196671560406685,
        0.057856760919094086,
        -0.1549433171749115,
        -0.08846812695264816,
        -0.048598311841487885,
        0.16009387373924255,
        0.19591210782527924,
        -0.11918704211711884,
        -0.0018469404894858599,
        -0.06879477202892303,
        0.08339140564203262,
        0.14448556303977966,
        0.039817411452531815,
        -0.03586035594344139,
        -0.03699580579996109,
        0.08812594413757324,
        -0.19765037298202515,
        0.014252668246626854,
        0.09151254594326019,
        -0.1575489342212677,
        -0.17834149301052094,
        0.1561800241470337,
        -0.008460123091936111,
        -0.08298175036907196,
        0.03629809990525246,
        -0.05045526474714279,
        0.23243285715579987,
        0.06446727365255356,
        0.13239425420761108,
        -0.06218864023685455,
        0.1440182626247406,
        -0.03295109048485756,
        -0.16800594329833984,
        0.07917661219835281,
        0.18323269486427307,
        -0.08309894055128098,
        -0.2049294114112854,
        0.1284947544336319,
        0.06664842367172241,
        -0.04569756239652634,
        0.09531305730342865,
        0.11534953117370605,
        0.12587597966194153,
        0.03857612982392311,
        0.21144387125968933,
        0.17165519297122955,
        0.20049265027046204,
        -0.0768391415476799,
        0.28659042716026306,
        0.2534279227256775,
        -0.0454937107861042,
        -0.20286692678928375,
        0.09522463381290436,
        0.05314445123076439,
        -0.19360721111297607,
        0.07608947902917862,
        0.2196854054927826,
        0.03523791581392288,
        -0.014497528783977032,
        -0.21004267036914825,
        0.02620302326977253,
        -0.1012166365981102,
        0.07821573317050934,
        -0.21039997041225433,
        0.32309144735336304,
        0.2590772211551666,
        -0.0872325524687767,
        0.15635299682617188,
        -0.0067975400015711784,
        -0.12133485078811646,
        -0.031477782875299454,
        0.04751647263765335,
        -0.0998329296708107,
        0.23215502500534058,
        -0.08105091750621796,
        -0.004789387807250023,
        -0.08061983436346054,
        -0.11809024214744568,
        0.23327131569385529,
        0.0017350759590044618,
        0.047533873468637466,
        -0.16232939064502716,
        0.09983407706022263,
        -0.15565341711044312,
        0.039935801178216934,
        0.046557050198316574,
        0.215635284781456,
        -0.0051520029082894325,
        0.057438552379608154,
        -0.21299892663955688,
        -0.12369876354932785,
        -0.10939600318670273,
        -0.20823946595191956,
        0.09938035160303116,
        0.2069724053144455,
        -0.06749240309000015,
        0.06802165508270264,
        0.11435619741678238,
        -0.08282756805419922,
        0.05734391137957573,
        0.07833562046289444,
        0.028290053829550743,
        0.01733560301363468,
        -0.09211596846580505,
        -0.1915043443441391,
        -0.1243099719285965,
        -0.10910341888666153,
        0.15231795608997345,
        0.04488145187497139,
        0.2466365545988083,
        0.0728013813495636,
        -0.14227594435214996,
        0.28653189539909363,
        -0.009752210229635239,
        -0.2916319966316223,
        -0.25473544001579285,
        -0.008560546673834324,
        -0.22106610238552094,
        0.05889258533716202,
        0.24086032807826996,
        -0.3221685290336609,
        -0.05605831742286682,
        0.070307157933712,
        0.19013862311840057,
        -0.015421157702803612,
        -0.04179739952087402,
        0.06290845572948456,
        -0.07751009613275528,
        -0.05963127315044403,
        0.12977221608161926,
        0.0031584713142365217,
        0.012497339397668839,
        0.07623472809791565,
        -0.11657046526670456,
        0.20310677587985992,
        -0.22660622000694275,
        -0.15654246509075165,
        0.09462296962738037,
        -0.10128965973854065,
        -0.008478895761072636,
        -0.07747332006692886,
        -0.10276457667350769,
        0.03132932260632515,
        0.009738682769238949,
        0.10435666888952255,
        0.07654763013124466,
        0.04116200655698776,
        0.06382443010807037,
        -0.0647793635725975,
        0.07378487288951874,
        0.10738169401884079,
        0.16491685807704926,
        -0.06338518857955933,
        0.34125804901123047,
        -0.3926076889038086,
        0.04062380641698837,
        0.002832383383065462,
        -0.2779613733291626,
        -0.13178957998752594,
        -0.015957612544298172,
        0.23293429613113403,
        -0.305801123380661,
        0.004945175256580114,
        -0.09461037814617157,
        0.08077675849199295,
        0.05004720017313957,
        -0.10130734741687775,
        0.05952051654458046,
        0.09218259900808334,
        -0.10728848725557327,
        0.19158069789409637,
        -0.15414004027843475,
        0.24954916536808014,
        -0.0371980257332325,
        0.09311103820800781,
        0.12762148678302765,
        0.19741371273994446,
        0.07720126211643219,
        0.3070240020751953,
        -0.19894570112228394,
        0.03601275384426117,
        -0.03069368377327919,
        -0.019582726061344147,
        0.06913736462593079,
        0.20765286684036255,
        0.12144771963357925,
        -0.18929298222064972,
        -0.0063384538516402245,
        0.10085473209619522,
        -0.002370609901845455,
        -0.08602076023817062,
        -0.21983514726161957,
        -0.16242994368076324,
        -0.16869787871837616,
        0.2345304936170578,
        0.11215192079544067,
        0.0500701367855072,
        0.3426540493965149,
        -0.09102093428373337,
        -0.27380865812301636,
        0.22134554386138916,
        0.05538904294371605,
        -0.010799146257340908,
        -0.13778340816497803,
        0.16817006468772888,
        -0.18883086740970612,
        -0.029765525832772255,
        0.14015249907970428,
        -0.10699978470802307,
        -0.1574728637933731,
        -0.04157043993473053,
        0.23972389101982117,
        0.07581781595945358,
        0.15987300872802734,
        -0.07101821154356003,
        -0.08123805373907089,
        -0.07479028403759003,
        0.1264287829399109,
        0.07226347178220749,
        0.12013289332389832,
        0.16402992606163025,
        -0.23714135587215424,
        -0.014050543308258057,
        -0.26644110679626465,
        -0.01866871491074562,
        0.009224477224051952,
        0.1292647123336792,
        -0.10090477019548416,
        -0.12216044217348099,
        -0.18256573379039764,
        -0.21284250915050507,
        0.026450518518686295,
        0.028349993750452995,
        0.07534393668174744,
        0.11595351994037628,
        -0.040209826081991196,
        -0.15882425010204315,
        -0.07124501466751099,
        0.1191503256559372,
        -0.0981733575463295,
        -0.2588016390800476,
        0.06104815751314163,
        0.06794697791337967,
        0.0647907555103302,
        -0.03168916702270508,
        0.1844521164894104,
        0.03764652833342552,
        -0.006023166701197624,
        -0.11511784791946411,
        0.19028055667877197,
        0.1438259482383728,
        0.013972344808280468,
        0.31107136607170105,
        0.2705090343952179,
        0.071621373295784,
        0.08346531540155411,
        -0.06066829711198807,
        -0.015225095674395561,
        -0.007417847868055105,
        -0.17660947144031525,
        0.07828126102685928,
        -0.20236776769161224,
        -0.025072038173675537,
        0.16715067625045776,
        -0.08454255759716034,
        -0.19738472998142242,
        0.17170530557632446,
        0.12250372767448425,
        0.09545405209064484,
        0.0882713571190834,
        -0.3284417390823364,
        -0.1329687535762787,
        0.15933819115161896,
        0.17896045744419098,
        0.2920083701610565,
        0.043365128338336945,
        -0.09305509924888611,
        0.12674568593502045,
        0.19975420832633972,
        0.1956353783607483,
        -0.18763014674186707,
        -0.07388143986463547,
        -0.058297861367464066,
        0.1705169677734375,
        0.15410852432250977,
        0.1946987807750702,
        0.20108352601528168,
        0.14067278802394867,
        0.1277746856212616,
        -0.05649601295590401,
        -0.1953250914812088,
        0.17118017375469208,
        0.07917813211679459,
        0.12764093279838562,
        0.08699604123830795,
        -0.15859152376651764,
        -0.19138051569461823,
        0.15580041706562042,
        0.047963451594114304,
        0.07131344825029373,
        -0.18952138721942902,
        0.1723468005657196,
        -0.059773948043584824,
        0.14157307147979736,
        0.1496841311454773,
        0.16155117750167847,
        -0.060723546892404556,
        0.02501950040459633,
        -0.05735481530427933,
        0.3085549771785736,
        -0.02146224118769169,
        -0.07002793252468109,
        0.12458521872758865,
        0.10501070320606232,
        0.06740392744541168,
        -0.09129531681537628,
        0.07481543719768524,
        -0.09073897451162338,
        0.21843324601650238,
        0.013312635943293571,
        -0.013732866384088993,
        -0.051695071160793304,
        0.03588632494211197,
        0.22084683179855347,
        -0.08492372184991837,
        -0.06807804107666016,
        0.18744194507598877,
        -0.28148552775382996,
        -0.25748249888420105,
        0.15817221999168396,
        -0.0496877059340477,
        -0.018066875636577606,
        -0.002208378864452243,
        0.03433960676193237,
        -0.14981727302074432,
        0.0994124710559845,
        -0.19737935066223145,
        0.2038104385137558,
        -0.20617558062076569,
        -0.015776947140693665,
        0.16172589361667633,
        -0.007810617797076702,
        0.03876243904232979,
        0.046438150107860565,
        0.1839669942855835,
        0.2550892233848572,
        -0.1573421061038971,
        0.005884415935724974,
        0.12352404743432999,
        -0.019874442368745804,
        0.07140606641769409,
        0.01035354845225811,
        -0.12327010184526443,
        -0.03122146800160408,
        0.031049704179167747,
        0.1549694836139679,
        -0.159593865275383,
        -0.012348663061857224,
        -0.13811469078063965,
        0.1243433952331543,
        0.07058918476104736,
        0.0360700748860836,
        -0.010221011936664581,
        0.011274173855781555,
        -0.2415488362312317,
        0.0437389574944973,
        -0.17685388028621674,
        -0.0007481947541236877,
        -0.14842505753040314,
        0.11880605667829514,
        0.22958636283874512,
        -0.30182021856307983,
        -0.2023460865020752,
        0.14852869510650635,
        -0.21765564382076263,
        0.11657688766717911,
        0.11804236471652985,
        0.23792052268981934,
        -0.19796399772167206,
        0.24870401620864868,
        0.24088603258132935,
        0.1267709881067276,
        -0.011216625571250916,
        0.0027017032261937857,
        0.0022849778179079294,
        -0.14035727083683014,
        -0.011227644048631191,
        0.09767857193946838,
        0.02894618734717369,
        0.09756576269865036,
        0.09839851409196854,
        0.06362933665513992,
        0.03763857111334801,
        0.02400205470621586,
        0.059230316430330276,
        -0.05238722264766693,
        0.1692449301481247,
        -0.18209899961948395,
        -0.24646678566932678,
        0.018602333962917328,
        -0.1316933035850525,
        0.07056067883968353,
        -0.22461789846420288,
        0.08880195766687393,
        0.06937169283628464,
        0.09808646142482758,
        0.12201344221830368,
        -0.18531176447868347,
        -0.12065619230270386,
        0.05143243819475174,
        -0.11273980885744095,
        0.02316104806959629,
        0.1062442883849144,
        -0.2784873843193054,
        -0.14816871285438538,
        0.25253352522850037,
        -0.0225327517837286,
        -0.1858745962381363,
        0.10874234884977341,
        0.1428564488887787,
        0.11966297775506973,
        -0.04455086961388588,
        0.23029102385044098,
        0.1664939969778061,
        0.03380892425775528,
        -0.12095796316862106,
        0.04330242797732353,
        0.0001819407189032063,
        -0.059670139104127884,
        0.03967995569109917,
        -0.33210721611976624,
        0.24342408776283264,
        -0.09665480256080627,
        -0.1609908491373062,
        -0.030743010342121124,
        0.07516047358512878,
        0.15160901844501495,
        0.20430414378643036,
        -0.06498930603265762,
        -0.10558967292308807,
        0.03156612440943718,
        0.2513854503631592,
        0.1668085753917694,
        0.08132851123809814,
        -0.02520284242928028,
        0.009631249122321606,
        -0.03455692529678345,
        -0.11937183886766434,
        -0.14751885831356049,
        0.19188810884952545,
        -0.008663414046168327,
        -0.01775471121072769,
        0.0933656096458435,
        0.017234044149518013,
        0.05477862432599068,
        0.021214397624135017,
        0.10807138681411743,
        0.054905038326978683,
        -0.08336687833070755,
        0.12577375769615173,
        -0.1355174332857132,
        0.12563371658325195,
        0.23798613250255585,
        -0.20161806046962738,
        0.28463155031204224,
        -0.11909109354019165,
        0.22328026592731476,
        0.2818487584590912,
        -0.011096253991127014,
        -0.2229919582605362,
        0.09591094404459,
        -0.15853023529052734,
        -0.06536043435335159,
        -0.05610859766602516,
        0.22176171839237213,
        0.1656152904033661,
        -0.07205276936292648,
        -0.15378807485103607,
        0.18147918581962585,
        -0.03802233561873436,
        0.24821864068508148,
        -0.2245372086763382,
        0.016414538025856018,
        -0.08587530255317688,
        0.21171949803829193,
        0.009969789534807205,
        -0.21089352667331696,
        -0.0483068972826004,
        -0.15623648464679718,
        -0.04382653906941414,
        0.052031293511390686,
        0.05130613595247269,
        0.2706177532672882,
        -0.05475587025284767,
        -0.09523412585258484,
        0.05125802755355835,
        0.07737045735120773,
        0.019162679091095924,
        0.04106518253684044,
        -0.011867892928421497,
        -0.05137796327471733,
        0.03798923268914223,
        -0.11430688202381134,
        -0.08881012350320816,
        0.202577143907547,
        -0.00419291527941823,
        0.06331101059913635,
        0.10344406217336655,
        0.02178744412958622,
        0.08999625593423843,
        -0.2997511625289917,
        -0.05700429528951645,
        -0.13842110335826874,
        0.021013572812080383,
        -0.11135412007570267,
        -0.07441496104001999,
        0.0956723690032959,
        0.1186002567410469,
        -0.11030901968479156,
        0.06500047445297241,
        -0.016424724832177162,
        -0.016469860449433327,
        0.04308082163333893,
        -0.10846330970525742,
        -0.01772269234061241,
        0.17713432013988495,
        -0.0601707398891449,
        -0.047180697321891785,
        0.2379983514547348,
        0.05391418933868408,
        -0.1236908957362175,
        0.028973901644349098,
        0.16796796023845673,
        -0.23391851782798767,
        -0.06746234744787216,
        0.13312691450119019,
        0.0833771824836731,
        -0.11789942532777786,
        0.20400917530059814,
        0.06610133498907089,
        -0.20567281544208527,
        0.13842438161373138,
        0.02776833064854145,
        -0.0570160411298275,
        -0.07487469166517258,
        0.0022767328191548586,
        0.05219718813896179,
        -0.1406867802143097,
        0.23856252431869507,
        -0.08338543027639389,
        -0.12425393611192703,
        0.23122364282608032,
        0.051517341285943985,
        0.11199261248111725,
        0.038786858320236206,
        0.015756865963339806,
        0.06524919718503952,
        0.044544804841279984,
        -0.1701570302248001,
        0.11584267020225525,
        -0.30269619822502136,
        -0.1709705889225006,
        -0.06877607107162476,
        -0.05281196907162666,
        -0.11796053498983383,
        0.015792299062013626,
        0.2139960378408432,
        0.1985359936952591,
        0.1410963535308838,
        -0.08867534250020981,
        -0.128798708319664,
        -0.02880791388452053,
        -0.012827255763113499,
        0.1174604594707489,
        0.09334176778793335,
        -0.10093575716018677,
        0.02169475518167019,
        -0.056384969502687454,
        0.02637186460196972,
        -0.07463075965642929,
        -0.11326533555984497,
        0.10577774792909622,
        0.0954790860414505,
        0.033333130180835724,
        -0.06261801719665527,
        -0.08131105452775955,
        0.2081603854894638,
        -0.15295255184173584,
        0.16790466010570526,
        -0.04424304515123367,
        0.14692214131355286,
        0.04415831342339516,
        -0.06413654237985611,
        0.04066627845168114,
        -0.0160544291138649,
        -0.03434934467077255,
        -0.11776106059551239,
        -0.01330395694822073,
        0.09765296429395676,
        0.16668212413787842,
        -0.20824559032917023,
        0.03956037014722824,
        0.21472446620464325,
        -0.15909075736999512,
        -0.05915762856602669,
        -0.22492246329784393,
        0.024120880290865898,
        0.041655655950307846,
        -0.1429540365934372,
        -0.08052058517932892,
        0.2508324980735779,
        0.1415553092956543,
        0.0709957554936409,
        0.16895411908626556,
        0.002350754803046584,
        -0.20009732246398926,
        0.02900713123381138,
        0.06115551292896271,
        0.12489118427038193,
        -0.17249739170074463,
        0.25975048542022705,
        -0.09671788662672043,
        0.1493854969739914,
        -0.1271575540304184,
        0.22983966767787933,
        0.19331498444080353,
        0.1073441132903099,
        0.23034444451332092,
        0.13139359652996063,
        -0.34624916315078735,
        0.1468818038702011,
        0.20802412927150726,
        0.1347799152135849,
        -0.1526392549276352,
        0.12749776244163513,
        0.029150402173399925,
        -0.1086115837097168,
        -0.1167183592915535,
        0.12433292716741562,
        -0.3108418881893158,
        0.02660796232521534,
        0.019581252709031105,
        -0.17062844336032867,
        -0.09805005043745041,
        -0.10063677281141281,
        -0.07720805704593658,
        0.007584884762763977,
        0.017259713262319565,
        0.08366809040307999,
        -0.22652001678943634,
        -0.08901839703321457,
        -0.12750005722045898,
        0.04707064852118492,
        0.032119378447532654,
        -0.14882123470306396,
        -0.05247326195240021,
        0.037723757326602936,
        0.14751166105270386,
        0.08851560205221176,
        -0.2454661875963211,
        0.25839948654174805,
        -0.03803328797221184,
        -0.031026022508740425,
        0.17847487330436707,
        -0.050892334431409836,
        -0.07365169376134872,
        -0.0784282237291336,
        -0.16037969291210175,
        0.08598629385232925,
        -0.03068435564637184,
        0.18592028319835663,
        0.00976502150297165,
        -0.14713798463344574,
        -0.35369962453842163,
        0.07993575930595398,
        -0.13600505888462067,
        0.06756356358528137,
        -0.07274233549833298,
        0.00044732759124599397,
        0.13806848227977753,
        -0.06229547783732414,
        -0.05133533850312233,
        0.08697120100259781,
        0.2264508157968521,
        0.0069398777559399605,
        -0.056596655398607254,
        0.0010803741170093417,
        -0.040457602590322495,
        -0.19428707659244537,
        0.1481105089187622,
        -0.17010512948036194,
        0.08284719288349152,
        -0.009660892188549042,
        -0.21928469836711884,
        -0.058435775339603424,
        0.011415666900575161,
        0.21189825236797333,
        0.23875847458839417,
        0.23673005402088165,
        0.06751149147748947,
        0.07437528669834137,
        0.0194455087184906,
        -0.11391449719667435,
        -0.1374836564064026,
        0.013299662619829178,
        0.08623518794775009,
        -0.13409112393856049,
        -0.15045011043548584,
        -0.08180177211761475,
        -0.08033210784196854,
        0.09927096962928772,
        0.12824183702468872,
        -0.1786065399646759,
        0.031261369585990906,
        0.22856882214546204,
        -0.0933200865983963,
        -0.33507320284843445,
        -0.04416653513908386,
        0.19815680384635925,
        -0.13834691047668457,
        -0.27227848768234253,
        0.2172795534133911,
        -0.13376237452030182,
        0.041424304246902466,
        -0.015777917578816414,
        0.0955914855003357,
        0.00287556741386652,
        -0.23116637766361237,
        0.03986833989620209,
        0.15577280521392822,
        -0.09286469966173172,
        0.0616551972925663,
        -0.03943857178092003,
        -0.11685346812009811,
        0.168111190199852,
        0.04201118275523186,
        -0.1549273133277893,
        -0.003064169781282544,
        -0.14215753972530365,
        -0.17983591556549072,
        -0.08383870124816895,
        -0.13468168675899506,
        -0.009361417032778263,
        0.04005507007241249,
        -0.361560583114624,
        -0.08018805086612701,
        -0.09946359694004059,
        -0.19778308272361755,
        -0.09581869840621948,
        0.18697623908519745,
        0.11399175226688385,
        0.0027118506841361523,
        -0.03048480674624443,
        0.08558151870965958,
        -0.0283197108656168,
        -0.06472840905189514,
        0.11333546787500381,
        0.04006316140294075,
        0.09830190986394882,
        0.09904174506664276,
        -0.17561283707618713,
        0.27345362305641174,
        -0.07864279299974442,
        0.07999616861343384,
        0.07391489297151566,
        0.1218484416604042,
        -0.0007954051252454519,
        -0.13278155028820038,
        -0.3803395926952362,
        0.21185453236103058,
        0.09381234645843506,
        -0.016737041994929314,
        -0.09217944741249084,
        -0.12214995175600052,
        -0.08390495926141739,
        -0.1156536117196083,
        -0.07749396562576294,
        0.1615648716688156,
        -0.23205696046352386,
        -0.16068236529827118,
        -0.20350755751132965,
        -0.03445965424180031,
        0.034182220697402954,
        -0.18145719170570374,
        0.1801552176475525,
        0.11974336951971054,
        -0.05833293870091438,
        -0.03356492519378662,
        0.09329614043235779,
        0.18341156840324402,
        -0.016877247020602226,
        -0.0006222542142495513,
        0.08375440537929535,
        0.09726148843765259,
        -0.1600143164396286,
        0.11522075533866882,
        -0.05215711519122124,
        -0.17533311247825623,
        -0.12921299040317535,
        0.09544974565505981,
        0.11875379830598831,
        0.13350164890289307,
        -0.08227039873600006,
        0.12494504451751709,
        0.10405554622411728,
        0.13637781143188477,
        0.04456383362412453,
        0.10680800676345825,
        -0.11059236526489258,
        0.06955752521753311,
        -0.062386833131313324,
        0.1667390763759613,
        0.11689690500497818,
        0.13807643949985504,
        0.25209474563598633,
        0.032805249094963074,
        -0.1490035355091095,
        0.025971518829464912,
        0.01803012005984783,
        -0.08612184971570969,
        -0.05681522190570831,
        0.23383177816867828,
        0.1408073753118515,
        -0.1263929158449173,
        -0.23589971661567688,
        -0.07382441312074661,
        -0.1485506147146225,
        -0.09487918764352798,
        -0.0332360714673996,
        0.00877462700009346,
        0.20757780969142914,
        -0.11180181801319122,
        0.21575330197811127,
        0.02221706509590149,
        -0.09427438676357269,
        0.0014788646949455142,
        0.027109293267130852,
        0.028114603832364082,
        -0.013062544167041779,
        -0.13308194279670715,
        0.030918864533305168,
        0.024957949295639992,
        0.1584848165512085,
        0.13235849142074585,
        0.08520513027906418,
        -0.2748938500881195,
        -0.19447724521160126,
        -0.3003225326538086,
        -0.16569900512695312,
        0.0860549807548523,
        0.1985248178243637,
        -0.14572206139564514,
        0.20167110860347748,
        0.1298244148492813,
        0.10401681065559387,
        -0.03887913003563881,
        0.03921661898493767,
        -0.20219165086746216,
        -0.1355675309896469,
        0.14513327181339264,
        0.00612804526463151,
        -0.04075469449162483,
        0.28547102212905884,
        -0.1909715086221695,
        0.04563029110431671,
        0.1029573306441307,
        0.0561487153172493,
        -0.13518071174621582,
        0.04151530563831329,
        0.23250843584537506,
        0.012062180787324905,
        -0.21277287602424622,
        0.18536625802516937,
        -0.07776882499456406,
        -0.05554191395640373,
        -0.11562563478946686,
        -0.044086210429668427,
        0.17427417635917664,
        0.08996106684207916,
        -0.04566807299852371,
        -0.10980638861656189,
        0.08227729797363281,
        -0.017647042870521545,
        -0.13980329036712646,
        0.06015222892165184,
        -0.1277279406785965,
        0.15408368408679962,
        0.17904403805732727,
        -0.04357424005866051,
        0.06186608597636223,
        0.0033041012939065695,
        0.1882561594247818,
        -0.006209875922650099,
        0.05896824225783348,
        -0.11734038591384888,
        0.10601329058408737,
        -0.025008106604218483,
        -0.12899932265281677,
        -0.11391021311283112,
        -0.1342659890651703,
        -0.39648449420928955,
        -0.06016320735216141,
        -0.2004748433828354,
        0.006270183250308037,
        0.035214073956012726,
        0.07415349036455154,
        -0.08193044364452362,
        0.07979284971952438,
        -0.18483461439609528,
        -0.29292356967926025,
        -0.11630803346633911,
        0.023705916479229927,
        -0.10260281711816788,
        -0.04654815047979355,
        0.13956855237483978,
        0.06096285209059715,
        0.0038322326727211475,
        -0.15272122621536255,
        -0.08702702075242996,
        -0.12074514478445053,
        -0.09585361182689667,
        -0.029546430334448814,
        3.112455306109041e-05,
        0.02746710181236267,
        0.1830228865146637,
        0.07926337420940399,
        0.09726165980100632,
        -0.024368124082684517,
        -0.018363988026976585,
        -0.09660448879003525,
        0.10045812278985977,
        0.04970359802246094,
        0.13080789148807526,
        0.015179296024143696,
        -0.09127569943666458,
        -0.05871954932808876,
        0.07981012016534805,
        -0.08913110941648483,
        0.12746059894561768,
        0.05579063296318054,
        0.024830659851431847,
        0.02889198251068592,
        0.1250971406698227,
        0.2139655500650406,
        8.915984653867781e-05,
        -0.03404075279831886,
        0.011077377945184708,
        0.0595289021730423,
        -0.04704837128520012,
        0.09299257397651672,
        0.025684939697384834,
        -0.20677460730075836,
        0.1320420652627945,
        0.048499979078769684,
        -0.12662477791309357,
        -0.33053284883499146,
        0.21598508954048157,
        -0.04119015857577324,
        -0.1669543832540512,
        -0.06478875130414963,
        -0.011788316071033478,
        0.01358912792056799,
        0.005003058817237616,
        0.1404792219400406,
        0.15282340347766876,
        -0.12618544697761536,
        0.09944722801446915,
        -0.02632303722202778,
        0.11890379339456558,
        -0.20480632781982422,
        0.2920513451099396,
        -0.038130514323711395,
        -0.04039199650287628,
        0.19319874048233032,
        0.051338035613298416,
        0.169260635972023,
        -0.027069631963968277,
        -0.41699767112731934,
        -0.09567990154027939,
        -0.03896928206086159,
        0.07765297591686249,
        -0.108863964676857,
        0.153199702501297,
        -0.2625087797641754,
        -0.17542602121829987,
        0.019400598481297493,
        0.16923584043979645,
        -0.004021183587610722,
        0.11244187504053116,
        0.035585831850767136,
        0.09699889272451401,
        -0.17777104675769806,
        0.1723753958940506,
        0.21119047701358795,
        -0.13188302516937256,
        -0.10096052289009094,
        -0.15360136330127716,
        0.17626453936100006,
        -0.18976901471614838,
        0.07775720208883286,
        -0.11137957125902176,
        0.026780905202031136,
        0.11422920972108841,
        -0.36083972454071045,
        0.204661026597023,
        0.11608095467090607,
        0.09079106897115707,
        -0.2623257339000702,
        -0.035096634179353714,
        0.01889379695057869,
        0.09175962209701538,
        0.1633974313735962,
        -0.012927561067044735,
        0.011513795703649521,
        0.2356339395046234,
        0.009651298634707928,
        0.05966772884130478,
        -0.003530134679749608,
        -0.15531980991363525,
        0.0012202007928863168,
        -0.06315416097640991,
        -0.058606091886758804,
        0.04679178074002266,
        -0.022158391773700714,
        0.03841252252459526,
        -0.02357122302055359,
        -0.184105783700943,
        -0.0264124795794487,
        0.17202937602996826,
        0.10696674883365631,
        0.26399415731430054,
        -0.002677293960005045,
        0.19806498289108276,
        0.031792741268873215,
        -0.0057732900604605675,
        0.035595737397670746,
        0.13925707340240479,
        0.06757573038339615,
        0.015274057164788246,
        -0.005961048882454634,
        -0.17180854082107544,
        0.060770612210035324,
        0.14956983923912048,
        -0.07406049221754074,
        0.11343235522508621,
        -0.1587250679731369,
        -0.010500907897949219,
        0.16316282749176025,
        0.1311761736869812,
        0.020963242277503014,
        -0.03548479080200195,
        -0.1244330182671547,
        -0.015923354774713516,
        -0.21675249934196472,
        0.09902244806289673,
        0.24230538308620453,
        -0.0392102412879467,
        0.1635182797908783,
        -0.06906367838382721,
        -0.15555740892887115,
        -0.11973895877599716,
        -0.12878073751926422,
        -0.1774623841047287,
        -0.27497535943984985,
        0.21510593593120575,
        0.08525876700878143,
        0.2148212343454361,
        0.22424598038196564,
        -0.20255273580551147,
        -0.08761314302682877,
        0.2378852218389511,
        0.19204893708229065,
        0.06373358517885208,
        -0.13632968068122864,
        0.03762888163328171,
        -0.2310253083705902,
        0.05791408196091652,
        -0.23643741011619568,
        0.02581288479268551,
        0.14975227415561676,
        0.00020919909002259374,
        0.14172975718975067,
        0.25029873847961426,
        -0.19066597521305084,
        0.1659482717514038,
        -0.11667726188898087,
        -0.014596771448850632,
        -0.21335384249687195,
        -0.02756275050342083,
        0.012638759799301624,
        0.019854599609971046,
        0.2660262882709503,
        -0.21585120260715485,
        -0.18802911043167114,
        -0.10355053097009659,
        -0.11915512382984161,
        0.052158255130052567,
        0.025772346183657646,
        0.17695170640945435,
        -0.19320803880691528,
        0.19318360090255737,
        -0.002062511397525668,
        0.062422893941402435,
        0.02099391259253025,
        0.10417480021715164,
        0.21171681582927704,
        -0.0782872661948204,
        -0.19703301787376404,
        0.17198684811592102,
        0.06878603249788284,
        0.053037140518426895,
        0.07639218121767044,
        0.11626467853784561,
        0.013473083265125751,
        0.11778778582811356,
        0.0802026093006134,
        -0.00651563098654151,
        -0.06998603045940399,
        -0.22459915280342102,
        -0.06976339966058731,
        0.038570042699575424,
        -0.048016324639320374,
        0.009408349171280861,
        0.07500569522380829,
        0.15827633440494537,
        0.1928543895483017,
        -0.1383172571659088,
        -0.1518511027097702,
        -0.08216065913438797,
        -0.1699623316526413,
        -0.15619397163391113,
        -0.04752757027745247,
        0.0176297165453434,
        0.11250011622905731,
        -0.17674006521701813,
        -0.30928894877433777,
        -0.07016333937644958,
        -0.0310830008238554,
        -0.02127212844789028,
        -0.004362390376627445,
        -0.11450063437223434,
        -0.02343619242310524,
        0.07378920167684555,
        -0.05347851663827896,
        0.06380642205476761,
        -0.09694734960794449,
        0.12909197807312012,
        -0.19848112761974335,
        0.04089176282286644,
        0.023243842646479607,
        0.0009235422476194799,
        0.14701423048973083,
        0.01545134000480175,
        0.06334996968507767,
        0.11765973269939423,
        -0.13525554537773132,
        0.09061969816684723,
        0.061814405024051666,
        -0.12055936455726624,
        0.2450711876153946,
        -0.06706751137971878,
        -0.007543072570115328,
        -0.01698198914527893,
        0.08552718162536621,
        0.07302279025316238,
        0.0013690455816686153,
        0.08190883696079254,
        0.06044989079236984,
        -0.1517711877822876,
        0.2652687728404999,
        0.08724307268857956,
        -0.14871840178966522,
        0.19645191729068756,
        -0.15366262197494507,
        -0.07135622948408127,
        0.05235037952661514,
        -0.3069082498550415,
        0.12934057414531708,
        0.07126154750585556,
        -0.07018192112445831,
        -0.009631848894059658,
        -0.1503593921661377,
        -0.3519529104232788,
        -0.03411852940917015,
        0.10672657936811447,
        0.08412321656942368,
        -0.07179932296276093,
        -0.12067418545484543,
        -0.21397380530834198,
        0.10616026818752289,
        0.08822133392095566,
        0.1389879733324051,
        -0.1399831771850586,
        0.10690639168024063,
        0.10910578072071075,
        -0.16502968966960907,
        -0.07030624151229858,
        -0.06180961802601814,
        0.16849727928638458,
        -0.23471078276634216,
        0.13400590419769287,
        0.03868589177727699,
        -0.06638068705797195,
        0.16000430285930634,
        0.03922223299741745,
        0.027338089421391487,
        0.0012019698042422533,
        -0.09447643160820007,
        0.06608298420906067,
        -0.05978347361087799,
        -0.3003571331501007,
        0.07393396645784378,
        -0.05946388840675354,
        0.23181363940238953,
        0.1818213015794754,
        0.14513345062732697,
        0.14926181733608246,
        0.008616053499281406,
        -0.13092222809791565,
        -0.27809229493141174,
        0.12843917310237885,
        -0.14101740717887878,
        -0.04580668732523918,
        0.3632662892341614,
        -0.21237686276435852,
        -0.00401973444968462,
        -0.07296621054410934,
        -0.061424851417541504,
        -0.12849022448062897,
        0.06040449067950249,
        -0.03285480663180351,
        0.016097208485007286,
        0.0051748561672866344,
        0.16308164596557617,
        -0.1523977518081665,
        0.06665448099374771,
        -0.13882261514663696,
        0.029173582792282104,
        0.10145169496536255,
        0.05776291713118553,
        0.05081973597407341,
        -0.12325720489025116,
        -0.057137519121170044,
        -0.004857782274484634,
        -0.015194672159850597,
        0.03818181902170181,
        0.11592839658260345,
        0.13489452004432678,
        0.16335269808769226,
        -0.08640533685684204,
        0.1155795156955719,
        0.07700575143098831,
        -0.24134987592697144,
        0.05113720893859863,
        0.08032458275556564,
        -0.026295969262719154,
        0.014705058187246323,
        0.19948053359985352,
        -0.08147884160280228,
        -0.1639537513256073,
        0.04314980283379555,
        0.04995442554354668,
        -0.1371559500694275,
        0.2567761242389679,
        -0.1538582444190979,
        -0.08349408954381943,
        -0.0814138725399971,
        -0.15108007192611694,
        0.09691205620765686,
        -0.09861984103918076,
        -0.23104405403137207,
        0.1335105150938034,
        -0.027680255472660065,
        0.177817240357399,
        0.10669522732496262,
        -0.04181617498397827,
        0.14711496233940125,
        -0.03431820124387741,
        0.03035399690270424,
        0.0798526257276535,
        -0.08405804634094238,
        0.20662595331668854,
        -0.021592674776911736,
        0.25598666071891785,
        -0.1372596174478531,
        -0.06822501868009567,
        -0.38834643363952637,
        -0.026766784489154816,
        -0.05676470696926117,
        0.3207414746284485,
        0.08838009834289551,
        -0.05291229486465454,
        0.07805740088224411,
        0.03043782152235508,
        -0.02826228365302086,
        -0.30591434240341187,
        0.12535984814167023,
        -0.046019282191991806,
        0.17226256430149078,
        -0.08525624871253967,
        -0.026700109243392944,
        -0.004112829454243183,
        -0.1559458076953888,
        0.05618488788604736,
        0.020095281302928925,
        -0.11988265812397003,
        -0.016177624464035034,
        -0.12366389483213425,
        0.010895494371652603,
        0.009440410882234573,
        0.06580552458763123,
        -0.065037302672863,
        0.06265450268983841,
        -0.036640845239162445,
        -0.13405798375606537,
        0.07551492750644684,
        0.18957248330116272,
        -0.09291207045316696,
        -0.0037254318594932556,
        0.1861322671175003,
        -0.043713681399822235,
        0.1379273235797882,
        0.0063293129205703735,
        -0.09958161413669586,
        -0.3595834970474243,
        -0.028197916224598885,
        -0.004212619736790657,
        -0.0540536604821682,
        0.10852526873350143,
        -0.15073233842849731,
        0.20733581483364105,
        0.0555952750146389,
        -0.2086920589208603,
        -0.25293245911598206,
        -0.06580273061990738,
        0.008094399236142635,
        0.1996845155954361,
        0.11206676065921783,
        0.10485988855361938,
        -0.370978444814682,
        -0.01555495336651802,
        0.04353895038366318,
        -0.15489090979099274,
        -0.031638842076063156,
        0.06512439250946045,
        0.11955633759498596,
        -0.061417657881975174,
        -0.09404796361923218,
        -0.14929769933223724,
        -0.36297786235809326,
        0.08139743655920029,
        0.19745951890945435,
        0.07216693460941315,
        0.15765465795993805,
        0.007643757853657007,
        0.18307024240493774,
        0.14016975462436676,
        0.0766168013215065,
        0.012465565465390682,
        -0.09675789624452591,
        -0.23017382621765137,
        0.04013767093420029,
        -0.06825302541255951,
        -0.1854187250137329,
        -0.314246267080307,
        -0.02219495177268982,
        -0.10968249291181564,
        0.009774517267942429,
        0.09170209616422653,
        -0.0071778371930122375,
        -0.0949031263589859,
        -0.33013153076171875,
        -0.2042050063610077,
        0.15074285864830017,
        0.056912440806627274,
        0.1923808455467224,
        0.0008098954567685723,
        -0.10579175502061844,
        0.10398254543542862,
        -0.04948345199227333,
        -0.09676904231309891,
        0.13740599155426025,
        0.10031060129404068,
        0.09386391937732697,
        0.23221148550510406,
        0.14240966737270355,
        -0.11676330864429474,
        -0.03814271092414856,
        0.10182302445173264,
        0.09402339905500412,
        -0.15092557668685913,
        -0.09475202113389969,
        -0.208705335855484,
        0.07298079133033752,
        -0.016163086518645287,
        0.04055015370249748,
        -0.15949824452400208,
        0.262421190738678,
        0.15065765380859375,
        0.1922820508480072,
        0.09349528700113297,
        -0.05235886573791504,
        0.1807408332824707,
        -0.12920314073562622,
        -0.05047459155321121,
        0.18467703461647034,
        0.16544905304908752,
        -0.14241398870944977,
        -0.0763780027627945,
        0.20673368871212006,
        0.07471996545791626,
        -0.062206897884607315,
        0.0633545070886612,
        0.06303390115499496,
        -0.12426165491342545,
        0.0022877014707773924,
        0.15454170107841492,
        -0.024205949157476425,
        -0.07744351029396057,
        0.01686786487698555,
        0.08947257697582245,
        -0.12829646468162537,
        -0.10733746737241745,
        0.13787832856178284,
        -0.08412095159292221,
        0.14194242656230927,
        -0.029763882979750633,
        -0.037351302802562714,
        0.015074547380208969,
        0.19875186681747437,
        0.16315805912017822,
        0.04244229570031166,
        0.21313750743865967,
        -0.150711789727211,
        0.02231564372777939,
        0.005024812184274197,
        -0.17936420440673828,
        0.10003255307674408,
        0.024125969037413597,
        0.0845097079873085,
        0.09616760909557343,
        -0.0494840107858181,
        -0.31242987513542175,
        0.12146782875061035,
        -0.018726542592048645,
        -0.20310184359550476,
        -0.07386554032564163,
        0.031170019879937172,
        -0.22840021550655365,
        -0.10525911301374435,
        0.01772284507751465,
        0.17774851620197296,
        -0.01803230307996273,
        -0.1008230447769165,
        0.14514660835266113,
        0.0726565420627594,
        -0.1336018145084381,
        0.023949991911649704,
        0.011018853634595871,
        0.23169009387493134,
        0.04241245612502098,
        0.08814709633588791,
        0.18663962185382843,
        0.29979994893074036,
        0.20261703431606293,
        -0.09589394181966782,
        0.002823148388415575,
        0.02709704451262951,
        0.14196671545505524,
        0.12122414261102676,
        -0.11960337311029434,
        -0.18245704472064972,
        0.2701645493507385,
        -0.09065911918878555,
        0.01941768079996109,
        -0.12259817868471146,
        0.08857511729001999,
        -0.13812561333179474,
        0.00788408238440752,
        -0.280263215303421,
        0.11289472132921219,
        0.09058877825737,
        0.16218742728233337,
        0.1706584393978119,
        -0.007538449950516224,
        0.2972053587436676,
        -0.07454080134630203,
        0.009897815063595772,
        0.22949428856372833,
        -0.057567644864320755,
        0.28798848390579224,
        0.001214350457303226,
        0.06038180738687515,
        -0.16782481968402863,
        -0.06788371503353119,
        0.1675889790058136,
        -0.11385239660739899,
        0.039070263504981995,
        0.05607447028160095,
        -0.07798422127962112,
        0.2117307335138321,
        0.0742834210395813,
        0.022342868149280548,
        0.00796023290604353,
        -0.04393526166677475,
        -0.11858115345239639,
        -0.167006716132164,
        -0.03913344442844391,
        0.07482000440359116,
        0.1352251172065735,
        -0.03529704734683037,
        0.28606829047203064,
        -0.08600732684135437,
        0.016326742246747017,
        -0.06012560799717903,
        0.16252265870571136,
        -0.13139981031417847,
        0.003929288126528263,
        -0.061616864055395126,
        -0.004790840204805136,
        0.036250658333301544,
        0.1092650517821312,
        -0.05240149050951004,
        0.2616397738456726,
        -0.13133905827999115,
        -0.06729034334421158,
        0.07287038862705231,
        -0.01825520396232605,
        -0.024642884731292725,
        0.0442134328186512,
        0.04006871581077576,
        0.15014106035232544,
        -0.14211426675319672,
        0.09261811524629593,
        -0.023126598447561264,
        -0.033611685037612915,
        -0.20721279084682465,
        -0.02955959178507328,
        0.14583933353424072,
        -0.22709742188453674,
        -0.023009417578577995,
        0.23342634737491608,
        -0.10686313360929489,
        0.09600526839494705,
        0.148606076836586,
        -0.23653174936771393,
        -0.01885632984340191,
        0.022053301334381104,
        -0.12912054359912872,
        0.03944504261016846,
        -0.18262255191802979,
        -0.0722898542881012,
        0.18014271557331085,
        0.1516062170267105,
        -0.1001521646976471,
        0.030769625678658485,
        0.24466368556022644,
        0.036157816648483276,
        -0.14313937723636627,
        0.021408410742878914,
        0.048434384167194366,
        -0.05808572471141815,
        0.09042171388864517,
        -0.11086603254079819,
        0.26237618923187256,
        -0.037639740854501724,
        0.08277138322591782,
        -0.2709503471851349,
        0.12208499759435654,
        -0.015386780723929405,
        -0.09554276615381241,
        -0.020930273458361626,
        -0.014585797674953938,
        -0.026522105559706688,
        0.10121427476406097,
        0.17194058001041412,
        -0.15971620380878448,
        0.03345036879181862,
        -0.2914389371871948,
        0.1629936248064041,
        0.08621980249881744,
        -0.048355795443058014,
        0.1299525648355484,
        0.13180027902126312,
        -0.06115557625889778,
        0.0752701684832573,
        -0.01967071369290352,
        0.19228757917881012,
        -0.1371317207813263,
        0.2355440855026245,
        0.011434672400355339,
        0.2821286916732788,
        0.11232256889343262,
        0.07795275747776031,
        -0.06153034046292305,
        0.17061291635036469,
        0.03290495648980141,
        -0.1885426640510559,
        -0.0751330554485321,
        -0.13134124875068665,
        0.05392051115632057,
        -0.062062378972768784,
        -0.18028131127357483,
        -0.02676844596862793,
        -0.21309491991996765,
        0.19123952090740204,
        -0.01324477419257164,
        0.06534101068973541,
        -0.13046780228614807,
        -0.3244737386703491,
        -0.06172436475753784,
        0.0508042611181736,
        -0.005767467897385359,
        0.1608348935842514,
        -0.026099970564246178,
        -0.14227686822414398,
        -0.14470893144607544,
        -0.0756080225110054,
        -0.19889600574970245,
        0.16527940332889557,
        -0.13143838942050934,
        -0.02214202657341957,
        0.040580760687589645,
        -0.1447695642709732,
        0.00168422341812402,
        0.12709370255470276,
        0.15855298936367035,
        0.1003284752368927,
        -0.06394394487142563,
        -0.07201702147722244,
        0.0540919154882431,
        -0.06544885039329529,
        0.15708383917808533,
        -0.2429627627134323,
        -0.1714855432510376,
        -0.004329371731728315,
        0.053914546966552734,
        -0.1913345754146576,
        -0.014872496947646141,
        0.0899057537317276,
        0.1873151659965515,
        0.14162325859069824,
        0.1540006846189499,
        0.023928320035338402,
        -0.11702078580856323,
        -0.28625741600990295,
        -0.20086652040481567,
        -0.1355130821466446,
        0.009159589186310768,
        -0.004850373603403568,
        0.07592934370040894,
        -0.10312642902135849,
        0.10597643256187439,
        -0.2036750465631485,
        0.15865544974803925,
        -0.015063456259667873,
        -0.1632666140794754,
        0.0697694644331932,
        -0.15807963907718658,
        0.1865297555923462,
        0.04191456362605095,
        -0.13407351076602936,
        0.01210746355354786,
        0.0198055412620306,
        0.04621942341327667,
        0.010350898839533329,
        -0.01812618225812912,
        -0.027789337560534477,
        0.02465922012925148,
        0.021066535264253616,
        0.11698588728904724,
        0.09770168364048004,
        -0.1938200145959854,
        0.05808332562446594,
        0.1305149793624878,
        0.14409518241882324,
        0.05733780562877655,
        -0.0007433624705299735,
        -0.09525614231824875,
        0.10793354362249374,
        -0.11459138989448547,
        0.2050980031490326,
        0.12110845744609833,
        0.02758599817752838,
        0.06249536946415901,
        0.08460305631160736,
        0.20131905376911163,
        0.04476860165596008,
        0.15037491917610168,
        -0.012181978672742844,
        0.3437574505805969,
        0.13454683125019073,
        0.12660935521125793,
        -0.3728548288345337,
        0.09296443313360214,
        -0.1284334510564804,
        0.3022235929965973,
        -0.13786175847053528,
        -0.03447159007191658,
        -0.2017454206943512,
        0.02565535344183445,
        0.085171177983284,
        0.08294428139925003,
        -0.15130610764026642,
        0.06719981133937836,
        -0.28357410430908203,
        -0.12544511258602142,
        0.0031082911882549524,
        -0.17320412397384644,
        0.07495976239442825,
        -0.014079724438488483,
        0.18430471420288086,
        0.14570851624011993,
        -0.13506712019443512,
        0.06369979679584503,
        -0.1789257824420929,
        0.0027771543245762587,
        -0.19150035083293915,
        -0.1360742300748825,
        -0.1351282149553299,
        -0.14881159365177155,
        -0.11802349239587784,
        -0.016940010711550713,
        0.11184191703796387,
        0.024683956056833267,
        -0.08495301753282547,
        0.035866159945726395,
        -0.14383597671985626,
        0.028932617977261543,
        0.07713444530963898,
        -0.1275959610939026,
        0.022336192429065704,
        0.19989728927612305,
        -0.18057720363140106,
        -0.2925589978694916,
        0.2195592224597931,
        0.05323806777596474,
        0.01996992528438568,
        0.09947666525840759,
        0.20243199169635773,
        0.24889163672924042,
        0.024096505716443062,
        -0.09989752620458603,
        -0.16285735368728638,
        -0.09508483111858368,
        -0.15445682406425476,
        0.19134141504764557,
        -0.025892727077007294,
        -0.1418972760438919,
        -0.07935602962970734,
        0.14674703776836395,
        -0.08074432611465454,
        0.17914506793022156,
        0.12289057672023773,
        -0.05457838624715805,
        -0.08043859153985977,
        -0.01641216315329075,
        -0.15108463168144226,
        -0.11149763315916061,
        -0.11466594785451889,
        0.05995651334524155,
        -0.1574665904045105,
        -0.04281042143702507,
        0.003707829862833023,
        -0.13196945190429688,
        0.08817441761493683,
        0.12239066511392593,
        -0.22680245339870453,
        -0.1712546944618225,
        -0.12164489179849625,
        -0.0394669733941555,
        -0.13628120720386505,
        0.035928890109062195,
        -0.105349101126194,
        0.09407790005207062,
        0.07428406924009323,
        -0.008534069173038006,
        0.10256876051425934,
        -0.10919463634490967,
        -0.06077328696846962,
        0.006961067672818899,
        0.14632965624332428,
        0.0075991190969944,
        0.0011491300538182259,
        0.1964968740940094,
        -0.0364932119846344,
        -0.17611631751060486,
        -0.08045603334903717,
        0.14363735914230347,
        -0.2377193719148636,
        -0.22038108110427856,
        0.028733043000102043,
        -0.14031794667243958,
        -0.15131187438964844,
        0.21737049520015717,
        -0.030137624591588974,
        -0.04193703457713127,
        0.016300879418849945,
        -0.016172917559742928,
        -0.16248445212841034,
        0.07040416449308395,
        0.03314169496297836,
        0.09221668541431427,
        -0.06641031801700592,
        0.0817842110991478,
        -0.21484729647636414,
        -0.08004190027713776,
        0.04972325265407562,
        -0.05241256579756737,
        -0.03722625970840454,
        -0.16327394545078278,
        0.009188923984766006,
        0.22501787543296814,
        -0.04455656558275223,
        -0.07525577396154404,
        0.06718263030052185,
        -0.11588793992996216,
        0.06119793280959129,
        -0.09052823483943939,
        0.18095996975898743,
        0.13926111161708832,
        -0.07473984360694885,
        -0.022261464968323708,
        -0.12707825005054474,
        0.22120939195156097,
        -0.2558387219905853,
        0.038216639310121536,
        0.1032022014260292,
        -0.173606738448143,
        0.01383789163082838,
        0.022359682247042656,
        0.036566074937582016,
        0.10414381325244904,
        -0.06825318932533264,
        -0.1505190134048462,
        0.03770911693572998,
        0.15348879992961884,
        0.11407559365034103,
        0.13656872510910034,
        0.05212338641285896,
        -0.23510442674160004,
        -0.05377655848860741,
        -0.06771986931562424,
        -0.4351974427700043,
        -0.049246419221162796,
        -0.014661013148725033,
        -0.031148642301559448,
        -0.11274995654821396,
        -0.18313592672348022,
        0.19199518859386444,
        -0.04436185210943222,
        -0.01369076780974865,
        0.07867163419723511,
        0.04180333390831947,
        -0.08996633440256119,
        -0.16626134514808655,
        -0.02755666710436344,
        0.11252307146787643,
        0.04216216877102852,
        -0.04765237867832184,
        0.012124034576117992,
        -0.13187213242053986,
        -0.19849400222301483,
        0.18236716091632843,
        -0.06956978887319565,
        -0.17458060383796692,
        0.03078394941985607,
        0.10482525080442429,
        0.2639651894569397,
        -0.07392898201942444,
        -0.12583835422992706,
        -0.0902058482170105,
        0.24680763483047485,
        0.0723390206694603,
        0.05623115971684456,
        -0.07720257341861725,
        0.05059262365102768,
        -0.07650332897901535,
        -0.2333734631538391,
        -0.033384207636117935,
        0.1603061705827713,
        0.21090558171272278,
        0.12396883964538574,
        0.20694851875305176,
        -0.2270887792110443,
        0.13491128385066986,
        -0.09587689489126205,
        -0.0514850914478302,
        0.018021706491708755,
        0.06936850398778915,
        -0.0108550526201725,
        0.07412347197532654,
        -0.1015109196305275,
        -0.24955391883850098,
        -0.1730562001466751,
        0.11634045094251633,
        -0.041742052882909775,
        -0.17366504669189453,
        -0.062038976699113846,
        0.14203430712223053,
        -0.04487301781773567,
        0.16417451202869415,
        -0.005873096641153097,
        -0.19419628381729126,
        -0.19470363855361938,
        -0.09701204299926758,
        0.09553512185811996,
        0.2482622265815735,
        -0.14112254977226257,
        -0.22682833671569824,
        0.3114151656627655,
        -0.01161189191043377,
        0.3719175457954407,
        0.10777981579303741,
        -0.02903074212372303,
        -0.056660380214452744,
        -0.16635951399803162,
        0.17595215141773224,
        0.037654854357242584,
        0.01918846182525158,
        -0.17432531714439392,
        -0.12859566509723663,
        0.1947062760591507,
        0.06568551063537598,
        0.1092655211687088,
        0.008731621317565441,
        -0.12557822465896606,
        -0.16399423778057098,
        0.004268127493560314,
        -0.11616495996713638,
        -0.02131503075361252,
        -0.20317046344280243,
        -0.07887483388185501,
        0.008170057088136673,
        -0.030286148190498352,
        -0.13154743611812592,
        0.17824594676494598,
        0.2126397043466568,
        -0.2382773607969284,
        -0.10488768666982651,
        0.09216171503067017,
        -0.042854562401771545,
        0.14032718539237976,
        -0.20297294855117798,
        -0.1527509093284607,
        -0.04137028381228447,
        0.2394910603761673,
        0.04904305934906006,
        0.07834354043006897,
        -0.12512639164924622,
        0.12036620080471039,
        0.033746834844350815,
        -0.3246721923351288,
        0.05475176125764847,
        -0.4559762179851532,
        0.05342334881424904,
        -0.12872609496116638,
        -0.07613563537597656,
        0.12660440802574158,
        -0.03834645450115204,
        -0.06284698843955994,
        -0.1324225515127182,
        0.10996805131435394,
        -0.05087606981396675,
        -0.040981121361255646,
        0.05653202906250954,
        -0.14189894497394562,
        0.02930455282330513,
        -0.08074968308210373,
        0.06785735487937927,
        0.10868801921606064,
        -0.0624234676361084,
        0.09135599434375763,
        0.09376102685928345,
        0.1625102311372757,
        0.13514672219753265,
        -0.16181477904319763,
        0.06331603974103928,
        0.04956725984811783,
        -0.06276368349790573,
        0.12304306030273438,
        -0.004173271358013153,
        0.1728978008031845,
        -0.15841524302959442,
        0.027662860229611397,
        0.15663596987724304,
        -0.20822389423847198,
        0.2564724385738373,
        0.10313549637794495,
        -0.13605985045433044,
        -0.012800253927707672,
        -0.24081262946128845,
        -0.021521486341953278,
        -0.010047376155853271,
        -0.015637151896953583,
        0.12410715222358704,
        -0.15743388235569,
        0.22145192325115204,
        -0.13472211360931396,
        0.13212184607982635,
        -0.012687595561146736,
        -0.09981518238782883,
        -0.07017573714256287,
        -0.05979776009917259,
        -0.11635469645261765,
        0.047242555767297745,
        0.1774325668811798,
        0.004845367278903723,
        0.16129159927368164,
        0.027710648253560066,
        0.27568739652633667,
        0.06284334510564804,
        0.28847503662109375,
        -0.009588290005922318,
        0.05983063206076622,
        -0.19185158610343933,
        -0.12515102326869965,
        0.1774054616689682,
        0.018944555893540382,
        -0.10680756717920303,
        -0.0028020800091326237,
        -0.023895401507616043,
        0.10627485066652298,
        -0.28291061520576477,
        -0.027767030522227287,
        -0.12131964415311813,
        0.1250753551721573,
        -0.02633494883775711,
        0.13976241648197174,
        0.10128600895404816,
        0.01964878849685192,
        -0.15443997085094452,
        -0.22015799582004547,
        -0.043262679129838943,
        -0.13343536853790283,
        0.0037884723860770464,
        0.07257961481809616,
        -0.05785080045461655,
        0.1887047439813614,
        0.06602121144533157,
        -0.005576588213443756,
        -0.014277717098593712,
        0.2804469168186188,
        -0.03957969695329666,
        -0.18960295617580414,
        -0.184269979596138,
        0.0435464046895504,
        -0.14118847250938416,
        0.18388032913208008,
        -0.016713596880435944,
        0.2146771103143692,
        0.024319306015968323,
        -0.07080777734518051,
        0.05861038714647293,
        0.04328514635562897,
        0.05976848676800728,
        0.08524086326360703,
        -0.13826604187488556,
        0.0263278279453516,
        0.19097723066806793,
        0.12309037148952484,
        0.1183958500623703,
        0.03844224661588669,
        -0.2369966357946396,
        -0.06807073950767517,
        -0.07934476435184479,
        -0.22056005895137787,
        -0.11905428767204285,
        -0.09120538085699081,
        0.21238785982131958,
        -0.2583885192871094,
        0.028572266921401024,
        0.086183100938797,
        0.005917645990848541,
        0.013541040010750294,
        -0.10166438668966293,
        -0.15173578262329102,
        -0.20703162252902985,
        0.17829331755638123,
        -0.044751740992069244,
        0.11744888871908188,
        -0.006586489733308554,
        0.3217583894729614,
        -0.09338431805372238,
        -0.07962895929813385,
        -0.10628599673509598,
        -0.015971491113305092,
        -0.19416755437850952,
        -0.16803418099880219,
        -0.2348877191543579,
        -0.1990816742181778,
        -0.02292639948427677,
        -0.009868611581623554,
        -0.06347416341304779,
        0.2462865114212036,
        0.11059926450252533,
        0.027222808450460434,
        0.18204616010189056,
        0.12056174874305725,
        -0.1885879635810852,
        0.10896169394254684,
        0.0040956116281449795,
        -0.04978844150900841,
        -0.06103790923953056,
        -0.17542655766010284,
        -0.10333217680454254,
        -0.1581643968820572,
        -0.16000184416770935,
        -0.008122862316668034,
        0.34199759364128113,
        -0.0313105508685112,
        -0.03867269307374954,
        -0.07068146765232086,
        0.022702595219016075,
        0.07849187403917313,
        0.030396288260817528,
        0.013723364099860191,
        0.0303255096077919,
        -0.03182625025510788,
        0.06802240014076233,
        -0.12734471261501312,
        0.11465417593717575,
        -0.032534465193748474,
        0.2138805091381073,
        -0.11478036642074585,
        0.24281182885169983,
        -0.07198982685804367,
        -0.049496185034513474,
        0.0535060279071331,
        -6.255379412323236e-05,
        -0.01016527134925127,
        -0.032785672694444656,
        0.1284325122833252,
        0.0691566914319992,
        0.23635071516036987,
        -0.21093766391277313,
        0.16672222316265106,
        0.10763319581747055,
        -0.05528673529624939,
        0.052761100232601166,
        -0.19685350358486176,
        -0.27374550700187683,
        -0.039300985634326935,
        0.13462629914283752,
        0.14498862624168396,
        -0.06033387780189514,
        0.07764334231615067,
        -0.16483868658542633,
        0.10298671573400497,
        0.12928259372711182,
        0.1297784447669983,
        -0.07860993593931198,
        -0.0656542032957077,
        -0.04591398686170578,
        -0.15469768643379211,
        -0.11029898375272751,
        0.09211402386426926,
        0.060832809656858444,
        0.15028993785381317,
        0.139012411236763,
        -0.08202403783798218,
        0.06470204144716263,
        -0.092867910861969,
        -0.08353148400783539,
        -0.02404249645769596,
        -0.1465243697166443,
        -0.1743895560503006,
        -0.09959836304187775,
        -0.13942033052444458,
        0.18704301118850708,
        0.2633732259273529,
        -0.15139690041542053,
        -0.01783469319343567,
        -0.09005533903837204,
        -0.09305426478385925,
        0.2472405880689621,
        -0.11119301617145538,
        0.06981229782104492,
        -0.24305714666843414,
        0.061771124601364136,
        -0.2547249495983124,
        0.029266759753227234,
        0.09372453391551971,
        0.16830265522003174,
        0.06733782589435577,
        0.002242831513285637,
        -0.054402559995651245,
        0.14912813901901245,
        0.10936366766691208,
        -0.02792217768728733,
        0.1481265276670456,
        -0.1280064880847931,
        -0.23002931475639343,
        -0.043474048376083374,
        -0.2182254046201706,
        -0.011756835505366325,
        -0.0029639732092618942,
        -0.19490203261375427,
        0.10641717165708542,
        -0.14477193355560303,
        -0.128952756524086,
        -0.21061410009860992,
        -0.31260913610458374,
        -0.2233651578426361,
        0.058343615382909775,
        -0.2778737246990204,
        0.15406689047813416,
        0.31607785820961,
        0.1470680981874466,
        0.025468358770012856,
        -0.01380864903330803,
        0.061013877391815186,
        0.06701625883579254,
        0.06301495432853699,
        -0.10417240113019943,
        0.06606561690568924,
        -0.017914561554789543,
        -0.06927495449781418,
        0.21657881140708923,
        0.03953670337796211,
        0.11049976944923401,
        -0.01715000532567501,
        -0.048427876085042953,
        0.026952387765049934,
        0.10765676200389862,
        0.017567183822393417,
        0.07463670521974564,
        -0.02120129205286503,
        -0.05352348834276199,
        0.17119871079921722,
        0.11890953034162521,
        -0.012243550270795822,
        -0.014968561008572578,
        -0.07748532295227051,
        0.2085454761981964,
        0.1595161259174347,
        -0.1209825947880745,
        -0.08113427460193634,
        0.07281756401062012,
        0.08497674018144608,
        0.08833333849906921,
        0.02822723239660263,
        -0.1780901849269867,
        0.16798532009124756,
        0.15292464196681976,
        -0.09200378507375717,
        -0.16353467106819153,
        -0.18081681430339813,
        0.023699317127466202,
        -0.05138678848743439,
        0.1457444429397583,
        -0.07109728455543518,
        -0.10479598492383957,
        -0.0010161733953282237,
        0.11855620890855789,
        0.16327615082263947,
        -0.09433995187282562,
        -0.1022544652223587,
        0.04740726575255394,
        -0.07960084080696106,
        0.04255010560154915,
        0.06989751011133194,
        -0.05839233472943306,
        -0.0374029278755188,
        0.11446284502744675,
        0.17669178545475006,
        -0.2504561245441437,
        -0.005781692918390036,
        -0.10607057809829712,
        0.11542638391256332,
        -0.01064329594373703,
        -0.0649753212928772,
        0.13291068375110626,
        0.15853744745254517,
        -0.038974374532699585,
        -0.03784308582544327,
        0.23138271272182465,
        0.03324586898088455,
        -0.09813492745161057,
        -0.13401855528354645,
        -0.19953018426895142,
        0.043215636163949966,
        -0.3328750729560852,
        -0.18091116845607758,
        0.07919365167617798,
        -0.2633454203605652,
        0.030702780932188034,
        -0.03312176093459129,
        -0.0903426855802536,
        0.1369345486164093,
        -0.15453234314918518,
        -0.14355850219726562,
        -0.11789996922016144,
        0.15524008870124817,
        0.14783591032028198,
        -0.05125240981578827,
        0.11304346472024918,
        0.055595412850379944,
        0.05998954176902771,
        -0.07698201388120651,
        0.13198234140872955,
        0.1467026323080063,
        0.15156592428684235,
        -0.039140548557043076,
        -0.0475308820605278,
        0.1530907303094864,
        -0.10584276914596558,
        0.016885953024029732,
        0.11225354671478271,
        0.06086748093366623,
        -0.13825887441635132,
        -0.06436296552419662,
        0.021523647010326385,
        -0.16045109927654266,
        -0.03919747844338417,
        -0.1505659520626068,
        -0.14313091337680817,
        0.0217610951513052,
        -0.14276699721813202,
        0.292892724275589,
        -0.009546036832034588,
        0.058921683579683304,
        -0.16219177842140198,
        0.04885872080922127,
        -0.014182019047439098,
        -0.029315942898392677,
        0.2075231522321701,
        0.22223132848739624,
        -0.09265517443418503,
        0.05254383757710457,
        0.2144521176815033,
        -0.07635169476270676,
        -0.22228392958641052,
        0.017523368820548058,
        0.26043692231178284,
        0.06899567693471909,
        -0.21349278092384338,
        -0.05652206391096115,
        0.13176369667053223,
        -0.02872607484459877,
        0.11706608533859253,
        0.0066432952880859375,
        -0.06802938878536224,
        0.06722918152809143,
        0.0058762128464877605,
        0.03277053311467171,
        0.022674240171909332,
        -0.07905557751655579,
        0.09844634681940079,
        0.2006692737340927,
        -0.03793312609195709,
        0.10612735897302628,
        -0.09032983332872391,
        0.12740477919578552,
        -0.05570898950099945,
        0.10830745100975037,
        -0.014252820052206516,
        -0.1405429244041443,
        -0.03984176367521286,
        -0.00600575702264905,
        0.08257274329662323,
        -0.16478662192821503,
        0.004549939651042223,
        0.1005747988820076,
        0.15325352549552917,
        -0.07572080194950104,
        0.07763438671827316,
        -0.3806888461112976,
        -0.021293697878718376,
        -0.0982876792550087,
        -0.22753067314624786,
        -0.20860622823238373,
        0.14215978980064392,
        -0.2848406136035919,
        0.1978805810213089,
        0.0005445413989946246,
        0.09046678990125656,
        -0.042493708431720734,
        -0.20644110441207886,
        -0.21156783401966095,
        -0.05557780712842941,
        0.2794467508792877,
        0.19927822053432465,
        -0.015729008242487907,
        0.13306456804275513,
        0.15080025792121887,
        -0.21332013607025146,
        0.10153810679912567,
        -0.06296337395906448,
        -0.017228856682777405,
        -0.13422806560993195,
        -0.27845990657806396,
        0.14269132912158966,
        -0.021418586373329163,
        0.3224094808101654,
        0.08488235622644424,
        0.007496239617466927,
        -0.09320542216300964,
        -0.1478414088487625,
        0.12662659585475922,
        -0.12645144760608673,
        -0.15308286249637604,
        -0.10272227227687836,
        -0.003417672123759985,
        -0.28486546874046326,
        -0.030430428683757782,
        0.024794762954115868,
        -0.05089014396071434,
        -0.1726769208908081,
        0.03439093008637428,
        0.27431249618530273,
        -0.1646704226732254,
        0.052113134413957596,
        -0.14148598909378052,
        -0.00841987133026123,
        0.0991443321108818,
        -0.16709725558757782,
        0.01188420969992876,
        -0.09314508736133575,
        0.1323966085910797,
        -0.18460102379322052,
        -0.04558606445789337,
        0.0568343847990036,
        -0.0808282122015953,
        -0.10215771198272705,
        -0.12562966346740723,
        -0.020304705947637558,
        -0.15958556532859802,
        -0.056313611567020416,
        -0.12435345351696014,
        0.06916392594575882,
        -0.1346728652715683,
        -0.14195577800273895,
        -0.0639614686369896,
        -0.007571586407721043,
        -0.05460742115974426,
        -0.03411738574504852,
        0.09576167911291122,
        0.005755133926868439,
        0.1623764932155609,
        0.098703533411026,
        0.1226523146033287,
        0.0036858622916042805,
        -0.24244333803653717,
        -0.0724673941731453,
        -0.04592834413051605,
        -0.0806422159075737,
        -0.11912072449922562,
        -0.25410833954811096,
        0.10865997523069382,
        -0.029593054205179214,
        -0.18962475657463074,
        0.07178175449371338,
        0.21088074147701263,
        -0.06186118349432945,
        -0.12871752679347992,
        -0.19668428599834442,
        -0.05824046581983566,
        0.08831797540187836,
        0.06922533363103867,
        0.19583459198474884,
        0.07024998962879181,
        0.016070427373051643,
        -0.18715697526931763,
        -0.04178985580801964,
        0.2531585693359375,
        0.055312152951955795,
        0.19143307209014893,
        -0.02347206324338913,
        0.14643758535385132,
        -0.07639019191265106,
        0.1680983155965805,
        0.2370288074016571,
        0.19102120399475098,
        -0.13420531153678894,
        0.09822386503219604,
        0.1708732545375824,
        -0.08244895935058594,
        -0.20309297740459442,
        0.03676736727356911,
        0.1093258410692215,
        0.08630901575088501,
        -0.13424134254455566,
        0.24237017333507538,
        0.20801302790641785,
        -0.023643121123313904,
        -0.0656723901629448,
        -0.1264449805021286,
        0.07451923191547394,
        0.13442622125148773,
        -0.03239292651414871,
        0.18053025007247925,
        0.309894859790802,
        0.08895757049322128,
        -0.16904063522815704,
        -0.020191067829728127,
        -0.005591459106653929,
        -0.1421022117137909,
        -0.1933397352695465,
        -0.08406177163124084,
        0.033278148621320724,
        -0.23832595348358154,
        0.14840427041053772,
        0.06938918679952621,
        0.14293032884597778,
        -0.019177427515387535,
        -0.19908834993839264,
        0.008683114312589169,
        0.1510506123304367,
        -0.09833098202943802,
        -0.020817099139094353,
        0.23134931921958923,
        -0.018036385998129845,
        -0.30255067348480225,
        -0.06138387694954872,
        0.18708327412605286,
        -0.2197512835264206,
        0.2188413292169571,
        0.25066864490509033,
        -0.13593675196170807,
        -0.09097564220428467,
        -0.0234531257301569,
        -0.14628323912620544,
        -0.08280767500400543,
        -0.07225719839334488,
        -0.1591399610042572,
        0.15101861953735352,
        0.13125647604465485,
        -0.06014646589756012,
        -0.09990227222442627,
        -0.1494598239660263,
        -0.05857323482632637,
        0.15327680110931396,
        -0.17847192287445068,
        0.03620314598083496,
        0.07257213443517685,
        -0.06037010997533798,
        0.09465496242046356,
        -0.02359689213335514,
        -0.06136341392993927,
        -0.1416080892086029,
        0.23786085844039917,
        -0.2804374694824219,
        0.16446276009082794,
        -0.033020928502082825,
        -0.1427430808544159,
        0.2099665254354477,
        0.032034359872341156,
        0.06113751605153084,
        -0.032172780483961105,
        0.1361887902021408,
        -0.09536989778280258,
        0.09864795953035355,
        -0.05494370684027672,
        -0.01560769323259592,
        -0.14488159120082855,
        0.1329185962677002,
        -0.041089463979005814,
        0.09356757253408432,
        -0.15417000651359558,
        -0.05392599478363991,
        -0.10379263758659363,
        -0.08837229013442993,
        -0.0641016736626625,
        -0.03762609139084816,
        0.14659734070301056,
        0.016734369099140167,
        0.03021392598748207,
        0.0005143730668351054,
        -0.09370765835046768,
        0.04062076285481453,
        0.17284099757671356,
        0.12843364477157593,
        -0.13513070344924927,
        0.06384186446666718,
        -0.15003995597362518,
        -0.3258126974105835,
        -0.015665877610445023,
        0.2559230923652649,
        0.05054505541920662,
        -0.11477147042751312,
        -0.07533638179302216,
        0.1484980583190918,
        0.22829696536064148,
        0.16597196459770203,
        0.27836117148399353,
        0.0035246540792286396,
        -0.017429133877158165,
        0.05058407410979271,
        -0.12158480286598206,
        0.2024170309305191,
        -0.09139037132263184,
        -0.1908513456583023,
        0.014801261015236378,
        0.06376577168703079,
        -0.2520732581615448,
        0.005285791587084532,
        0.10813067108392715,
        0.20743237435817719,
        0.16073694825172424,
        0.0052085560746490955,
        0.23958387970924377,
        0.05226152390241623,
        -0.02416290156543255,
        -0.17246223986148834,
        -0.12132162600755692,
        -0.08641176670789719,
        -0.1454475075006485,
        0.18393054604530334,
        -0.07804674655199051,
        0.12408892065286636,
        0.2873992919921875,
        -0.13711334764957428,
        -0.11733674257993698,
        -0.09880305081605911,
        0.0686374232172966,
        -0.024757608771324158,
        -0.010552027262747288,
        0.2273450344800949,
        0.08422842621803284,
        -0.18833351135253906,
        0.2007984071969986,
        -0.09708178788423538,
        0.13894037902355194,
        -0.062395621091127396,
        0.10183708369731903,
        0.03494628891348839,
        -0.10907027125358582,
        0.13216900825500488,
        -0.007033985108137131,
        0.048934970051050186,
        0.14093473553657532,
        0.08903323858976364,
        -0.07359384745359421,
        0.11534316092729568,
        0.1456068903207779,
        0.02492314577102661,
        -0.0577276237308979,
        -0.1038697138428688,
        0.085481658577919,
        0.13434554636478424,
        -0.12202446162700653,
        0.14561665058135986,
        -0.04683321341872215,
        0.1490880846977234,
        0.16759175062179565,
        0.02049129456281662,
        2.7976955607300624e-05,
        -0.17810937762260437,
        0.1299203634262085,
        0.1798437237739563,
        0.21244585514068604,
        0.03420306369662285,
        -0.2938234508037567,
        -0.05037197098135948,
        0.012536567635834217,
        -0.05617653205990791,
        0.21755051612854004,
        0.02884797193109989,
        0.024443229660391808,
        0.2275678962469101,
        0.029405348002910614,
        -0.11015352606773376,
        0.010231800377368927,
        0.03749028965830803,
        0.004464474972337484,
        0.13480938971042633,
        0.07332557439804077,
        -0.14971715211868286,
        -0.17256417870521545,
        0.031249096617102623,
        -0.00010097878839587793,
        0.10140552371740341,
        0.20979879796504974,
        -0.050488319247961044,
        -0.10181309282779694,
        -0.10212334245443344,
        0.2731577455997467,
        -0.18337324261665344,
        -0.04358156770467758,
        0.07013434171676636,
        -0.27369922399520874,
        -0.033153172582387924,
        -0.15797370672225952,
        0.19191715121269226,
        -0.15015755593776703,
        0.047726765275001526,
        0.04855829477310181,
        0.14885708689689636,
        0.31317171454429626,
        -0.09537577629089355,
        -0.04230133444070816,
        0.050622038543224335,
        0.14415615797042847,
        0.046449221670627594,
        -0.0916256234049797,
        -0.05023035779595375,
        0.11625397205352783,
        -0.16171680390834808,
        0.1118834912776947,
        -0.14314089715480804,
        -0.051226940006017685,
        0.03319809213280678,
        -0.0542399138212204,
        0.14535489678382874,
        0.1991540640592575,
        0.029296040534973145,
        -0.08073510229587555,
        -0.1852473020553589,
        -0.05046823248267174,
        -0.15753285586833954,
        -0.08679649233818054,
        0.1721358597278595,
        -0.3514517843723297,
        -0.08352509886026382,
        -0.06242915615439415,
        -0.1348026543855667,
        0.017786411568522453,
        -0.3929426074028015,
        0.17971724271774292,
        -0.08317897468805313,
        0.07760296761989594,
        -0.052141737192869186,
        0.024585822597146034,
        -0.003675545332953334,
        -0.07895086705684662,
        0.2192559391260147,
        0.2764892280101776,
        -0.20079684257507324,
        0.05234115943312645,
        0.10574566572904587,
        0.022126521915197372,
        -0.026482023298740387,
        0.0789804607629776,
        -0.008214171975851059,
        -0.11201082915067673,
        0.05109713599085808,
        0.2526048421859741,
        0.0041655609384179115,
        0.3090844452381134,
        0.1768294721841812,
        -0.17787288129329681,
        0.22941161692142487,
        0.04654060676693916,
        0.09072602540254593,
        0.14704835414886475,
        -0.11281212419271469,
        -0.03291119635105133,
        0.1323184072971344,
        -0.06736394017934799,
        0.02771904692053795,
        -0.2058391571044922,
        0.09605278819799423,
        -0.09862034767866135,
        -0.034894607961177826,
        0.21794988214969635,
        -0.016831696033477783,
        -0.14393402636051178,
        -0.0887259989976883,
        -0.09177235513925552,
        0.03517990931868553,
        -0.037311285734176636,
        0.19799862802028656,
        0.14087530970573425,
        -0.039134714752435684,
        0.14067594707012177,
        0.06823335587978363,
        -0.16877683997154236,
        0.01847810298204422,
        0.06182382255792618,
        -0.018661368638277054,
        0.058002226054668427,
        -0.015605948865413666,
        0.15147104859352112,
        0.010161951184272766,
        -0.055673256516456604,
        0.13112013041973114,
        -0.08673236519098282,
        -0.051776908338069916,
        0.04384360834956169,
        -0.04737279936671257,
        0.14071360230445862,
        0.15802447497844696,
        0.07419655472040176,
        -0.05740894749760628,
        0.029100656509399414,
        -0.03927645832300186,
        -0.17390309274196625,
        -0.15037395060062408,
        0.17420125007629395,
        -0.1681981384754181,
        -0.2010471522808075,
        2.2740030544809997e-05,
        -0.017631592229008675,
        0.02069331705570221,
        0.09607116878032684,
        -0.1754307746887207,
        0.18822431564331055,
        -0.18828964233398438,
        0.2743934988975525,
        -0.2268996685743332,
        0.20167066156864166,
        0.14295361936092377,
        -0.09800772368907928,
        -0.0019748301710933447,
        -0.07510169595479965,
        -0.1521928906440735,
        -0.1428784877061844,
        -0.07625596225261688,
        0.21942128241062164,
        -0.030678408220410347,
        -0.2632518410682678,
        0.045287176966667175,
        0.08976124972105026,
        -0.12283603847026825,
        0.23370642960071564,
        -0.08387520164251328,
        0.11907727271318436,
        0.05996299907565117,
        -0.16533392667770386,
        -0.0651167556643486,
        0.13574005663394928,
        -0.1150660365819931,
        0.003267979482188821,
        -0.09898260980844498,
        0.22171702980995178,
        0.026242375373840332,
        -0.001504396670497954,
        0.02142774872481823,
        0.29786238074302673,
        0.17268876731395721,
        0.22035841643810272,
        0.060261547565460205,
        0.1331501007080078,
        -0.058519478887319565,
        0.0019114571623504162,
        -0.0809803381562233,
        -0.2147732377052307,
        0.08227213472127914,
        0.14223246276378632,
        0.1160648912191391,
        -0.02507687173783779,
        -0.18006670475006104,
        -0.1304570436477661,
        -0.03224210441112518,
        -0.3380419909954071,
        -0.14635449647903442,
        -0.007719497662037611,
        0.05902262032032013,
        0.17294399440288544,
        0.28196027874946594,
        0.08151330053806305,
        0.151962548494339,
        -0.3448128402233124,
        0.22855430841445923,
        -0.08120405673980713,
        -0.11946795880794525,
        -0.07674353569746017,
        -0.04849070683121681,
        -0.04509720951318741,
        -0.06666246056556702,
        0.21523605287075043,
        0.0034283960703760386,
        -0.14562882483005524,
        0.0402839332818985,
        0.021101638674736023,
        -0.38933300971984863,
        -0.14074358344078064,
        0.0971028059720993,
        0.07557520270347595,
        -0.11133328080177307,
        0.08127283304929733,
        -0.20438922941684723,
        -0.002450166968628764,
        0.07080499082803726,
        0.22472073137760162,
        0.08598148077726364,
        0.09164698421955109,
        0.18976916372776031,
        0.10724970698356628,
        -0.04903155192732811,
        -0.3657696843147278,
        -0.056335240602493286,
        0.1138632744550705,
        0.09621407091617584,
        -0.010058862157166004,
        0.062220942229032516,
        0.18863555788993835,
        -0.06872048228979111,
        0.1496697962284088,
        0.09390231966972351,
        0.0037803801242262125,
        -0.08841578662395477,
        -0.10449964553117752,
        0.11502741277217865,
        0.09418229013681412,
        0.01689830608665943,
        -0.0044206976890563965,
        0.08361867070198059,
        0.12444064021110535,
        -0.052848514169454575,
        0.17415659129619598,
        0.17817309498786926,
        0.06936854869127274,
        -0.08664889633655548,
        0.025657331570982933,
        -0.13936498761177063,
        -0.040800824761390686,
        -0.24356603622436523,
        -0.018543556332588196,
        -0.03881586343050003,
        0.07418787479400635,
        -0.14822795987129211,
        0.017236797139048576,
        0.0766744539141655,
        -0.04446202516555786,
        0.10210693627595901,
        0.20539945363998413,
        -0.16358798742294312,
        0.2269674837589264,
        0.03291528671979904,
        -0.21404965221881866,
        -0.19716483354568481,
        0.18201462924480438,
        0.08239907026290894,
        -0.07843450456857681,
        -0.09467741847038269,
        -0.11468922346830368,
        -0.0323001891374588,
        0.21589496731758118,
        0.014496378600597382,
        -0.005352342501282692,
        -0.11701671779155731,
        0.12609952688217163,
        -0.04467276111245155,
        -0.1570805013179779,
        -0.03661442920565605,
        0.2234043926000595,
        0.22334395349025726,
        0.18007226288318634,
        0.09495741128921509,
        -0.143625870347023,
        -0.24937786161899567,
        -0.18512216210365295,
        -0.0395221970975399,
        -0.3232715129852295,
        0.20243147015571594,
        -0.0005295302253216505,
        0.18833035230636597,
        -0.11572691053152084,
        0.2527216672897339,
        -0.04045112431049347,
        -0.08183186501264572,
        0.12085019052028656,
        -0.07492488622665405,
        -0.01295471377670765,
        0.2488112598657608,
        -0.2429111897945404,
        -0.1449349969625473,
        0.23944738507270813,
        -0.23280544579029083,
        -0.06190584972500801,
        0.0953008383512497,
        0.25435009598731995,
        -0.01404927670955658,
        -0.03586025536060333,
        -0.031191067770123482,
        0.20002546906471252,
        0.1309511512517929,
        0.08758493512868881,
        0.025198252871632576,
        -0.03208807855844498,
        0.02286369912326336,
        -0.00867634266614914,
        -0.17951107025146484,
        -0.04134383052587509,
        0.15904687345027924,
        0.13304568827152252,
        0.10093433409929276,
        -0.07408497482538223,
        0.09211410582065582,
        0.09639431536197662,
        0.09118181467056274,
        0.038185130804777145,
        -0.07610385864973068,
        -0.1940567046403885,
        0.07303548604249954,
        0.1670628935098648,
        0.14922931790351868,
        -0.1817721426486969,
        0.09479649364948273,
        -0.16372160613536835,
        0.029475489631295204,
        0.006501057650893927,
        -0.00931964535266161,
        0.17215180397033691,
        -0.12277939170598984,
        0.09410146623849869,
        -0.1322886198759079,
        0.07855392247438431,
        -0.14807789027690887,
        -0.005475235171616077,
        0.013017506338655949,
        -0.04505977779626846,
        -0.13954226672649384,
        -0.3309999108314514,
        0.1530170440673828,
        0.07049006223678589,
        -0.33936500549316406,
        -0.004542273934930563,
        0.05119628086686134,
        0.1160634458065033,
        0.011695397086441517,
        -0.2419322431087494,
        -0.22594203054904938,
        0.21530506014823914,
        0.25367456674575806,
        0.24774490296840668,
        0.03849876672029495,
        0.04568586125969887,
        0.002597925253212452,
        0.029073093086481094,
        -0.022929541766643524,
        -0.11805027723312378,
        0.058376744389534,
        0.11296380311250687,
        -0.046472176909446716,
        -0.04175414890050888,
        -0.25394943356513977,
        0.03773840144276619,
        0.0017773290164768696,
        0.06870459020137787,
        -0.15846452116966248,
        -0.025635110214352608,
        -0.20078004896640778,
        0.0725935697555542,
        -0.09451232105493546,
        -0.2299535721540451,
        0.16523845493793488,
        0.11927337944507599,
        -0.04284686595201492,
        -0.12703566253185272,
        0.06527058780193329,
        -0.11250291019678116,
        -0.16729393601417542,
        0.06703256815671921,
        0.18766264617443085,
        0.007833372801542282,
        0.08948934823274612,
        -0.1750190407037735,
        0.18425241112709045,
        -0.14401434361934662,
        -0.017376545816659927,
        0.17274890840053558,
        -0.004495993256568909,
        0.06440284103155136,
        -0.16701409220695496,
        0.19933044910430908,
        -0.14146004617214203,
        -0.11086202412843704,
        -0.19071461260318756,
        0.19260439276695251,
        0.050727520138025284,
        -0.16375359892845154,
        -0.03536811098456383,
        -0.09974949061870575,
        0.11314167827367783,
        -0.17178304493427277,
        -0.23469527065753937,
        0.14197178184986115,
        0.04577269032597542,
        0.005857875104993582,
        0.14881959557533264,
        0.026623930782079697,
        0.08984839916229248,
        -0.07136726379394531,
        -0.07465662062168121,
        0.08867453038692474,
        0.016016142442822456,
        -0.20522931218147278,
        -0.09899502247571945,
        -0.0444612056016922,
        -0.10182470828294754,
        -0.020983776077628136,
        -0.10777189582586288,
        -0.1378915011882782,
        0.07942607253789902,
        0.18947142362594604,
        0.19617636501789093,
        0.057718675583601,
        0.13037803769111633,
        0.17394129931926727,
        -0.1265975683927536,
        -0.0772893950343132,
        0.12529075145721436,
        -0.13002805411815643,
        -0.09517975151538849,
        -0.20892390608787537,
        0.12374130636453629,
        0.1245790347456932,
        0.1068827211856842,
        -0.0014562641736119986,
        0.1546226143836975,
        0.047338832169771194,
        -0.07558241486549377,
        -0.05157298967242241,
        -0.17318759858608246,
        0.03029659390449524,
        -0.11471639573574066,
        -0.12273120880126953,
        -0.024307429790496826,
        0.018857382237911224,
        -0.058082230389118195,
        0.01523547898977995,
        0.25269463658332825,
        0.1683308482170105,
        -0.06910409778356552,
        0.06365828961133957,
        -0.054685723036527634,
        -0.025797570124268532,
        0.022241845726966858,
        0.08966846764087677,
        0.03591214492917061,
        -0.0712280198931694,
        0.23331953585147858,
        -0.1755685657262802,
        -0.0021317158825695515,
        -0.09174339473247528,
        -0.1932157576084137,
        0.06505725532770157,
        0.05171439051628113,
        0.058007799088954926,
        0.09398888796567917,
        -0.15802310407161713,
        0.02893085591495037,
        0.018153255805373192,
        -0.035249289125204086,
        -0.09711534529924393,
        -0.11009521782398224,
        0.036591075360774994,
        -0.1447141021490097,
        0.032106854021549225,
        0.06927315890789032,
        -0.12369842827320099,
        0.22357460856437683,
        -0.08723609149456024,
        0.028076687827706337,
        0.12711144983768463,
        0.03677920252084732,
        -0.1405617892742157,
        0.08567332476377487,
        -0.04009797051548958,
        0.062297165393829346,
        0.09479299187660217,
        0.11340569704771042,
        0.22835926711559296,
        0.19595804810523987,
        -0.31108006834983826,
        0.16149495542049408,
        -0.03299834206700325,
        -0.013712760992348194,
        -0.1820002645254135,
        -0.043640200048685074,
        -0.06136957183480263,
        0.07278579473495483,
        -0.04195895791053772,
        -0.07510203868150711,
        -0.1453017145395279,
        0.012994459830224514,
        0.025286339223384857,
        0.09235769510269165,
        0.060540854930877686,
        -0.05793377012014389,
        0.10159751772880554,
        -0.11879898607730865,
        -0.2504138648509979,
        -0.11932217329740524,
        -0.1129685491323471,
        0.21579207479953766,
        0.26043838262557983,
        -0.3641582727432251,
        0.12215345352888107,
        0.13498353958129883,
        0.12468472123146057,
        0.018103040754795074,
        -0.09208875894546509,
        -0.06245078891515732,
        -0.04102253541350365,
        -0.16995170712471008,
        0.05066768825054169,
        -0.10368604212999344,
        0.039341945201158524,
        -0.14285936951637268,
        0.13082163035869598,
        0.0672740563750267,
        -0.2799528241157532,
        -0.040427397936582565,
        -0.1287769079208374,
        0.042866677045822144,
        0.0025862068869173527,
        -0.15888458490371704,
        0.048866841942071915,
        -0.18336103856563568,
        -0.013336415402591228,
        0.03694625198841095,
        -0.06370439380407333,
        -0.0012406299356371164,
        0.26812440156936646,
        0.040361691266298294,
        0.14488470554351807,
        0.026500631123781204,
        0.21238143742084503,
        -0.11622454226016998,
        -0.06963479518890381,
        -0.11777765303850174,
        0.2359267622232437,
        -0.0017370997229591012,
        0.12642772495746613,
        -0.015180961228907108,
        -0.11466842144727707,
        -0.05563604086637497,
        0.30483487248420715,
        0.09819545596837997,
        0.05235135182738304,
        -0.10269465297460556,
        -0.3003500998020172,
        -0.2531641721725464,
        -0.04957044869661331,
        0.02567998506128788,
        -0.05499706044793129,
        -0.08813627064228058,
        -0.2332097440958023,
        -0.16930094361305237,
        0.060912732034921646,
        0.11716234683990479,
        -0.08647755533456802,
        -0.09972061216831207,
        0.020107930526137352,
        0.2477826327085495,
        -0.1689731627702713,
        -0.016452986747026443,
        0.019019393250346184,
        -0.029065314680337906,
        0.11245821416378021,
        -0.3027593493461609,
        0.10190925747156143,
        -0.18111950159072876,
        -0.028218509629368782,
        -0.12145813554525375,
        -0.16196012496948242,
        -0.0177775826305151,
        -0.22650109231472015,
        -0.11731194704771042,
        0.2428673356771469,
        -0.0033636968582868576,
        -0.2583619952201843,
        0.12353485822677612,
        -0.21886764466762543,
        -0.08998989313840866,
        0.03757292032241821,
        0.11799215525388718,
        0.06767392158508301,
        0.14391298592090607,
        0.0017752088606357574,
        0.13493914902210236,
        -0.06040783226490021,
        -0.03195805102586746,
        0.1958165019750595,
        -0.17989836633205414,
        -0.10344165563583374,
        0.003849873784929514,
        -0.32421526312828064,
        -0.24021556973457336,
        -0.033042483031749725,
        0.011012088507413864,
        -0.2557108700275421,
        0.013915865682065487,
        -0.2091294378042221,
        -0.17555339634418488,
        0.06391697376966476,
        -0.011596898548305035,
        -0.1314767599105835,
        0.07877019047737122,
        0.06658650934696198,
        0.06432250142097473,
        -0.11833338439464569,
        0.03610171377658844,
        -0.006335852202028036,
        0.11010973155498505,
        0.26021116971969604,
        0.02784935012459755,
        0.07000445574522018,
        0.19894973933696747,
        -0.23299497365951538,
        -0.15532654523849487,
        -0.1660747528076172,
        0.004765277728438377,
        -0.04157029092311859,
        -0.0416027307510376,
        0.25748494267463684,
        -0.05726855993270874,
        0.15262235701084137,
        0.01972178742289543,
        0.127679243683815,
        0.13395380973815918,
        0.04749629274010658,
        -0.021156901493668556,
        -0.05652148276567459,
        0.18226973712444305,
        -0.08142658323049545,
        0.03139592334628105,
        0.2452356368303299,
        0.13046668469905853,
        -0.19541068375110626,
        -0.040021784603595734,
        0.20048946142196655,
        -0.02394520863890648,
        0.1106850802898407,
        -0.04994170367717743,
        0.023614322766661644,
        0.034961599856615067,
        0.12326875329017639,
        -0.21234877407550812,
        -0.026088660582900047,
        0.050319429486989975,
        -0.04332409426569939,
        -0.02877494879066944,
        -0.030086833983659744,
        0.20044463872909546,
        0.2936725914478302,
        -0.08473874628543854,
        0.13659930229187012,
        0.13120387494564056,
        -0.02189328707754612,
        -0.06327136605978012,
        0.18075373768806458,
        0.15768224000930786,
        -0.08007045090198517,
        -0.1007089614868164,
        -0.10486511141061783,
        0.10108739882707596,
        -0.17900784313678741,
        -0.04863746091723442,
        0.14619874954223633,
        -0.0741923525929451,
        0.01345884706825018,
        0.14372673630714417,
        0.0901789516210556,
        0.0037889359518885612,
        0.1924605518579483,
        0.03921588137745857,
        0.08245263993740082,
        -0.1924382746219635,
        0.09665138274431229,
        0.04468237981200218,
        -0.05267486348748207,
        0.12704189121723175,
        -0.0490473210811615,
        -0.12481709569692612,
        -0.010620907880365849,
        0.252810537815094,
        0.14350323379039764,
        0.060134392231702805,
        -0.1326051503419876,
        0.12756101787090302,
        -0.12344485521316528,
        0.19000406563282013,
        -0.0002476622466929257,
        -0.16352446377277374,
        0.1622261106967926,
        0.05530043691396713,
        0.06517107784748077,
        0.013603601604700089,
        0.0415278822183609,
        -0.22088336944580078,
        0.005813735071569681,
        -0.06304914504289627,
        0.014775772579014301,
        0.14935973286628723,
        -0.018778441473841667,
        0.050034768879413605,
        0.07640977203845978,
        -0.22098492085933685,
        0.04283475503325462,
        -0.14901912212371826,
        0.08676101267337799,
        -0.2590870261192322,
        0.12338608503341675,
        -0.18654094636440277,
        -0.026818018406629562,
        0.019453397020697594,
        -0.07620003819465637,
        0.4266701340675354,
        -0.0014344417722895741,
        0.1189449355006218,
        0.08158134669065475,
        -0.04867454245686531,
        0.35266101360321045,
        -0.09412320703268051,
        0.08944741636514664,
        0.10187405347824097,
        -0.2519035339355469,
        0.15403087437152863,
        -0.020869851112365723,
        0.03738763928413391,
        -0.18532070517539978,
        -0.15013331174850464,
        -0.035812776535749435,
        0.218012273311615,
        0.19916433095932007,
        0.15509773790836334,
        0.12053003907203674,
        -0.06882420182228088,
        0.08232167363166809,
        0.0649719089269638,
        -0.04728836566209793,
        0.24188122153282166,
        -0.11864485591650009,
        0.09536027908325195,
        -0.131654292345047,
        0.031991492956876755,
        0.18692751228809357,
        0.07231815159320831,
        0.08462400734424591,
        0.04228287562727928,
        -0.019666343927383423,
        -0.19619140028953552,
        0.1476871520280838,
        0.23591288924217224,
        0.3111947476863861,
        0.1664656698703766,
        -0.14683865010738373,
        0.10831232368946075,
        0.019514990970492363,
        -0.005969857331365347,
        -0.04961904510855675,
        -0.13403230905532837,
        0.061968136578798294,
        -0.08939202129840851,
        0.037137117236852646,
        -0.13874933123588562,
        -0.12368965893983841,
        0.18614701926708221,
        -0.16022776067256927,
        0.07330291718244553,
        0.1374782770872116,
        -0.0025734915398061275,
        -0.11464269459247589,
        -0.07047484815120697,
        -0.1933809518814087,
        -0.2631053328514099,
        0.052098195999860764,
        -0.045839425176382065,
        0.10823196917772293,
        -0.039328161627054214,
        0.1448458731174469,
        -0.13170090317726135,
        0.08524928241968155,
        -0.10856713354587555,
        -0.2170637995004654,
        0.27372050285339355,
        0.028886280953884125,
        0.01556348241865635,
        0.059687815606594086,
        0.0018938026623800397,
        -0.09638240188360214,
        -0.08868172764778137,
        0.20867334306240082,
        -0.2676692605018616,
        0.16783805191516876,
        -0.06041175499558449,
        -0.1515260934829712,
        -0.3423008918762207,
        -0.12457705289125443,
        -0.07137176394462585,
        -0.17447789013385773,
        0.14716866612434387,
        -0.054133690893650055,
        0.16720832884311676,
        0.14568133652210236,
        -0.04763425141572952,
        0.007184465881437063,
        0.18662525713443756,
        0.1034911647439003,
        -0.07591921091079712,
        -0.08061140030622482,
        0.2858640253543854,
        0.13513481616973877,
        0.04066600650548935,
        0.15307961404323578,
        -0.17580391466617584,
        0.193507120013237,
        -0.17172758281230927,
        0.09045697748661041,
        -0.09124142676591873,
        0.14500486850738525,
        0.11687096953392029,
        -0.03854744881391525,
        0.03784308582544327,
        -0.09715516120195389,
        -0.1770339012145996,
        0.10731472074985504,
        0.13881343603134155,
        0.04779185727238655,
        0.10199691355228424,
        -0.17383769154548645,
        -0.16457244753837585,
        -0.08176204562187195,
        0.15996474027633667,
        0.09492212533950806,
        -0.20915117859840393,
        0.22759944200515747,
        -0.17372682690620422,
        0.1299474984407425,
        -0.10173608362674713,
        -0.11632999032735825,
        0.14982785284519196,
        -0.13711509108543396,
        0.11064092069864273,
        -0.17184413969516754,
        0.1280817985534668,
        0.11182380467653275,
        -0.1807544231414795,
        -0.08615566790103912,
        0.16454049944877625,
        0.12461826205253601,
        0.14764682948589325,
        -0.20393352210521698,
        0.12160228937864304,
        0.21336600184440613,
        -0.10466058552265167,
        0.21577252447605133,
        0.1022505983710289,
        -0.08429759740829468,
        -0.05798054113984108,
        0.007177394814789295,
        -0.27124911546707153,
        0.10869904607534409,
        0.05820257589221001,
        0.0317065455019474,
        0.1336452066898346,
        -0.13027724623680115,
        -0.07777734100818634,
        0.08479490131139755,
        0.20723752677440643,
        -0.25409144163131714,
        0.12947212159633636,
        -0.052304863929748535,
        0.11136269569396973,
        -0.07094446569681168,
        0.04743218421936035,
        0.05208463966846466,
        -0.07343482971191406,
        0.34516847133636475,
        -0.28983238339424133,
        0.0702563151717186,
        0.07160699367523193,
        0.13025838136672974,
        -0.15673373639583588,
        0.25192180275917053,
        0.28733596205711365,
        0.027928384020924568,
        -0.0008724043727852404,
        0.13435722887516022,
        -0.13924644887447357,
        0.008853975683450699,
        0.013283909298479557,
        -0.16258889436721802,
        0.12723536789417267,
        0.009787551127374172,
        -0.2660776972770691,
        0.046007316559553146,
        0.03280815854668617,
        -0.16256707906723022,
        0.10982300341129303,
        0.14675112068653107,
        0.14652517437934875,
        -0.13644516468048096,
        -0.02946084924042225,
        0.21313321590423584,
        -0.11371930688619614,
        -0.0593368336558342,
        -0.17798840999603271,
        0.06479860097169876,
        -0.06658938527107239,
        0.07657819241285324,
        -0.07476386427879333,
        -0.02301204390823841,
        0.22755573689937592,
        0.14426173269748688,
        0.07387367635965347,
        -0.14067824184894562,
        -0.024525297805666924,
        -0.16581690311431885,
        0.10103640705347061,
        0.23514528572559357,
        -0.03657691553235054,
        0.20618680119514465,
        -0.20921245217323303,
        -0.040750376880168915,
        0.038129258900880814,
        -0.156264990568161,
        0.08428177982568741,
        -0.19424156844615936,
        -0.0766117125749588,
        0.12375322729349136,
        0.0702388808131218,
        0.15185114741325378,
        -0.1415838599205017,
        -0.07636460661888123,
        -0.030927274376153946,
        -0.06555909663438797,
        0.145854651927948,
        0.0789644792675972,
        0.11153268814086914,
        -0.25083863735198975,
        0.11754642426967621,
        0.041397370398044586,
        0.06716228276491165,
        0.12546205520629883,
        0.02743380144238472,
        -0.09286990016698837,
        -0.321547269821167,
        -0.09317637234926224,
        -0.046063344925642014,
        -0.09576571732759476,
        0.3503543436527252,
        -0.023815779015421867,
        -0.14420826733112335,
        -0.0214850977063179,
        0.05687829852104187,
        0.10403361171483994,
        0.16633406281471252,
        -0.13462619483470917,
        -0.00414262292906642,
        -0.14699263870716095,
        -0.06635887175798416,
        0.2799384593963623,
        -0.09418913722038269,
        -0.16193599998950958,
        -0.024151504039764404,
        0.35191166400909424,
        0.17152804136276245,
        -0.09817230701446533,
        0.14019861817359924,
        0.10747436434030533,
        0.07512030750513077,
        -0.052601441740989685,
        -0.03860832378268242,
        0.08613350242376328,
        -0.029903406277298927,
        0.12643854320049286,
        0.2132570594549179,
        0.01318393461406231,
        -0.06453274935483932,
        0.09838676452636719,
        0.003155394457280636,
        -0.3231043517589569,
        0.0031285586301237345,
        -0.15321625769138336,
        -0.12915559113025665,
        -0.10485747456550598,
        -0.08150418102741241,
        -0.22283685207366943,
        0.01733655296266079,
        0.16182242333889008,
        -0.2908439338207245,
        0.12216237187385559,
        -0.22480565309524536,
        0.20775610208511353,
        -0.1360849291086197,
        0.0564529187977314,
        -0.17889034748077393,
        -0.2196740359067917,
        -0.14568422734737396,
        -0.11673110723495483,
        0.10752872377634048,
        0.10756907612085342,
        -0.005596810486167669,
        0.11977231502532959,
        0.06426877528429031,
        0.14703767001628876,
        0.053309425711631775,
        -0.05087804049253464,
        0.1553221344947815,
        0.1320914626121521,
        -0.2724171280860901,
        -0.14304734766483307,
        0.024471957236528397,
        -0.050396744161844254,
        -0.0779661014676094,
        -0.01072521973401308,
        0.16443723440170288,
        -0.12054730951786041,
        0.11864160001277924,
        -0.22149203717708588,
        0.04847785830497742,
        -0.027365349233150482,
        0.26220765709877014,
        0.2648604214191437,
        -0.3955515921115875,
        -0.015161595307290554,
        0.15918800234794617,
        -0.14687418937683105,
        -0.1842062920331955,
        0.1373257339000702,
        -0.1722455769777298,
        0.20155340433120728,
        0.054723408073186874,
        -0.22917798161506653,
        -0.05290164053440094,
        0.03160909563302994,
        0.0016425233334302902,
        0.10735386610031128,
        -0.0519925095140934,
        -0.050757329910993576,
        0.04378371685743332,
        -0.06546885520219803,
        -0.06203988939523697,
        0.033642612397670746,
        0.05015038698911667,
        -0.14387917518615723,
        0.030026650056242943,
        -0.16645708680152893,
        -0.12477364391088486,
        0.10000564157962799,
        0.08894467353820801,
        -0.07899779826402664,
        -0.21664848923683167,
        -0.0839504525065422,
        0.12030144780874252,
        -0.044266410171985626,
        -0.11342079192399979,
        -0.03851180151104927,
        0.23164956271648407,
        -0.28550979495048523,
        0.01565794087946415,
        0.09801622480154037,
        -0.004827612545341253,
        -0.14494775235652924,
        -0.23469582200050354,
        -0.1739501804113388,
        0.0372295007109642,
        -0.3428073823451996,
        0.13834555447101593,
        -0.15285323560237885,
        -0.15697930753231049,
        0.010520687326788902,
        -0.1875249147415161,
        0.12626466155052185,
        -0.2496877759695053,
        -0.1864122897386551,
        -0.03202652558684349,
        -0.09707272797822952,
        -0.11421475559473038,
        -0.13173574209213257,
        -0.013608453795313835,
        -0.12313187122344971,
        0.015781400725245476,
        -0.07080952823162079,
        -0.032731372863054276,
        -0.022181164473295212,
        0.15886853635311127,
        -0.09686924517154694,
        0.24815411865711212,
        -0.20399980247020721,
        0.24277126789093018,
        0.0756596177816391,
        -0.10665325075387955,
        0.09538151323795319,
        -0.18826156854629517,
        0.13651569187641144,
        0.022015048190951347,
        -0.13336338102817535,
        0.2581002414226532,
        -0.2749655246734619,
        0.19462376832962036,
        0.0665041133761406,
        0.1332537978887558,
        -0.024570835754275322,
        0.09719005227088928,
        -0.1015859916806221,
        0.05696311220526695,
        -0.0461636483669281,
        -0.061277665197849274,
        0.1373421549797058,
        -0.0684090331196785,
        0.09301846474409103,
        -0.08567939698696136,
        -0.019895240664482117,
        0.004801507107913494,
        -0.06680899858474731,
        -0.08213450759649277,
        0.22638632357120514,
        0.013569911941885948,
        0.01955660991370678,
        -0.2430277317762375,
        -0.0014047829899936914,
        0.070884108543396,
        0.04725942388176918,
        -0.2555582821369171,
        -0.0913153663277626,
        -0.07968144863843918,
        0.12900522351264954,
        0.06012776866555214,
        0.10852206498384476,
        -0.1733091026544571,
        0.05603334307670593,
        0.23272979259490967,
        0.07120676338672638,
        0.14934657514095306,
        0.044987089931964874,
        -0.1200181096792221,
        0.02885163575410843,
        -0.10138428211212158,
        -0.021952902898192406,
        0.20958814024925232,
        0.1530841439962387,
        0.06939011812210083,
        -0.055015191435813904,
        0.1973879337310791,
        0.1491207480430603,
        0.07197706401348114,
        0.1316380351781845,
        -0.09370382130146027,
        0.19481022655963898,
        0.21242348849773407,
        0.033535610884428024,
        -0.16605909168720245,
        0.05956796556711197,
        -0.048095572739839554,
        0.01273261196911335,
        -0.09643200039863586,
        0.16332142055034637,
        -0.09790384024381638,
        -0.07887791842222214,
        -0.026408635079860687,
        0.03786159306764603,
        0.11033634841442108,
        0.15097501873970032,
        0.10301263630390167,
        -0.034355103969573975,
        0.11513815075159073,
        -0.10717730969190598,
        -0.06224609538912773,
        0.10994526743888855,
        0.2882838845252991,
        -0.18659941852092743,
        0.12874270975589752,
        -0.19514316320419312,
        0.13571220636367798,
        -0.14501139521598816,
        -0.08411941677331924,
        0.15544354915618896,
        -0.07564196735620499,
        0.07659921795129776,
        0.006180401425808668,
        -0.04065513238310814,
        0.033370401710271835,
        -0.3494226634502411,
        0.025094807147979736,
        -0.2810773253440857,
        -0.0958499014377594,
        0.013892123475670815,
        0.17751426994800568,
        0.06875152140855789,
        -0.03500308468937874,
        0.08900656551122665,
        0.2342265248298645,
        -0.018321756273508072,
        -0.08987098187208176,
        0.022309560328722,
        0.1424214094877243,
        0.3194975256919861,
        0.23509635031223297,
        -0.10978008806705475,
        -0.07587780803442001,
        -0.1333748698234558,
        0.04272056743502617,
        0.1099400594830513,
        -0.05739762261509895,
        0.114735908806324,
        -0.021315746009349823,
        -0.009697215631604195,
        0.06084860488772392,
        -0.1079152300953865,
        0.09343667328357697,
        -0.17105622589588165,
        -0.1584579348564148,
        0.1672968864440918,
        -0.004810689948499203,
        -0.05667591467499733,
        0.06343144923448563,
        -0.13737526535987854,
        -0.09910964965820312,
        -0.13253578543663025,
        0.13261808454990387,
        -0.08919163793325424,
        0.07425128668546677,
        0.25637146830558777,
        -0.008761745877563953,
        0.23921898007392883,
        0.13349059224128723,
        0.15829887986183167,
        0.11955742537975311,
        -0.0470922477543354,
        0.2264411598443985,
        0.09129232168197632,
        0.2874871790409088,
        0.03332312032580376,
        0.03731728717684746,
        0.07933458685874939,
        0.28177133202552795,
        0.031570106744766235,
        0.00010163342813029885,
        -0.012523964047431946,
        -0.2550332844257355,
        0.04045349359512329,
        -0.1259729564189911,
        -0.030535835772752762,
        0.1742972731590271,
        0.019413478672504425,
        0.07132133841514587,
        -0.167658731341362,
        -0.00856767687946558,
        0.023272797465324402,
        0.08715542405843735,
        -0.08865834772586823,
        -0.029882380738854408,
        0.06104464828968048,
        -0.022186312824487686,
        -0.08197391033172607,
        -0.31402263045310974,
        0.12062171846628189,
        0.2857952415943146,
        -0.07713755965232849,
        0.19454456865787506,
        -0.15435969829559326,
        -0.12075652182102203,
        -0.05059080570936203,
        -0.017236564308404922,
        -0.0019625085406005383,
        0.0796716958284378,
        0.07372411340475082,
        0.20213301479816437,
        -0.10450699925422668,
        -0.054729074239730835,
        0.028227319940924644,
        0.07231810688972473,
        0.0918668657541275,
        -0.23288686573505402,
        -0.005268983542919159,
        -0.3252352476119995,
        -0.1379028707742691,
        0.07726173102855682,
        -0.22898106276988983,
        0.13926663994789124,
        0.03797455132007599,
        -0.11213862150907516,
        -0.06111478805541992,
        0.04321177303791046,
        0.006798111833631992,
        0.015546426177024841,
        -0.12282983213663101,
        0.013775858096778393,
        -0.09496799856424332,
        -0.0027914810925722122,
        -0.2513115108013153,
        -0.0003560558252502233,
        -0.2383403331041336,
        -0.11498724669218063,
        -0.07762156426906586,
        0.021920854225754738,
        -0.01579974964261055,
        -0.10241571068763733,
        0.1760157197713852,
        -0.21488119661808014,
        0.3727066218852997,
        -0.09557947516441345,
        -0.31066861748695374,
        0.06566295772790909,
        -0.13327312469482422,
        0.02917761541903019,
        0.07156544923782349,
        0.16706088185310364,
        -0.12235140055418015,
        0.05234913527965546,
        -0.0678769126534462,
        0.1801542192697525,
        0.09173361957073212,
        0.0056702145375311375,
        -0.04857363551855087,
        -0.04081467539072037,
        -0.03145866468548775,
        0.03244222328066826,
        -0.07689717411994934,
        0.15315502882003784,
        0.17220349609851837,
        0.023851322010159492,
        0.062395885586738586,
        -0.02215336449444294,
        0.15632249414920807,
        0.03779154643416405,
        -0.15116913616657257,
        0.08874647319316864,
        -0.12577299773693085,
        0.059290580451488495,
        -0.22260643541812897,
        0.09008709341287613,
        0.003558005439117551,
        0.00012416514800861478,
        0.13201910257339478,
        0.055836379528045654,
        -0.10538967698812485,
        0.28086718916893005,
        0.0846652090549469,
        0.19577656686306,
        -0.04500478133559227,
        -0.06082433462142944,
        0.051932863891124725,
        -0.23735500872135162,
        -0.19368907809257507,
        -0.008279007859528065,
        -0.1392965018749237,
        -0.1715455800294876,
        0.01910029537975788,
        0.08889861404895782,
        0.0927407369017601,
        0.22687263786792755,
        -0.04320885241031647,
        0.12941882014274597,
        0.039488717913627625,
        -0.05922846123576164,
        -0.10445915162563324,
        0.04921494424343109,
        -0.07255984842777252,
        0.03811096400022507,
        -0.07233601808547974,
        0.0313267819583416,
        0.08579075336456299,
        0.03532862663269043,
        -0.2491433322429657,
        -0.08719700574874878,
        0.3509933054447174,
        0.0786275714635849,
        -0.061744384467601776,
        -0.054578997194767,
        -0.12287764251232147,
        -0.025860382243990898,
        -0.01875521056354046,
        0.279228538274765,
        -0.12507319450378418,
        0.03317906707525253,
        0.12745067477226257,
        0.05686099827289581,
        0.09422985464334488,
        0.2299432009458542,
        0.020852431654930115,
        0.07139306515455246,
        0.21179918944835663,
        0.0888437032699585,
        -0.04581700637936592,
        0.08839765191078186,
        0.11831525713205338,
        -0.18812458217144012,
        0.047069523483514786,
        -0.11145578324794769,
        0.24800658226013184,
        0.09629295766353607,
        0.060058631002902985,
        0.1860358715057373,
        -0.07708841562271118,
        0.2838341295719147,
        -0.18657521903514862,
        -0.1212334930896759,
        -0.09569881111383438,
        0.18623343110084534,
        0.12970900535583496,
        0.023856621235609055,
        0.1879030019044876,
        -0.08105699717998505,
        -0.04520568996667862,
        0.05688318610191345,
        0.07917230576276779,
        0.04055606573820114,
        0.14034847915172577,
        0.01994125358760357,
        -0.03208014369010925,
        0.20076462626457214,
        0.03655454143881798,
        0.006129298359155655,
        0.029702214524149895,
        0.06933926790952682,
        -0.009871425107121468,
        -0.17451272904872894,
        -0.022534796968102455,
        -0.07479092478752136,
        -0.12150705605745316,
        -0.09604109078645706,
        0.21556711196899414,
        -0.030786097049713135,
        0.03321179002523422,
        0.03722769394516945,
        -0.21781250834465027,
        -0.09965752065181732,
        -0.041426461189985275,
        0.07145527005195618,
        0.19040051102638245,
        -0.017569229006767273,
        0.029385026544332504,
        0.004532377701252699,
        -0.0947929099202156,
        -0.07974237948656082,
        0.017486322671175003,
        0.015887578949332237,
        0.07527448982000351,
        0.11531586199998856,
        0.2882986068725586,
        -0.14288748800754547,
        0.0793020948767662,
        -0.13214413821697235,
        -0.03800947964191437,
        0.08865994960069656,
        -0.060040928423404694,
        0.19188275933265686,
        -0.04160822182893753,
        0.32807639241218567,
        -0.21991747617721558,
        -0.2049875259399414,
        -0.0996410995721817,
        -0.1144479513168335,
        -0.22396422922611237,
        0.012812628410756588,
        0.11028401553630829,
        0.1044580414891243,
        -0.2695338726043701,
        -0.1654617190361023,
        -0.04173349589109421,
        0.02593916654586792,
        -0.0024471525102853775,
        -0.001496440963819623,
        -0.1444789320230484,
        -0.027486620470881462,
        0.20848730206489563,
        0.18187642097473145,
        0.07222803682088852,
        -0.054454512894153595,
        -0.3037070035934448,
        -0.042106740176677704,
        0.09656514972448349,
        0.1287440061569214,
        -0.016748594120144844,
        0.09610877186059952,
        -0.2769089937210083,
        -0.22938288748264313,
        -0.08452509343624115,
        0.1386227309703827,
        -0.04963554069399834,
        -0.03634203225374222,
        0.24401992559432983,
        0.09886015206575394,
        -0.18487676978111267,
        0.10128176957368851,
        -0.03682444617152214,
        0.08556529134511948,
        -0.07442603260278702,
        0.033220138400793076,
        0.031104624271392822,
        -0.054071903228759766,
        -0.09166090190410614,
        -0.24915286898612976,
        -0.18029513955116272,
        -0.04307449236512184,
        -0.1428215205669403,
        -0.09462996572256088,
        0.06145692244172096,
        0.17379018664360046,
        0.07208756357431412,
        0.07995667308568954,
        0.010372946038842201,
        0.11360318213701248,
        -0.1558658331632614,
        -0.11345633119344711,
        0.09780585020780563,
        0.09396729618310928,
        -0.08744443953037262,
        -0.14749039709568024,
        0.1614794284105301,
        0.04818899556994438,
        0.03043729066848755,
        0.030467690899968147,
        0.06758181005716324,
        0.15678848326206207,
        0.13639643788337708,
        0.12801316380500793,
        0.1630415916442871,
        -0.03154684975743294,
        0.08828341215848923,
        -0.019901858642697334,
        -0.020561037585139275,
        -0.025115031749010086,
        -0.01114174909889698,
        -0.02666916698217392,
        0.04735180363059044,
        -0.11805460602045059,
        -0.007776657585054636,
        0.0216499213129282,
        -0.15352259576320648,
        0.0750996544957161,
        0.18581444025039673,
        0.1524786353111267,
        -0.06486081331968307,
        0.08775371313095093,
        -0.11029357463121414,
        -0.1843075007200241,
        0.032568227499723434,
        0.054321177303791046,
        -0.050604935735464096,
        -0.18267396092414856,
        0.04307129606604576,
        0.25940558314323425,
        -0.005017015617340803,
        0.18716448545455933,
        0.004402481019496918,
        0.3031826615333557,
        -0.057978976517915726,
        -0.06003044173121452,
        0.1666414737701416,
        -0.05763492360711098,
        0.2759217321872711,
        -0.03326993063092232,
        0.14710740745067596,
        -0.23735874891281128,
        -0.06398501247167587,
        -0.07701108604669571,
        0.08434097468852997,
        -0.019433462992310524,
        -0.20564457774162292,
        0.125311017036438,
        0.049920644611120224,
        0.057349707931280136,
        0.27520617842674255,
        0.1778368204832077,
        -0.061154499650001526,
        -0.017591675743460655,
        -0.026022912934422493,
        0.08462942391633987,
        -0.18786759674549103,
        -0.09886868298053741,
        -0.45961275696754456,
        0.14083123207092285,
        0.10126404464244843,
        0.25935259461402893,
        -0.021124545484781265,
        -0.09484527260065079,
        0.08539281785488129,
        0.03962281346321106,
        0.22064387798309326,
        -0.006974213756620884,
        -0.06643051654100418,
        0.0033042016439139843,
        -0.11172431707382202,
        0.04575422406196594,
        -0.10905194282531738,
        -0.026503153145313263,
        -0.12040688842535019,
        0.11593545973300934,
        0.15699222683906555,
        0.028726870194077492,
        -0.1550944596529007,
        -0.16164328157901764,
        0.24990062415599823,
        -0.0067616961896419525,
        0.16027045249938965,
        0.14208437502384186,
        -0.03075297176837921,
        -0.08482930064201355,
        -0.15829114615917206,
        0.004304020665585995,
        0.17558473348617554,
        0.10671480745077133,
        0.21819527447223663,
        -0.03839157521724701,
        0.1133856475353241,
        -0.16763561964035034,
        0.0948103815317154,
        -0.042343683540821075,
        -0.08984921127557755,
        -0.06766700744628906,
        0.16331425309181213,
        0.2589835226535797,
        0.10522131621837616,
        0.060720909386873245,
        -0.03984503448009491,
        -0.0657031387090683,
        -0.15038946270942688,
        -0.14527687430381775,
        0.047728344798088074,
        0.17293232679367065,
        0.11330100893974304,
        -0.002604519482702017,
        0.013429893180727959,
        0.1581127941608429,
        -0.12687091529369354,
        0.09293293207883835,
        -0.09805213660001755,
        -0.26517432928085327,
        -0.0405004620552063,
        -0.06194644421339035,
        0.11200957745313644,
        -0.018893929198384285,
        0.1585475653409958,
        -0.11686693131923676,
        -0.1863648146390915,
        -0.30255359411239624,
        0.126864954829216,
        0.14095979928970337,
        -0.017587486654520035,
        0.09272687882184982,
        0.06467516720294952,
        0.11181232333183289,
        -0.05804580822587013,
        0.10443679243326187,
        0.2934191823005676,
        -0.051256295293569565,
        0.3334222733974457,
        0.13694220781326294,
        0.011284150183200836,
        -0.03977838158607483,
        -0.33139508962631226,
        0.01616418920457363,
        0.14555391669273376,
        0.015231109224259853,
        0.0271013043820858,
        0.1642223298549652,
        -0.16459599137306213,
        -0.04706525802612305,
        -0.019754702225327492,
        0.0035925398115068674,
        0.0683438777923584,
        0.023382216691970825,
        0.08151175081729889,
        0.042893312871456146,
        -0.04076462611556053,
        -0.16632503271102905,
        0.013381634838879108,
        -0.017579268664121628,
        -0.2798600494861603,
        -0.15688186883926392,
        0.08117067068815231,
        -0.22062638401985168,
        0.20543064177036285,
        -0.07791272550821304,
        -0.10158507525920868,
        0.03682909533381462,
        0.02054520696401596,
        -0.08128443360328674,
        -0.2980823516845703,
        -0.10395646095275879,
        0.11258108168840408,
        0.08142659813165665,
        0.03049984946846962,
        0.11180770397186279,
        -0.02409064956009388,
        -0.09435733407735825,
        -0.18362121284008026,
        -0.10118671506643295,
        -0.04838663339614868,
        -0.14850695431232452,
        -0.03573528677225113,
        0.22175456583499908,
        0.07302232831716537,
        0.33064502477645874,
        -0.04461889714002609,
        -0.0014676955761387944,
        0.1954258680343628,
        -0.024008899927139282,
        0.22049078345298767,
        -0.13796226680278778,
        0.06268040090799332,
        -0.157639741897583,
        0.10457733273506165,
        -0.011735441163182259,
        -0.13742312788963318,
        -0.009515496902167797,
        0.09683424979448318,
        -0.12745775282382965,
        0.02253340370953083,
        -0.09012264758348465,
        -0.11674388498067856,
        0.08877303451299667,
        -0.15319813787937164,
        0.04048332944512367,
        0.038404569029808044,
        -0.08557762205600739,
        0.04922587424516678,
        -0.0010112260933965445,
        0.17784641683101654,
        -0.03637142479419708,
        -0.1198040246963501,
        -0.060310836881399155,
        0.04151350259780884,
        0.35396885871887207,
        0.006053519900888205,
        0.1688329428434372,
        0.10704540461301804,
        -0.1275278776884079,
        0.25469496846199036,
        -0.15963803231716156,
        0.10352030396461487,
        -0.019577937200665474,
        -0.11924579739570618,
        0.01368363481014967,
        0.14174474775791168,
        -0.1680244505405426,
        -0.37166181206703186,
        -0.07995392382144928,
        -0.08970813453197479,
        0.07207642495632172,
        -0.055577900260686874,
        -0.14656400680541992,
        0.19126980006694794,
        0.11295685917139053,
        0.08006671071052551,
        -0.1788717657327652,
        0.05772462487220764,
        0.22300365567207336,
        -0.07049699872732162,
        -0.03586701676249504,
        0.22402940690517426,
        0.04659131169319153,
        -0.024546969681978226,
        0.12338162958621979,
        -0.16453863680362701,
        -0.03478575125336647,
        0.15235455334186554,
        0.09682608395814896,
        0.14022798836231232,
        -0.025042729452252388,
        -0.1787145882844925,
        -0.20073719322681427,
        -0.028305143117904663,
        -0.054417405277490616,
        -0.012110349722206593,
        -0.10223215818405151,
        -0.18603399395942688,
        -0.10918992012739182,
        0.1645720899105072,
        -0.0761442705988884,
        0.14865989983081818,
        -0.21516932547092438,
        0.06960728019475937,
        0.07197194546461105,
        0.15015564858913422,
        -0.21437931060791016,
        0.10988795012235641,
        0.1395009458065033,
        0.1714196354150772,
        0.19857467710971832,
        0.1573752909898758,
        0.00222426257096231,
        -0.14037802815437317,
        -0.26757195591926575,
        0.09106124937534332,
        0.10482246428728104,
        0.24618960916996002,
        -0.12444481998682022,
        -0.09534484148025513,
        -0.09907222539186478,
        0.11967797577381134,
        -0.17464026808738708,
        0.1025632694363594,
        0.1065230742096901,
        0.28396302461624146,
        0.16222232580184937,
        0.3560790419578552,
        0.08788390457630157,
        -0.13384948670864105,
        -0.14990946650505066,
        -0.055288057774305344,
        0.06641093641519547,
        0.06587924808263779,
        0.04689294844865799,
        -0.16056786477565765,
        0.06865563988685608,
        0.2097969949245453,
        -0.05242336913943291,
        -0.01994227059185505,
        -0.09179715067148209,
        -0.20332872867584229,
        -0.12397848069667816,
        -0.2556416690349579,
        -0.008612265810370445,
        -0.03692066669464111,
        0.10194829851388931,
        -0.03324567526578903,
        0.04486893117427826,
        -0.0703132152557373,
        0.0737561285495758,
        0.07329892367124557,
        -0.09854268282651901,
        -0.10081402957439423,
        0.25169792771339417,
        0.2290811389684677,
        -0.024679716676473618,
        0.24725040793418884,
        -0.17923247814178467,
        -0.03785093501210213,
        -0.12990519404411316,
        -0.05456586927175522,
        -0.09295781701803207,
        0.012439870275557041,
        0.0231869388371706,
        -0.20401117205619812,
        -0.12009268999099731,
        -0.03691719099879265,
        0.1051042228937149,
        0.0741036906838417,
        0.02064291574060917,
        0.07894150167703629,
        0.10790994018316269,
        -0.14520731568336487,
        -0.14618419110774994,
        -0.2054501622915268,
        0.18126180768013,
        -0.17506445944309235,
        0.10389341413974762,
        -0.06431522965431213,
        -0.0814594179391861,
        -0.12016848474740982,
        -0.03210475295782089,
        0.058768048882484436,
        0.09615016728639603,
        -0.15856574475765228,
        -0.12712077796459198,
        0.19237355887889862,
        0.24597671627998352,
        0.09144184738397598,
        0.10150656849145889,
        -0.10875596106052399,
        -0.07305880635976791,
        0.06000128015875816,
        0.06518570333719254,
        -0.1144956573843956,
        -0.06603462249040604,
        -0.17829473316669464,
        -0.05412661284208298,
        0.04085230082273483,
        -0.1270904392004013,
        0.03327172249555588,
        0.1208331510424614,
        -0.002806873759254813,
        0.021765558049082756,
        0.04282601550221443,
        -0.10895382612943649,
        -0.23669680953025818,
        -0.1010952964425087,
        0.21313323080539703,
        -0.13345903158187866,
        -0.0897890254855156,
        0.1899009793996811,
        0.13371238112449646,
        -0.09208053350448608,
        -0.07380752265453339,
        0.15841929614543915,
        0.2694259583950043,
        -0.17503926157951355,
        0.08286254107952118,
        0.09650558233261108,
        -0.015244350768625736,
        0.16001015901565552,
        -0.15129846334457397,
        0.13969506323337555,
        -0.04009832441806793,
        -0.050646714866161346,
        0.23623979091644287,
        0.01076705101877451,
        0.012224431149661541,
        -0.011516178958117962,
        0.03829601779580116,
        -0.02511708065867424,
        -0.19511589407920837,
        -0.07284920662641525,
        0.2702561616897583,
        0.14707617461681366,
        0.06633135676383972,
        0.03648316115140915,
        0.16498695313930511,
        -0.13308227062225342,
        0.11910052597522736,
        -0.04491984844207764,
        -0.021467410027980804,
        0.03396441414952278,
        -0.08094443380832672,
        0.02278490923345089,
        0.02285619080066681,
        0.04626889154314995,
        -0.040478553622961044,
        -0.02966526709496975,
        0.03017086535692215,
        -0.22393812239170074,
        -0.06923960894346237,
        -0.0392465814948082,
        0.06403955072164536,
        -0.19399867951869965,
        0.014214604161679745,
        -0.04359527304768562,
        -0.18819266557693481,
        0.06990087032318115,
        -0.10085836052894592,
        -0.45460599660873413,
        0.08374247699975967,
        -0.3129677176475525,
        0.26134127378463745,
        0.02924482896924019,
        0.04608049616217613,
        0.229201540350914,
        -0.09749626368284225,
        -0.24160824716091156,
        -0.05871760845184326,
        0.0449318066239357,
        -0.1126709058880806,
        -0.0819154679775238,
        0.2443578690290451,
        0.025738205760717392,
        0.11523199826478958,
        0.02617788314819336,
        -0.09118765592575073,
        0.1913457214832306,
        0.04627171903848648,
        0.03597455099225044,
        0.18461233377456665,
        0.041555535048246384,
        0.1073932945728302,
        -0.07439957559108734,
        -0.058840468525886536,
        0.0749455913901329,
        0.07911479473114014,
        -0.09829394519329071,
        -0.180110365152359,
        -0.02570336125791073,
        0.09857343882322311,
        -0.17084507644176483,
        -0.12687991559505463,
        0.2622070908546448,
        -0.14230096340179443,
        -0.04748158901929855,
        0.19026325643062592,
        -0.16244329512119293,
        -0.14239518344402313,
        0.052425023168325424,
        0.003023411612957716,
        -0.12133149057626724,
        -0.23589906096458435,
        0.029812144115567207,
        -0.11755779385566711,
        0.0405135415494442,
        6.263761315494776e-05,
        0.025555282831192017,
        0.0493677519261837,
        0.17362646758556366,
        -0.1748102307319641,
        0.06413247436285019,
        0.155484139919281,
        0.17951615154743195,
        -0.062103960663080215,
        0.1590864658355713,
        -0.04966719076037407,
        -0.09114103764295578,
        -0.0119581688195467,
        -0.009977648966014385,
        0.00271871336735785,
        0.16495905816555023,
        -0.12968146800994873,
        -0.06634166836738586,
        0.23518387973308563,
        0.051967982202768326,
        0.05885852128267288,
        0.05859869718551636,
        0.049271587282419205,
        0.0665832906961441,
        0.08869355916976929,
        -0.046511635184288025,
        0.24288952350616455,
        -0.1542275995016098,
        -0.007017024792730808,
        0.08032198995351791,
        0.10717069357633591,
        0.053733184933662415,
        -0.051376741379499435,
        0.17389313876628876,
        0.22763964533805847,
        0.1274566799402237,
        -0.1569913625717163,
        -0.08041319251060486,
        0.15121537446975708,
        -0.16124333441257477,
        0.06899912655353546,
        -0.03889261558651924,
        -0.11523410677909851,
        0.2696826457977295,
        -0.1842605024576187,
        0.1951063573360443,
        -0.0040377723053097725,
        -0.15969663858413696,
        -0.031156016513705254,
        0.09276556223630905,
        0.026615379378199577,
        -0.019903946667909622,
        -0.3273671567440033,
        0.00550544448196888,
        0.18127106130123138,
        -0.22819218039512634,
        0.04446304216980934,
        0.1737155020236969,
        -0.029388634487986565,
        -0.00020723341731354594,
        0.1736321896314621,
        0.05080999433994293,
        0.06576630473136902,
        0.21479125320911407,
        0.08619104325771332,
        0.03618386387825012,
        0.08281092345714569,
        0.26038748025894165,
        0.00239446759223938,
        -0.3263583183288574,
        0.12074659019708633,
        -0.0014584008604288101,
        0.017863677814602852,
        0.06758635491132736,
        0.08280133455991745,
        0.2383754402399063,
        0.13097286224365234,
        0.027250166982412338,
        -0.048677537590265274,
        0.22564281523227692,
        -0.11313005536794662,
        0.03538832813501358,
        -0.09365464746952057,
        -0.3101167678833008,
        -0.12039549648761749,
        -0.16077548265457153,
        0.12714844942092896,
        0.05190422013401985,
        -0.13591107726097107,
        0.05511011183261871,
        -0.07497039437294006,
        -0.012349850498139858,
        0.10783477872610092,
        -0.100641630589962,
        0.009095672518014908,
        -0.05051451176404953,
        0.43025997281074524,
        0.038322094827890396,
        0.011201341636478901,
        -0.13915710151195526,
        0.05149336904287338,
        -0.0791429802775383,
        -0.011821684427559376,
        0.06833505630493164,
        -0.31031396985054016,
        -0.053903162479400635,
        -0.28758180141448975,
        -0.00896535161882639,
        0.12858161330223083,
        0.045781075954437256,
        -0.15800388157367706,
        0.2455911785364151,
        -0.06374818831682205,
        -0.055265139788389206,
        -0.2132822424173355,
        -0.08655933290719986,
        0.13251686096191406,
        0.04081662744283676,
        0.14676159620285034,
        -0.1333170235157013,
        0.08525357395410538,
        0.05631726607680321,
        0.06230891868472099,
        0.11463925987482071,
        -0.055935341864824295,
        0.011933868750929832,
        -0.026191050186753273,
        0.13694213330745697,
        -0.028127608820796013,
        -0.03808053955435753,
        0.17930448055267334,
        -0.17679084837436676,
        -0.22077211737632751,
        -0.0032309996895492077,
        0.145957350730896,
        -0.05342196673154831,
        -0.11122836172580719,
        0.06240642070770264,
        -0.021596485748887062,
        0.071108378469944,
        0.015018243342638016,
        -0.01606234908103943,
        -0.18298475444316864,
        0.17548398673534393,
        0.26389262080192566,
        0.05362726375460625,
        -0.22564969956874847,
        0.12510479986667633,
        -0.016722850501537323,
        -0.10639134794473648,
        -0.2620698809623718,
        0.1377020925283432,
        0.0694151297211647,
        -0.05230769142508507,
        -0.08563563227653503,
        -0.04303804412484169,
        -0.006368406116962433,
        0.09779208153486252,
        0.17626674473285675,
        0.008712218143045902,
        0.12464072555303574,
        0.02967602200806141,
        -0.3155216574668884,
        0.08126018196344376,
        -0.20051829516887665,
        0.09505383670330048,
        0.016475902870297432,
        0.12793980538845062,
        -0.026248404756188393,
        -0.12139090895652771,
        0.0286655742675066,
        0.127109095454216,
        -0.23173442482948303,
        0.03401600569486618,
        0.13835211098194122,
        -0.1141555905342102,
        0.06498412787914276,
        0.21635200083255768,
        -0.10732923448085785,
        0.06848908960819244,
        -0.22137100994586945,
        -0.2676848769187927,
        -0.08485525101423264,
        0.15193785727024078,
        -0.10462386161088943,
        -0.036552298814058304,
        0.02063009701669216,
        0.16083307564258575,
        -0.2127813696861267,
        0.06275179237127304,
        0.1838740110397339,
        -0.10577353835105896,
        -0.008182553574442863,
        0.04037715494632721,
        -0.12046951055526733,
        0.0013371679233387113,
        0.1305285394191742,
        -0.09455263614654541,
        -0.26184746623039246,
        -0.018456468358635902,
        -0.11920654028654099,
        -0.19853946566581726,
        0.09891277551651001,
        -0.10414142906665802,
        -0.06898268312215805,
        -0.21362854540348053,
        -0.014106666669249535,
        -0.07499600201845169,
        -0.10243306308984756,
        -0.13681431114673615,
        -0.1600448191165924,
        -0.06469214707612991,
        0.18288522958755493,
        -0.1267523318529129,
        0.07979235053062439,
        -0.055715687572956085,
        -0.10300970822572708,
        -0.09261691570281982,
        0.015750596299767494,
        -0.23890648782253265,
        0.1073201596736908,
        -0.13135167956352234,
        -0.19170212745666504,
        -0.05649286508560181,
        0.02443968690931797,
        -0.1014794111251831,
        -0.04261007159948349,
        0.09019812196493149,
        -0.15342295169830322,
        -0.03754075616598129,
        -0.21361960470676422,
        0.03536157310009003,
        0.08117075264453888,
        0.11821498721837997,
        -0.0540623813867569,
        0.11261238902807236,
        0.2673632502555847,
        0.3470521867275238,
        -0.020471304655075073,
        -0.09080340713262558,
        0.007416325621306896,
        0.047607798129320145,
        0.08744344860315323,
        0.07256144285202026,
        0.15084630250930786,
        0.0772821381688118,
        -0.050464384257793427,
        -0.14343270659446716,
        -0.010091757401823997,
        0.07693114876747131,
        -0.17891457676887512,
        -0.02534971758723259,
        -0.051209963858127594,
        -0.10959666967391968,
        -0.1780088245868683,
        0.03381695970892906,
        0.013452828861773014,
        0.07927965372800827,
        0.018031476065516472,
        -0.051156725734472275,
        0.18538008630275726,
        -0.21014165878295898,
        -0.2744183838367462,
        0.12658391892910004,
        0.08978787809610367,
        0.32017213106155396,
        -0.06872957944869995,
        0.15992267429828644,
        0.07132499665021896,
        -0.14711758494377136,
        -0.052075404673814774,
        0.02146790735423565,
        -0.13782639801502228,
        0.11547967791557312,
        -0.10426662117242813,
        0.14029256999492645,
        -0.12566643953323364,
        0.1938939243555069,
        0.033291030675172806,
        -0.026003602892160416,
        -0.21247246861457825,
        0.012394278310239315,
        -0.06537031382322311,
        -0.06544181704521179,
        -0.11381231248378754,
        0.015607952140271664,
        0.14085163176059723,
        -0.056942183524370193,
        -0.12327352166175842,
        0.026390360668301582,
        -0.09117962419986725,
        -0.22136059403419495,
        0.100893534719944,
        0.05149964615702629,
        0.11421696841716766,
        -0.20888125896453857,
        -0.13726553320884705,
        0.13144302368164062,
        0.02636723406612873,
        0.10089034587144852,
        -0.13847017288208008,
        -0.09649205952882767,
        0.0014637367567047477,
        -0.04621012881398201,
        0.16637936234474182,
        0.006725364830344915,
        -0.17160765826702118,
        0.10374581813812256,
        -0.06659134477376938,
        -0.21068841218948364,
        0.12920822203159332,
        -0.12715695798397064,
        -0.15410366654396057,
        -0.21274136006832123,
        0.15718701481819153,
        -0.06714113801717758,
        -0.05172809585928917,
        -0.06099898740649223,
        -0.05963458493351936,
        -0.04228220134973526,
        -0.04019565135240555,
        0.09395347535610199,
        -0.0035591439809650183,
        -0.29934683442115784,
        -0.18177929520606995,
        -0.022268638014793396,
        0.11828631162643433,
        -0.010383867658674717,
        0.08314834535121918,
        0.1263459175825119,
        -0.0969025269150734,
        -0.19584055244922638,
        -0.11157166957855225,
        0.053012914955616,
        0.07316439598798752,
        -0.17817245423793793,
        0.00020886913989670575,
        0.12696677446365356,
        -0.08226308226585388,
        -0.008924953639507294,
        -0.06140910089015961,
        0.13132159411907196,
        0.055377550423145294,
        0.048574913293123245,
        0.0571199432015419,
        0.050279490649700165,
        -0.2002336084842682,
        -0.10031990706920624,
        0.049342796206474304,
        0.04913416504859924,
        0.21692658960819244,
        -0.0658690556883812,
        0.0841456726193428,
        -0.05298597365617752,
        -0.21126948297023773,
        0.15795382857322693,
        -0.0758790448307991,
        -0.13512085378170013,
        -0.1335323452949524,
        -0.2589692175388336,
        -0.24548111855983734,
        0.034698233008384705,
        0.02014242298901081,
        -0.10300698131322861,
        -0.14831851422786713,
        0.15832722187042236,
        0.07523064315319061,
        -0.06821247190237045,
        -0.08036980777978897,
        0.11538496613502502,
        -0.024942265823483467,
        -0.13437800109386444,
        -0.1327134370803833,
        0.22786343097686768,
        -0.336081326007843,
        -0.01221498567610979,
        0.17004086077213287,
        0.1639477163553238,
        -0.0852222666144371,
        0.10653127729892731,
        0.22521649301052094,
        0.17951621115207672,
        0.1198207288980484,
        0.01694970205426216,
        0.17576827108860016,
        0.07656016200780869,
        0.1660207360982895,
        -0.029338350519537926,
        -0.0182366780936718,
        0.0847276896238327,
        -0.09630598872900009,
        0.08836668729782104,
        0.07907407730817795,
        -0.12435927242040634,
        0.12232901155948639,
        -0.05191301554441452,
        0.04590430483222008,
        -0.011009871028363705,
        0.1373055875301361,
        -0.14003948867321014,
        -0.07437901943922043,
        0.05497350916266441,
        0.30329105257987976,
        0.23277413845062256,
        -0.05140034854412079,
        0.12148544192314148,
        -0.08771474659442902,
        0.15572789311408997,
        -0.04096508026123047,
        -0.08102686703205109,
        -0.07563408464193344,
        -0.04552159830927849,
        -0.2191314399242401,
        -0.18436932563781738,
        -0.11479895561933517,
        -0.2624586820602417,
        0.002751735970377922,
        0.07530581206083298,
        0.017971040681004524,
        0.08751067519187927,
        -0.09853586554527283,
        0.05046471580862999,
        -0.07049334049224854,
        -0.10667077451944351,
        0.1273498237133026,
        0.01284276507794857,
        -0.29604271054267883,
        0.00039026420563459396,
        -0.013545423746109009,
        -0.15085256099700928,
        -0.015350566245615482,
        -0.25731420516967773,
        -0.0943417027592659,
        -0.2586042284965515,
        -0.15235553681850433,
        0.19521799683570862,
        -0.2060958743095398,
        0.05588230863213539,
        0.20399110019207,
        -0.2581671178340912,
        0.11771693080663681,
        0.1403374969959259,
        -0.25927069783210754,
        -0.055236317217350006,
        0.02822302281856537,
        -0.1316913664340973,
        0.06676522642374039,
        -0.12214557081460953,
        0.20724622905254364,
        -0.14892175793647766,
        0.11628634482622147,
        0.18662241101264954,
        -0.03378620371222496,
        -0.07051174342632294,
        0.11222409456968307,
        -0.2134331315755844,
        0.04286520928144455,
        -0.1797873079776764,
        -0.05077103152871132,
        -0.14246289432048798,
        0.06425485759973526,
        0.01569397933781147,
        0.02099105343222618,
        0.09683021157979965,
        -0.0031779538840055466,
        -0.09049662947654724,
        -0.04558001458644867,
        -0.21896480023860931,
        0.05335570126771927,
        0.031395088881254196,
        0.38232025504112244,
        -0.08443168550729752,
        -0.054936908185482025,
        0.01904464140534401,
        0.1907811164855957,
        0.037915218621492386,
        -0.27135351300239563,
        -0.03447380289435387,
        0.12022992968559265,
        -0.2055911421775818,
        0.18051648139953613,
        0.018432242795825005,
        -0.026593487709760666,
        0.054872456938028336,
        -0.008537250570952892,
        -0.005905647296458483,
        0.16697774827480316,
        -0.16723571717739105,
        -0.14182867109775543,
        0.06081078201532364,
        0.17782072722911835,
        0.04397904500365257,
        -0.10908576101064682,
        -0.14746157824993134,
        0.24166160821914673,
        0.1917268931865692,
        0.1217622384428978,
        0.22558245062828064,
        0.09944825619459152,
        0.0326443575322628,
        0.004188161808997393,
        -0.19626565277576447,
        0.07812155783176422,
        0.28142714500427246,
        -0.08403196930885315,
        -0.053595226258039474,
        -0.00794915296137333,
        0.09278248250484467,
        -0.14403685927391052,
        -0.04288096725940704,
        0.00649033859372139,
        0.08193731307983398,
        -0.24805928766727448,
        0.23062793910503387,
        -0.31703266501426697,
        0.017571190372109413,
        0.017585737630724907,
        -0.11621423065662384,
        0.19105012714862823,
        -0.2243797481060028,
        0.05052422359585762,
        0.07304442673921585,
        -0.1494794636964798,
        -0.04994608461856842,
        0.06922931969165802,
        0.06136346235871315,
        0.2085200846195221,
        0.10172761976718903,
        0.06466010212898254,
        0.23376759886741638,
        -0.05272400379180908,
        -0.13389192521572113,
        0.027949832379817963,
        -0.2515949308872223,
        -0.0695047676563263,
        -0.11668078601360321,
        0.020246870815753937,
        -0.05346927419304848,
        -0.048323024064302444,
        -0.11597411334514618,
        -0.07991562783718109,
        0.11565758287906647,
        -0.22386743128299713,
        0.09580324590206146,
        0.05338016524910927,
        -0.004544519819319248,
        -0.1562473475933075,
        0.15245682001113892,
        -0.21207694709300995,
        -0.004067597445100546,
        0.12750600278377533,
        -0.21006372570991516,
        -0.15444262325763702,
        0.09319154918193817,
        -0.06283529102802277,
        0.0031957600731402636,
        0.14755195379257202,
        -0.032041627913713455,
        0.1682617962360382,
        -0.030641578137874603,
        -0.134536013007164,
        0.11059165745973587,
        -0.1760956048965454,
        -0.009208308532834053,
        0.035916611552238464,
        -0.054089900106191635,
        0.12800368666648865,
        -0.1496419459581375,
        -0.13739769160747528,
        -0.12022747099399567,
        -0.3229880928993225,
        0.06577238440513611,
        0.13128675520420074,
        0.21554866433143616,
        -0.23603413999080658,
        -0.05515338107943535,
        -0.21209263801574707,
        0.15146999061107635,
        0.043652575463056564,
        0.05124610289931297,
        0.09361825883388519,
        0.044741954654455185,
        -0.27563393115997314,
        -0.12307214736938477,
        -0.016236774623394012,
        0.12189821898937225,
        -0.08448519557714462,
        -0.040731124579906464,
        0.22976909577846527,
        0.016971195116639137,
        0.11554169654846191,
        -0.2350706160068512,
        0.057430826127529144,
        -0.1069578304886818,
        -0.014262596145272255,
        -0.06552821397781372,
        0.12285955995321274,
        0.14953087270259857,
        0.1548631489276886,
        -0.07073071599006653,
        0.04187620058655739,
        0.14165741205215454,
        0.0025738629046827555,
        -0.0054127913899719715,
        0.17177872359752655,
        0.06910273432731628,
        -0.1674572378396988,
        0.09316704422235489,
        0.16773951053619385,
        0.10517071932554245,
        0.16272319853305817,
        0.1617664247751236,
        -0.291075736284256,
        0.1232743039727211,
        0.20043514668941498,
        -0.07848795503377914,
        0.010864297859370708,
        0.10445704311132431,
        0.06980250030755997,
        -0.01853940077126026,
        -0.14610730111598969,
        0.10730352997779846,
        0.0321686826646328,
        0.3302263915538788,
        -0.06946355104446411,
        0.045255087316036224,
        0.12831053137779236,
        0.341920405626297,
        -0.002136138267815113,
        -0.08362673223018646,
        -0.011838467791676521,
        -0.14721259474754333,
        -0.16135743260383606,
        -0.23252171277999878,
        0.20070143043994904,
        -0.30577969551086426,
        -0.09556714445352554,
        -0.013811057433485985,
        0.10242372751235962,
        -0.16415618360042572,
        -0.02738708257675171,
        0.03154844790697098,
        0.16308946907520294,
        0.08688068389892578,
        0.06754790246486664,
        -0.0803397074341774,
        -0.01158581580966711,
        0.04184022918343544,
        0.12137646228075027,
        0.015286283567547798,
        0.1597217470407486,
        -0.13101251423358917,
        -0.14188742637634277,
        0.025521034374833107,
        -0.06897613406181335,
        0.21851107478141785,
        -0.3202669620513916,
        0.003856804221868515,
        0.06764743477106094,
        -0.22606943547725677,
        0.185886412858963,
        -0.04333922266960144,
        0.22400984168052673,
        0.24646785855293274,
        -0.14030373096466064,
        -0.022777995094656944,
        0.07217855006456375,
        -0.01568128913640976,
        0.166289284825325,
        0.009670674800872803,
        0.12778183817863464,
        0.12990739941596985,
        -0.006523963995277882,
        0.02268759161233902,
        -0.35725730657577515,
        -0.05926070362329483,
        0.07535380870103836,
        -0.14141961932182312,
        0.06838758289813995,
        -0.008725021034479141,
        0.13512000441551208,
        -0.1797000616788864,
        -0.04261062294244766,
        -0.17124448716640472,
        0.011314348317682743,
        -0.06468202918767929,
        -0.09491433948278427,
        0.2824332118034363,
        0.013580171391367912,
        -0.4146151542663574,
        -0.2536795139312744,
        0.25973179936408997,
        0.1255020648241043,
        0.1694326102733612,
        0.09235087037086487,
        0.10478463768959045,
        0.031086605042219162,
        -0.22820717096328735,
        -0.02569013647735119,
        0.0256004948168993,
        -0.0065939160995185375,
        -0.14518176019191742,
        -0.14585953950881958,
        -0.181529238820076,
        -0.10435899347066879,
        0.10553627461194992,
        0.10812046378850937,
        0.17676517367362976,
        -0.3101319670677185,
        0.11641044914722443,
        -0.009001201018691063,
        -0.0517369844019413,
        -0.23863226175308228,
        -0.1509677767753601,
        0.0452665276825428,
        0.16152136027812958,
        0.04003780707716942,
        -0.11722328513860703,
        0.13725271821022034,
        -0.05206223204731941,
        -0.11766746640205383,
        -0.014723561704158783,
        -0.12889418005943298,
        -0.11671790480613708,
        0.1388297826051712,
        -0.0829312652349472,
        0.0006834608502686024,
        0.12806281447410583,
        0.05597493052482605,
        -0.2986842691898346,
        -0.06092109903693199,
        0.1643373817205429,
        -0.09855950623750687,
        -0.12365087121725082,
        0.012585132382810116,
        -0.09843260794878006,
        -0.3091273307800293,
        -0.06399612128734589,
        0.06924477964639664,
        -0.25649213790893555,
        -0.060115497559309006,
        0.17055678367614746,
        -0.0413069948554039,
        0.002643215237185359,
        0.06395826488733292,
        -0.012051411904394627,
        -0.06359802931547165,
        -0.021096881479024887,
        0.0849987119436264,
        0.2279675453901291,
        0.23556986451148987,
        0.0019867955707013607,
        -0.27180010080337524,
        -0.10272030532360077,
        0.09185750037431717,
        0.011917876079678535,
        -0.060688573867082596,
        0.0013492985162883997,
        0.15982313454151154,
        -0.2275245040655136,
        -0.18005774915218353,
        0.06812290847301483,
        -0.060231663286685944,
        0.06383012235164642,
        0.012601695023477077,
        0.13450677692890167,
        0.23996742069721222,
        -0.03726531192660332,
        -0.22064590454101562,
        -0.24604862928390503,
        -0.08677424490451813,
        -0.11796436458826065,
        0.08973446488380432,
        0.0012562894262373447,
        -0.24937088787555695,
        -0.08561519533395767,
        0.13709323108196259,
        0.3028009533882141,
        0.042918115854263306,
        0.21837416291236877,
        -0.21434229612350464,
        -0.15333174169063568,
        -0.049803368747234344,
        0.1382300704717636,
        -0.028549732640385628,
        -0.08223485201597214,
        0.2295197695493698,
        0.06931527704000473,
        0.01912476308643818,
        0.05807289108633995,
        0.0702558159828186,
        0.05411963164806366,
        0.13695113360881805,
        0.26086094975471497,
        -0.13530932366847992,
        0.1348409801721573,
        0.1523846536874771,
        -0.000246436451561749,
        -0.11222716420888901,
        0.04118998721241951,
        -0.2543886601924896,
        0.17630088329315186,
        0.048695530742406845,
        0.16253718733787537,
        0.05133645236492157,
        0.06297050416469574,
        -0.004782016854733229,
        -0.09129258990287781,
        -0.20001597702503204,
        0.01255359873175621,
        0.12625861167907715,
        0.12826479971408844,
        -0.004069450311362743,
        -0.0017652264796197414,
        0.054645344614982605,
        0.09977635741233826,
        0.16573776304721832,
        0.18209397792816162,
        0.1225978210568428,
        0.14308646321296692,
        -0.032798442989587784,
        -0.18461419641971588,
        0.039411429315805435,
        -0.08923011273145676,
        -0.05834006890654564,
        0.03117072954773903,
        0.1954284906387329,
        0.16019511222839355,
        -0.1317053735256195,
        0.15794722735881805,
        0.1827971339225769,
        0.1971307247877121,
        0.02994375117123127,
        0.33147484064102173,
        0.17306071519851685,
        0.10854191333055496,
        0.024411043152213097,
        0.08382007479667664,
        -0.1341618150472641,
        -0.0978093221783638,
        -0.024660900235176086,
        0.06513842195272446,
        0.12225892394781113,
        0.17141273617744446,
        0.1547708511352539,
        0.0006105603533796966,
        0.05618423968553543,
        0.19040055572986603,
        0.027679525315761566,
        -0.05254323035478592,
        0.04876294359564781,
        0.019184425473213196,
        0.08844342827796936,
        -0.13120494782924652,
        0.15946274995803833,
        0.14894013106822968,
        -0.05075360834598541,
        0.03416144475340843,
        0.26441752910614014,
        0.18060454726219177,
        0.08396423608064651,
        0.0620289072394371,
        -0.17353640496730804,
        0.06392649561166763,
        0.12513408064842224,
        0.1634228527545929,
        -0.0341990664601326,
        -0.19047363102436066,
        -0.13949860632419586,
        -0.2036033570766449,
        0.05653158575296402,
        -0.04614577069878578,
        0.15467146039009094,
        0.03731595352292061,
        -0.06366991996765137,
        -0.17416605353355408,
        0.12260487675666809,
        0.01601995714008808,
        -0.13159450888633728,
        0.11216317862272263,
        -0.30372753739356995,
        0.0689006894826889,
        -0.07948604971170425,
        0.09057163447141647,
        0.1214921697974205,
        0.16421446204185486,
        0.04044963791966438,
        0.09529247134923935,
        -0.1824532151222229,
        0.08324264734983444,
        -0.20568646490573883,
        -0.2120763510465622,
        0.03529893606901169,
        0.2069527506828308,
        0.1263004094362259,
        -0.1608188897371292,
        0.047336395829916,
        -0.1263282299041748,
        -0.06709183752536774,
        0.08525416254997253,
        0.0391300730407238,
        -0.13440431654453278,
        -0.005868727806955576,
        -0.036501768976449966,
        0.1530403196811676,
        -0.016466818749904633,
        -0.19466127455234528,
        0.007324818056076765,
        -0.06074456870555878,
        -0.06895812600851059,
        -0.28841856122016907,
        0.10855682939291,
        0.024220239371061325,
        -0.02661982737481594,
        0.13376551866531372,
        0.06281974911689758,
        0.09818857163190842,
        0.05094737187027931,
        0.16905830800533295,
        -0.12371101975440979,
        -0.09496592730283737,
        -0.12566524744033813,
        -0.13159243762493134,
        0.07410036772489548,
        0.08568126708269119,
        -0.014954682439565659,
        -0.2733559012413025,
        -0.14168043434619904,
        0.013452194631099701,
        0.08580256998538971,
        -0.10524982213973999,
        0.11661870777606964,
        -0.07965308427810669,
        -0.10703430324792862,
        -0.04670940712094307,
        0.08282563835382462,
        -0.17340508103370667,
        -0.002629348309710622,
        -0.19222338497638702,
        0.2096717804670334,
        0.2537156343460083,
        -0.1795053333044052,
        0.20058776438236237,
        -0.023580340668559074,
        -0.1984601616859436,
        0.13527627289295197,
        -0.27424201369285583,
        -0.010653501376509666,
        0.016241641715168953,
        0.07417070865631104,
        0.16857802867889404,
        -0.14844612777233124,
        -0.0430544838309288,
        0.16523729264736176,
        0.19677646458148956,
        0.08938950300216675,
        -0.1396200805902481,
        0.11374710500240326,
        0.059423189610242844,
        -0.2560579478740692,
        0.12880313396453857,
        -0.05477597936987877,
        0.016319477930665016,
        -0.10191723704338074,
        0.2014492303133011,
        -0.023099740967154503,
        0.19787107408046722,
        -0.11135677248239517,
        0.11013389378786087,
        0.2681839168071747,
        0.10535673797130585,
        0.20972973108291626,
        -0.11266013979911804,
        0.11276200413703918,
        -0.12377937883138657,
        0.04579152166843414,
        0.07811996340751648,
        -0.08848285675048828,
        -0.09574146568775177,
        -0.23546606302261353,
        -0.20305609703063965,
        0.027272049337625504,
        0.11402873694896698,
        0.016321057453751564,
        0.003097428707405925,
        -0.11766987293958664,
        0.13084636628627777,
        -0.25499993562698364,
        -0.13668879866600037,
        0.10244296491146088,
        -0.1894904226064682,
        0.16198189556598663,
        0.049535833299160004,
        -0.05411500483751297,
        -0.09221915900707245,
        0.020338688045740128,
        -0.10285981744527817,
        -0.06694331020116806,
        0.1750253587961197,
        -0.003296676790341735,
        -0.10594549775123596,
        -0.08928175270557404,
        0.0024318406358361244,
        0.0814596638083458,
        -0.12309757620096207,
        -0.15873992443084717,
        0.14570225775241852,
        -0.21114495396614075,
        -0.08601868152618408,
        0.047623973339796066,
        0.12327120453119278,
        -0.08170359581708908,
        0.07830759137868881,
        0.2703227400779724,
        0.319237619638443,
        -0.08665329217910767,
        -0.19715657830238342,
        -0.11048990488052368,
        0.04951857402920723,
        0.032417334616184235,
        -0.09527130424976349,
        0.022656189277768135,
        0.16052426397800446,
        -0.05557933822274208,
        -0.15249045193195343,
        -0.20437029004096985,
        0.18549813330173492,
        0.1536092758178711,
        0.11230019479990005,
        0.26596730947494507,
        -0.06972948461771011,
        -0.006912691984325647,
        -0.04382579028606415,
        -0.023388167843222618,
        0.1991504579782486,
        -0.004766806960105896,
        -0.1473226696252823,
        0.02938803844153881,
        -0.040121059864759445,
        -0.032161060720682144,
        -0.040948089212179184,
        -0.002914831507951021,
        0.11274554580450058,
        0.030652370303869247,
        -0.010177354328334332,
        0.13492079079151154,
        0.046130090951919556,
        -0.18281517922878265,
        0.1724519431591034,
        0.1753084361553192,
        0.05105872452259064,
        -0.05403275787830353,
        -0.2957485318183899,
        0.01478199940174818,
        0.24231575429439545,
        -0.29643377661705017,
        -0.23141281306743622,
        -0.14193226397037506,
        0.00898576620966196,
        0.20738622546195984,
        -0.3248068690299988,
        0.03147369250655174,
        -0.02815706469118595,
        -0.07229030132293701,
        -0.22248482704162598,
        -0.062213167548179626,
        -0.017800774425268173,
        -0.1383499801158905,
        0.06788814067840576,
        0.0031209576409310102,
        -0.09771963208913803,
        -0.029843823984265327,
        0.10148084908723831,
        0.01672586053609848,
        0.13413774967193604,
        0.11973729729652405,
        0.05191756784915924,
        -0.2454412430524826,
        0.1337563842535019,
        -0.21908146142959595,
        0.0100163035094738,
        -0.30238887667655945,
        0.05850314348936081,
        -0.10666131973266602,
        -0.06317723542451859,
        -0.08382491767406464,
        0.04807496443390846,
        0.0010490062413737178,
        -0.20712429285049438,
        0.03236275911331177,
        0.06477805972099304,
        0.18707536160945892,
        -0.015303246676921844,
        -0.19059613347053528,
        0.04579960182309151,
        -0.017987936735153198,
        -0.06613506376743317,
        0.07425204664468765,
        -0.1768810898065567,
        -0.01050889864563942,
        0.039378199726343155,
        0.19023558497428894,
        0.0257177222520113,
        -0.0851016640663147,
        -0.002271726494655013,
        -0.09421936422586441,
        0.1704026609659195,
        -0.07233963906764984,
        -0.17419709265232086,
        -0.22614097595214844,
        -0.02808273769915104,
        -0.1422465443611145,
        0.12043517827987671,
        0.34227123856544495,
        0.039805103093385696,
        0.023391857743263245,
        -0.20694378018379211,
        0.1360926628112793,
        -0.07716584205627441,
        0.07366934418678284,
        -0.11943526566028595,
        -0.21587194502353668,
        0.18459568917751312,
        -0.04792279005050659,
        0.20874807238578796,
        0.0570954754948616,
        -0.02191201224923134,
        -0.04361958056688309,
        -0.0759923905134201,
        -0.07653425633907318,
        0.14163336157798767,
        -0.0010978489881381392,
        -0.22498176991939545,
        -0.13084883987903595,
        0.08780129253864288,
        -0.07272381335496902,
        0.061634380370378494,
        0.07747672498226166,
        0.06413417309522629,
        -0.10709390044212341,
        0.1379702389240265,
        -0.1077045202255249,
        0.1773827224969864,
        -0.2666681706905365,
        0.2676961123943329,
        -0.2061929702758789,
        -0.022103309631347656,
        0.09942642599344254,
        -0.09529174864292145,
        0.2772485911846161,
        0.059848032891750336,
        0.08200109750032425,
        0.1419721245765686,
        0.2004249542951584,
        -0.3922344148159027,
        0.0780317559838295,
        0.05553422495722771,
        0.024604586884379387,
        -0.08410584926605225,
        -0.01805225759744644,
        -0.06605877727270126,
        0.30412042140960693,
        -0.20901639759540558,
        -0.011454860679805279,
        -0.18864820897579193,
        0.246196910738945,
        0.1126680076122284,
        0.07230155169963837,
        -0.2710391879081726,
        -0.1676701456308365,
        -0.07888907939195633,
        0.0026366335805505514,
        0.033407557755708694,
        -0.11478986591100693,
        0.10685054212808609,
        -0.09407971054315567,
        -0.008199267089366913,
        -0.027140310034155846,
        -0.13865947723388672,
        0.14610032737255096,
        -0.115474633872509,
        0.221255362033844,
        -0.15150606632232666,
        -0.1445910930633545,
        0.018118560314178467,
        0.02333356812596321,
        0.1424144208431244,
        0.06186661496758461,
        0.07853908091783524,
        -0.053749118000268936,
        0.08054163306951523,
        0.10938861221075058,
        -0.12985621392726898,
        0.19633276760578156,
        0.2157745659351349,
        0.034200455993413925,
        0.08284242451190948,
        0.14547903835773468,
        -0.14102473855018616,
        -0.08157841861248016,
        0.050586748868227005,
        0.17007286846637726,
        0.034607309848070145,
        -0.02779971994459629,
        0.13468094170093536,
        -0.1456524282693863,
        -0.017481384798884392,
        0.10717985779047012,
        0.06868276000022888,
        -0.1304028332233429,
        -0.062013547867536545,
        -0.0387321375310421,
        0.023258335888385773,
        -0.042949240654706955,
        -0.20608924329280853,
        -0.0542999766767025,
        -0.09462419897317886,
        0.06797780841588974,
        0.1371796578168869,
        -0.3180082142353058,
        0.0830351710319519,
        -0.27606356143951416,
        0.17350071668624878,
        -0.12059462070465088,
        0.26632654666900635,
        -0.31908509135246277,
        -0.007123805116862059,
        0.14025291800498962,
        -0.22757941484451294,
        -0.13827462494373322,
        0.1978410929441452,
        0.08586396276950836,
        0.10436328500509262,
        0.040958501398563385,
        -0.06173032149672508,
        0.10145529359579086,
        0.11117564141750336,
        0.03701602667570114,
        -0.03488485887646675,
        0.09618033468723297,
        -0.1584124118089676,
        0.024697082117199898,
        0.0763605535030365,
        0.03323959931731224,
        -0.2396264523267746,
        -0.17703981697559357,
        0.12093368917703629,
        0.04575379192829132,
        0.06458073109388351,
        0.23014886677265167,
        -0.03508608788251877,
        -0.08992069959640503,
        -0.10040144622325897,
        -0.06263159215450287,
        -0.48973706364631653,
        -0.07187598943710327,
        0.11101929843425751,
        -0.044912442564964294,
        -0.015432700514793396,
        -0.12893402576446533,
        0.03563319891691208,
        0.002155599184334278,
        0.06929159164428711,
        0.12732650339603424,
        -0.12315431982278824,
        -0.1280704289674759,
        -0.09280125796794891,
        0.23469990491867065,
        -0.13781951367855072,
        -0.1778179258108139,
        -0.007956779561936855,
        0.22737541794776917,
        0.1324601173400879,
        0.13746148347854614,
        0.1361224204301834,
        -0.023701585829257965,
        0.23269535601139069,
        -0.007251895498484373,
        0.040072355419397354,
        -0.4069192111492157,
        -0.2080594152212143,
        0.2233555167913437,
        -0.15945786237716675,
        0.13974493741989136,
        0.14520645141601562,
        -0.13033591210842133,
        -0.1976131647825241,
        0.2222338765859604,
        -0.19585774838924408,
        0.09353936463594437,
        -0.07587176561355591,
        -0.19217002391815186,
        -0.01850839890539646,
        -0.20216774940490723,
        0.0005824005929753184,
        0.055801015347242355,
        0.06333818286657333,
        0.1533270627260208,
        -0.058592040091753006,
        -0.062005992978811264,
        -0.14330264925956726,
        -0.14446495473384857,
        0.0498037226498127,
        -0.1868821382522583,
        0.08091100305318832,
        0.11185024678707123,
        0.005142922978848219,
        -0.26730766892433167,
        -0.022266890853643417,
        -0.16605661809444427,
        0.007863352075219154,
        0.002659908030182123,
        0.14459334313869476,
        0.34523805975914,
        0.04999293014407158,
        0.07844823598861694,
        0.07412946969270706,
        0.029019411653280258,
        0.11439372599124908,
        -0.10642646253108978,
        0.10705383121967316,
        -0.01537829078733921,
        -0.032364606857299805,
        0.14403752982616425,
        0.06606858223676682,
        0.1534622609615326,
        0.06740012019872665,
        -0.03771422430872917,
        0.034504830837249756,
        0.15333424508571625,
        0.053545307368040085,
        -0.14035415649414062,
        -0.28657111525535583,
        0.2386915236711502,
        -0.05915825814008713,
        0.10634460300207138,
        -0.0075902873650193214,
        0.17225874960422516,
        0.015067452564835548,
        0.25754275918006897,
        0.06518445909023285,
        0.10997136682271957,
        0.19878414273262024,
        0.13219331204891205,
        0.013749927282333374,
        0.019351033493876457,
        -0.13109485805034637,
        0.20675987005233765,
        -0.12770578265190125,
        0.03125126287341118,
        0.07323289662599564,
        0.20383495092391968,
        0.04089025780558586,
        -0.04799218848347664,
        0.11695848405361176,
        -0.03416056931018829,
        -0.15386871993541718,
        0.0010826282668858767,
        0.1336432546377182,
        0.20239093899726868,
        -0.0415349155664444,
        -0.04828503355383873,
        -0.05316369608044624,
        -0.052012987434864044,
        -0.11940513551235199,
        -0.20154796540737152,
        0.17614084482192993,
        -0.05095465108752251,
        -0.015376651659607887,
        0.053711988031864166,
        -0.2647908627986908,
        0.004208798054605722,
        -0.08297862112522125,
        -0.18783581256866455,
        -0.09543308615684509,
        0.08062617480754852,
        0.17271818220615387,
        -0.04087844863533974,
        -0.08909283578395844,
        0.09341514110565186,
        -0.15634244680404663,
        0.12685230374336243,
        0.06431695073843002,
        0.2465040236711502,
        -0.0376749224960804,
        0.265306293964386,
        0.03452744707465172,
        0.032560236752033234,
        -0.059822067618370056,
        0.2846541702747345,
        0.18570005893707275,
        0.1556263417005539,
        -0.054209452122449875,
        -0.10521160066127777,
        -0.12159290909767151,
        -0.07242106646299362,
        -0.10949923098087311,
        0.1598856896162033,
        -0.15680834650993347,
        0.03358170762658119,
        -0.07762964814901352,
        -0.17940598726272583,
        -0.06786608695983887,
        0.11103618890047073,
        -0.040713656693696976,
        0.04726804420351982,
        0.08405463397502899,
        -0.1398065835237503,
        -0.09991734474897385,
        0.08396750688552856,
        -0.016247402876615524,
        0.04770612344145775,
        0.002746660728007555,
        0.015637105330824852,
        -0.07503626495599747,
        0.1833052933216095,
        0.05318200960755348,
        -0.10990148037672043,
        -0.03524120897054672,
        -0.06641601771116257,
        0.030233081430196762,
        -0.02279665321111679,
        -0.23528777062892914,
        -0.024627940729260445,
        0.05668255314230919,
        0.029858160763978958,
        -0.04537239298224449,
        -0.1606968492269516,
        -0.16050036251544952,
        0.06520410627126694,
        0.06475207209587097,
        0.09569716453552246,
        -0.008612971752882004,
        -0.05551609769463539,
        -0.19230492413043976,
        0.01015641912817955,
        -0.025320623070001602,
        -0.018743326887488365,
        -0.19280566275119781,
        0.006162966601550579,
        0.041786786168813705,
        0.02923355996608734,
        -0.35999587178230286,
        -0.10162172466516495,
        0.021945975720882416,
        -0.04142097011208534,
        -0.08098991215229034,
        0.02382228709757328,
        -0.12547215819358826,
        -0.249735489487648,
        0.01927078701555729,
        0.15974365174770355,
        -0.2646990120410919,
        -0.0776241198182106,
        0.10090585052967072,
        -0.004338541533797979,
        0.05175801366567612,
        0.14907673001289368,
        -0.06756723672151566,
        0.12383071333169937,
        -0.1487119048833847,
        -0.03635736554861069,
        -0.15102820098400116,
        0.046987418085336685,
        0.2346642017364502,
        -0.17568059265613556,
        -0.29854822158813477,
        0.0652671530842781,
        0.14700356125831604,
        0.11139021068811417,
        0.23587991297245026,
        -0.20834480226039886,
        -0.05293571576476097,
        0.18771353363990784,
        0.18249770998954773,
        -0.09229451417922974,
        0.2077757716178894,
        -0.029352007433772087,
        0.015070535242557526,
        0.00806998461484909,
        0.06371251493692398,
        0.03391166403889656,
        -0.08571938425302505,
        -0.2893677353858948,
        -0.18594865500926971,
        0.05962774157524109,
        -0.004006714094430208,
        -0.037612807005643845,
        -0.005383808631449938,
        0.18977288901805878,
        -0.027922511100769043,
        0.016622865572571754,
        0.09642259031534195,
        -0.047690168023109436,
        -0.1413087099790573,
        -0.06525011360645294,
        0.015342486090958118,
        0.2295987457036972,
        -0.07922381907701492,
        0.1292455792427063,
        -0.11536245793104172,
        0.2508746087551117,
        -0.21361449360847473,
        0.1898658126592636,
        0.08920629322528839,
        -0.30178865790367126,
        0.1578313261270523,
        0.12294737994670868,
        -0.030366946011781693,
        -0.23220975697040558,
        0.1581217348575592,
        0.14897361397743225,
        -0.03779938071966171,
        0.05900735408067703,
        0.004522846546024084,
        -0.044820547103881836,
        0.3086274266242981,
        -0.11883401870727539,
        0.3574298024177551,
        0.20800745487213135,
        0.032901082187891006,
        -0.09885377436876297,
        0.20099744200706482,
        0.04380976781249046,
        -0.07477666437625885,
        -0.2902340590953827,
        -0.004753139801323414,
        -0.040893763303756714,
        -0.048645492643117905,
        -0.17426393926143646,
        -0.09677138179540634,
        0.22116264700889587,
        -0.15035247802734375,
        -0.17221330106258392,
        0.11081711947917938,
        0.144857719540596,
        -0.15960639715194702,
        -0.022308195009827614,
        -0.16689695417881012,
        -0.04080202057957649,
        -0.1927274912595749,
        -0.2701033353805542,
        0.13493210077285767,
        0.00423064362257719,
        -0.010712808929383755,
        0.08883648365736008,
        0.14927102625370026,
        -0.07848543673753738,
        -0.06479677557945251,
        0.025447148829698563,
        0.12135268747806549,
        0.15286025404930115,
        0.10634689778089523,
        -0.09357690811157227,
        0.03836929053068161,
        0.08121167868375778,
        0.02433781884610653,
        -0.09448491781949997,
        -0.13150793313980103,
        0.18379193544387817,
        -0.09382495284080505,
        -0.13532502949237823,
        0.10357659310102463,
        -0.16959241032600403,
        0.09920676797628403,
        -0.16348174214363098,
        -0.06935692578554153,
        0.05018414184451103,
        -0.11119737476110458,
        -0.06187625974416733,
        0.0846538171172142,
        -0.2034478783607483,
        -0.10319764167070389,
        -0.12628260254859924,
        0.0797494426369667,
        0.17276106774806976,
        0.05861550197005272,
        -0.08308539539575577,
        0.07693976908922195,
        -0.13050846755504608,
        0.12429248541593552,
        0.21834726631641388,
        0.14000776410102844,
        -0.1387932151556015,
        -0.16238753497600555,
        0.1420450657606125,
        0.14681680500507355,
        -0.12071021646261215,
        0.03259634971618652,
        -0.07173439115285873,
        0.07262488454580307,
        -0.0020866028498858213,
        0.02506839856505394,
        -0.15361128747463226,
        -0.007585916202515364,
        -0.1338648796081543,
        0.05371694639325142,
        -0.1287863552570343,
        0.1456831991672516,
        -0.018678033724427223,
        0.08796810358762741,
        0.10931001603603363,
        0.2564209997653961,
        0.1919160932302475,
        0.07652194797992706,
        -0.33356773853302,
        0.006075688637793064,
        -0.17593081295490265,
        0.008066195994615555,
        -0.1942998468875885,
        -0.14720766246318817,
        -0.06637085974216461,
        0.27413856983184814,
        -0.09706053882837296,
        0.11851252615451813,
        0.0805974081158638,
        0.17718003690242767,
        -0.24190707504749298,
        -0.08082051575183868,
        -0.019981393590569496,
        0.059901174157857895,
        -0.08746307343244553,
        -0.07961561530828476,
        -0.2372562438249588,
        0.10855018347501755,
        0.010192187502980232,
        0.04123049974441528,
        0.007027771789580584,
        -0.04485912248492241,
        0.11698053032159805,
        0.050086766481399536,
        -0.006338769569993019,
        -0.12090374529361725,
        -0.023292507976293564,
        -0.06439920514822006,
        0.09729887545108795,
        0.20102544128894806,
        0.027369193732738495,
        -0.05472508817911148,
        -0.044267646968364716,
        -0.16611605882644653,
        0.11164999008178711,
        0.05718351900577545,
        -0.14412467181682587,
        -0.0017863253597170115,
        0.10651370137929916,
        0.04975951090455055,
        0.11223848164081573,
        -0.028337690979242325,
        -0.14479191601276398,
        -0.015344086103141308,
        -0.021089497953653336,
        -0.0016230354085564613,
        0.012025217525660992,
        0.2249479442834854,
        -0.10282377153635025,
        -0.20577552914619446,
        0.09001032263040543,
        0.09598555415868759,
        -0.10337330400943756,
        0.0912570133805275,
        0.16535989940166473,
        -0.01125115156173706,
        0.09908980131149292,
        0.2247139811515808,
        -0.17558954656124115,
        -0.03506016731262207,
        -0.17089565098285675,
        0.07460326701402664,
        -0.11747820675373077,
        -0.00669228145852685,
        -0.33537572622299194,
        -0.22010836005210876,
        0.0751505196094513,
        -0.16949647665023804,
        0.05726040154695511,
        -0.15357893705368042,
        0.014991802163422108,
        0.04669223353266716,
        -0.06093459576368332,
        -0.12602923810482025,
        0.11036033928394318,
        -0.0027014738880097866,
        0.1529669463634491,
        0.1425517201423645,
        -0.12806731462478638,
        -0.13203205168247223,
        -0.12374374270439148,
        -0.10807352513074875,
        0.24565398693084717,
        -0.05278242006897926,
        -0.275454044342041,
        -0.051225800067186356,
        0.1832408756017685,
        -0.020892690867185593,
        0.012197314761579037,
        -0.156254842877388,
        -0.03065105341374874,
        -0.013405276462435722,
        -0.21384945511817932,
        -0.0063419947400689125,
        -0.09001469612121582,
        -0.08630918711423874,
        0.009578668512403965,
        0.18119460344314575,
        -0.1699400395154953,
        -0.005503717809915543,
        -0.16760964691638947,
        -0.020008634775877,
        0.052346810698509216,
        -0.15831038355827332,
        0.004697919823229313,
        0.024856114760041237,
        0.062332313507795334,
        0.08903275430202484,
        0.11390957236289978,
        0.2102227658033371,
        0.19632965326309204,
        0.08570364862680435,
        0.043902862817049026,
        0.08022952824831009,
        -0.01799253188073635,
        0.09423912316560745,
        0.029581062495708466,
        0.05282888934016228,
        0.1302230954170227,
        -0.21924684941768646,
        0.1615646481513977,
        -0.12024480104446411,
        0.06201000511646271,
        -0.06310778856277466,
        0.019398236647248268,
        -0.19765028357505798,
        0.10244037955999374,
        0.15578146278858185,
        -0.03312616050243378,
        0.09194795042276382,
        0.24633900821208954,
        0.0915437787771225,
        -0.05993920564651489,
        0.22868086397647858,
        0.06519673764705658,
        0.07617862522602081,
        0.21273276209831238,
        0.004332954529672861,
        0.15629176795482635,
        0.02628399059176445,
        0.07275909185409546,
        0.1545170247554779,
        -0.024353479966521263,
        0.045039933174848557,
        -0.04953047260642052,
        0.10842310637235641,
        0.26208609342575073,
        0.04128516465425491,
        0.17606596648693085,
        0.09299299120903015,
        -0.05284152179956436,
        -0.20035859942436218,
        0.09614747762680054,
        0.16398946940898895,
        0.1859990805387497,
        0.36882147192955017,
        0.029811205342411995,
        -0.14051616191864014,
        -0.1821030080318451,
        0.018161818385124207,
        0.034393150359392166,
        -0.17540296912193298,
        0.1278051882982254,
        -0.07489154487848282,
        -0.08984977006912231,
        0.07172293961048126,
        -0.05697221681475639,
        -0.2835003137588501,
        -0.242197647690773,
        0.021121615543961525,
        -0.0052802166901528835,
        -0.11810634285211563,
        -0.017681267112493515,
        -0.13602784276008606,
        -0.11585839837789536,
        -0.029010754078626633,
        -0.06751509010791779,
        0.13877546787261963,
        0.23533089458942413,
        -0.05725347250699997,
        0.010653314180672169,
        0.1328764408826828,
        -0.1766097992658615,
        0.1759333610534668,
        0.0973258763551712,
        0.11745263636112213,
        -0.2097950577735901,
        -0.20497974753379822,
        0.04507496953010559,
        -0.14883074164390564,
        0.23047961294651031,
        -0.1497856080532074,
        0.029505258426070213,
        -0.18112201988697052,
        0.18698930740356445,
        0.1206287071108818,
        0.03511727973818779,
        -0.19737742841243744,
        -0.002374764997512102,
        -0.11854097247123718,
        0.06698447465896606,
        -0.030949626117944717,
        -0.14802129566669464,
        0.20494936406612396,
        -0.22077447175979614,
        -0.25926023721694946,
        0.06258711218833923,
        0.07129797339439392,
        0.060342080891132355,
        0.009827367961406708,
        0.2146606594324112,
        0.09863584488630295,
        -0.11156930774450302,
        -0.05873588100075722,
        0.07599478214979172,
        0.2682948410511017,
        0.11313726752996445,
        -0.08199191093444824,
        0.05943939834833145,
        -0.020163821056485176,
        0.05820121988654137,
        -0.06378223747015,
        -0.1355619728565216,
        0.2812841534614563,
        -0.03295031562447548,
        -0.02468516305088997,
        -0.04829265549778938,
        0.15856261551380157,
        -0.1647990494966507,
        -0.06364210695028305,
        0.21832269430160522,
        -0.02191813662648201,
        -0.010556718334555626,
        0.1492501050233841,
        0.12922292947769165,
        0.17207077145576477,
        -0.09225405007600784,
        -0.13806644082069397,
        -0.13210055232048035,
        -0.03054622747004032,
        -0.16742464900016785,
        0.24540534615516663,
        -0.02016552910208702,
        0.11963362991809845,
        -0.017935464158654213,
        -0.028381669893860817,
        0.1169794350862503,
        0.06668710708618164,
        -0.12488614022731781,
        0.15594801306724548,
        0.10332796722650528,
        0.030809752643108368,
        0.20953623950481415,
        0.10013626515865326,
        0.0006253637839108706,
        0.06974175572395325,
        -0.25489041209220886,
        0.18070615828037262,
        0.01578809693455696,
        -0.20932459831237793,
        -0.0490456186234951,
        -0.20788848400115967,
        0.037262655794620514,
        -0.129690483212471,
        -0.27844861149787903,
        0.039080649614334106,
        0.014221674762666225,
        -0.09400686621665955,
        0.10319406539201736,
        -0.021326184272766113,
        0.08507544547319412,
        0.18010610342025757,
        -0.01548116747289896,
        0.04720757529139519,
        -0.08688537776470184,
        0.13444939255714417,
        -0.09474482387304306,
        0.02950768917798996,
        -0.22396308183670044,
        0.06502430140972137,
        -0.024606959894299507,
        -0.10990125685930252,
        -0.15816150605678558,
        -0.22181984782218933,
        -0.009477471932768822,
        -0.04067122936248779,
        -0.29066166281700134,
        -0.07526786625385284,
        -0.009148986078798771,
        -0.026054032146930695,
        0.18760375678539276,
        -0.16589142382144928,
        0.09440760314464569,
        0.0628255158662796,
        0.018239662051200867,
        -0.046522676944732666,
        -0.11801251769065857,
        0.30552080273628235,
        -0.04960966855287552,
        -0.019626589491963387,
        0.19106225669384003,
        -0.03911646828055382,
        0.1345105916261673,
        0.04898793250322342,
        -0.19180065393447876,
        0.11531871557235718,
        -0.12717339396476746,
        0.09468545764684677,
        0.1868850588798523,
        -0.09881210327148438,
        0.04038750380277634,
        -0.01474068220704794,
        0.11304192990064621,
        0.15270216763019562,
        0.09657640755176544,
        -0.24176697432994843,
        0.0008820770308375359,
        -0.15990009903907776,
        0.17849579453468323,
        -0.0032048330176621675,
        0.13802330195903778,
        -0.108334980905056,
        0.1763870120048523,
        -0.033714666962623596,
        0.3320132791996002,
        -0.05752047896385193,
        -0.09178050607442856,
        0.055265579372644424,
        -0.10131903737783432,
        0.04669436812400818,
        -0.09355751425027847,
        -0.0069502065889537334,
        -0.21479088068008423,
        -0.035668808966875076,
        -0.14173470437526703,
        -0.004609876312315464,
        -0.09295769780874252,
        0.2055804580450058,
        -0.02112795226275921,
        0.15952162444591522,
        0.21214038133621216,
        -0.02777632512152195,
        0.08859288692474365,
        0.03965015336871147,
        -0.2798544764518738,
        0.16945047676563263,
        -0.10812617838382721,
        -0.10243123024702072,
        -0.002641371451318264,
        0.24047088623046875,
        0.17130348086357117,
        -0.08811461925506592,
        0.1579851508140564,
        0.025427810847759247,
        -0.1553211659193039,
        -0.12883824110031128,
        0.13794966042041779,
        0.20434004068374634,
        -0.04305483028292656,
        -0.24040576815605164,
        -0.1740071177482605,
        0.12597854435443878,
        -0.0562935434281826,
        0.017219219356775284,
        -0.015052751637995243,
        0.16072842478752136,
        0.24627304077148438,
        -0.020956363528966904,
        -0.0577896386384964,
        0.15131093561649323,
        0.1779479831457138,
        -0.1777583658695221,
        0.08774400502443314,
        0.133243128657341,
        -0.14066240191459656,
        -0.11063962429761887,
        -0.029894448816776276,
        -0.18189875781536102,
        -0.01735514961183071,
        -0.05150860548019409,
        -0.11311765015125275,
        -0.0798465684056282,
        -0.38709452748298645,
        -0.2169819474220276,
        0.03079015575349331,
        0.030507942661643028,
        0.08202744275331497,
        0.10707914084196091,
        -0.054987356066703796,
        -0.018135355785489082,
        -0.05465162172913551,
        0.05800667032599449,
        0.18527527153491974,
        0.11936140805482864,
        -0.06340623646974564,
        -0.04604237526655197,
        -0.03723132237792015,
        0.08224138617515564,
        0.23213563859462738,
        -0.18393859267234802,
        -0.24292321503162384,
        -0.1802496612071991,
        0.1855808049440384,
        -0.09522014856338501,
        0.05412701144814491,
        0.12276976555585861,
        0.01950141042470932,
        -0.18675464391708374,
        -0.06604735553264618,
        0.2047102004289627,
        0.11704664677381516,
        0.11632315814495087,
        -0.0730053186416626,
        0.21909509599208832,
        -0.06225162371993065,
        -0.1564141809940338,
        0.09865225851535797,
        -0.148774653673172,
        -0.05585592985153198,
        0.1042577251791954,
        0.12762682139873505,
        0.04509853571653366,
        -0.12217997014522552,
        0.11231591552495956,
        0.03389235585927963,
        0.09873957186937332,
        -0.06962078809738159,
        -0.10923082381486893,
        -0.04138774797320366,
        0.08140475302934647,
        0.12148823589086533,
        -0.17076627910137177,
        -0.09496724605560303,
        -0.042640455067157745,
        0.11356986314058304,
        -0.004836957901716232,
        0.03801446780562401,
        0.16967453062534332,
        -0.043217308819293976,
        0.06954116374254227,
        -0.10903387516736984,
        0.15652668476104736,
        -0.2439764440059662,
        -0.14884622395038605,
        0.0024242422077804804,
        -0.00017436116468161345,
        0.07934825867414474,
        0.09572050720453262,
        0.058478303253650665,
        0.15891753137111664,
        -0.3241252899169922,
        0.22335165739059448,
        -0.09084217995405197,
        -0.14637130498886108,
        0.24251331388950348,
        0.15122246742248535,
        -0.1982073038816452,
        -0.2226991355419159,
        -0.11509934067726135,
        0.07825879007577896,
        0.10579347610473633,
        -0.3210701644420624,
        0.007723003160208464,
        0.19492822885513306,
        0.16091524064540863,
        -0.21732741594314575,
        -0.019491281360387802,
        -0.08192723244428635,
        -0.1570395976305008,
        0.12356478720903397,
        -0.17011399567127228,
        -0.19502891600131989,
        0.14982113242149353,
        0.06903642416000366,
        0.1237676665186882,
        0.2249877005815506,
        -0.10034199059009552,
        0.10357983410358429,
        0.14612965285778046,
        -0.1471966654062271,
        0.041783761233091354,
        0.0027186900842934847,
        0.03459542617201805,
        0.14988283812999725,
        -0.2475184053182602,
        0.028605511412024498,
        -0.15625230967998505,
        0.020153257995843887,
        0.04158611595630646,
        0.08933958411216736,
        -0.043036021292209625,
        -0.2639220952987671,
        -0.13917751610279083,
        0.036429908126592636,
        0.10320426523685455,
        -0.14303728938102722,
        0.04531096667051315,
        -0.04102200269699097,
        -0.16554078459739685,
        0.014475907199084759,
        -0.22737011313438416,
        0.1744404137134552,
        -0.14570167660713196,
        -0.16100025177001953,
        -0.20888596773147583,
        0.015040501952171326,
        -0.00445209676399827,
        0.03608769550919533,
        0.10076263546943665,
        0.011979572474956512,
        0.11769189685583115,
        0.07830633223056793,
        0.11303374916315079,
        -0.0501837283372879,
        0.16101372241973877,
        0.10176771879196167,
        -0.03549225255846977,
        -0.05456343665719032,
        0.3288760781288147,
        0.1888273060321808,
        -0.04069004952907562,
        0.14775602519512177,
        0.012864310294389725,
        0.3463383913040161,
        -0.050965651869773865,
        -0.10700348019599915,
        0.02352915331721306,
        0.04484190046787262,
        0.23605230450630188,
        0.0005642710020765662,
        0.018938710913062096,
        -0.08037951588630676,
        -0.1499972641468048,
        0.01032846700400114,
        -0.0762503370642662,
        0.16907468438148499,
        -0.0855877622961998,
        0.1337336152791977,
        0.06759219616651535,
        -0.039833441376686096,
        0.04281222075223923,
        0.02426803484559059,
        -0.2093220055103302,
        -0.03500784561038017,
        -0.15455567836761475,
        -0.027693241834640503,
        -0.19635994732379913,
        0.08175398409366608,
        -0.11648042500019073,
        0.041195422410964966,
        0.1797594577074051,
        -0.13789546489715576,
        -0.1000070869922638,
        -0.04921119287610054,
        0.041434064507484436,
        -0.033441632986068726,
        0.2715000510215759,
        -0.14771130681037903,
        -0.12179139256477356,
        -0.12777337431907654,
        0.3638177812099457,
        0.10134484618902206,
        0.11249993741512299,
        -0.01614886336028576,
        -0.09654773771762848,
        -0.13416701555252075,
        0.005029226187616587,
        -0.023105209693312645,
        -0.21656973659992218,
        -0.029150215908885002,
        -0.05405054986476898,
        0.17288453876972198,
        -0.02422550693154335,
        -0.032523754984140396,
        0.06662998348474503,
        -0.00256848381832242,
        -0.04760364070534706,
        -0.19593948125839233,
        -0.013787897303700447,
        -0.07312370091676712,
        -0.02891857549548149,
        0.1602802872657776,
        0.027468211948871613,
        0.05875619500875473,
        0.19192084670066833,
        0.029042288661003113,
        0.156781405210495,
        0.07143815606832504,
        0.01804772950708866,
        -0.24665367603302002,
        -0.04371270537376404,
        -0.13184493780136108,
        -0.05052876099944115,
        0.1965831220149994,
        0.01869042031466961,
        -0.19418053328990936,
        0.14959564805030823,
        0.07706134021282196,
        0.05593378469347954,
        0.1409641057252884,
        -0.027674507349729538,
        -0.0017029811860993505,
        0.05220905318856239,
        0.21235252916812897,
        0.02551039680838585,
        -0.2536296248435974,
        -0.17575407028198242,
        -0.1868492066860199,
        0.12510080635547638,
        0.046880483627319336,
        -0.01299232803285122,
        0.12856660783290863,
        -0.066029854118824,
        0.020731184631586075,
        0.0663580596446991,
        -0.2916366755962372,
        0.014806819148361683,
        0.09379556030035019,
        0.1201520636677742,
        0.24709291756153107,
        0.27544546127319336,
        0.004472686909139156,
        0.1341894268989563,
        -0.2354636937379837,
        0.07759524136781693,
        0.02501969411969185,
        -0.1261599063873291,
        -0.0687614306807518,
        0.07515256851911545,
        0.1164705902338028,
        -0.05820142477750778,
        -0.04255377873778343,
        0.1525481939315796,
        -0.2632434368133545,
        -0.11214005947113037,
        0.10334806144237518,
        0.15408776700496674,
        0.25869020819664,
        -0.09006807208061218,
        0.17710794508457184,
        0.1741112619638443,
        0.14650848507881165,
        -0.07732489705085754,
        0.033535897731781006,
        -0.1282012164592743,
        -0.2313515841960907,
        -0.024782389402389526,
        0.0234475489705801,
        -0.1280013918876648,
        0.037363678216934204,
        0.07004597038030624,
        -0.046128131449222565,
        0.03035391867160797,
        0.1459793895483017,
        -0.14994971454143524,
        -0.056540220975875854,
        -0.2182416319847107,
        0.15765804052352905,
        -0.11955779045820236,
        0.17105618119239807,
        -0.09113695472478867,
        -0.040114764124155045,
        -0.093375563621521,
        0.13109956681728363,
        -0.27484190464019775,
        -0.00461222231388092,
        0.1340501755475998,
        0.05987159535288811,
        0.2930537164211273,
        -0.020595382899045944,
        -0.09281725436449051,
        0.08262663334608078,
        -0.21576380729675293,
        0.020667947828769684,
        -0.2160520702600479,
        0.10911522805690765,
        -0.16520608961582184,
        -0.13092699646949768,
        0.01730922795832157,
        0.24891029298305511,
        0.0030097048729658127,
        -0.18750518560409546,
        -0.10988067835569382,
        -0.021772922948002815,
        -0.02804241143167019,
        -0.05577872321009636,
        -0.05441054329276085,
        -0.3326488733291626,
        -0.08561813086271286,
        -0.23186446726322174,
        -0.061208806931972504,
        0.19145548343658447,
        0.017744092270731926,
        0.020384442061185837,
        -0.023909075185656548,
        0.01692681387066841,
        0.09188804030418396,
        -0.14654290676116943,
        0.04078441858291626,
        -0.16272105276584625,
        -0.1220841109752655,
        -0.007947100326418877,
        -0.008597764186561108,
        0.06255368143320084,
        -0.10473093390464783,
        -0.07476194202899933,
        0.1383400708436966,
        0.045059990137815475,
        0.16152071952819824,
        0.008910467848181725,
        0.100434310734272,
        -0.16756485402584076,
        0.06090493127703667,
        0.05672987177968025,
        -0.01213068887591362,
        -0.20054462552070618,
        -0.17365662753582,
        0.13966695964336395,
        0.05921154469251633,
        -0.09123329073190689,
        0.1501118391752243,
        0.07660029083490372,
        0.21922703087329865,
        -0.15964940190315247,
        -0.2149934023618698,
        -0.15685191750526428,
        0.22279196977615356,
        -0.13676300644874573,
        -0.058330174535512924,
        0.11653906852006912,
        0.08970330655574799,
        0.04066881909966469,
        0.3633378744125366,
        0.14991232752799988,
        0.07750720530748367,
        0.10880675911903381,
        -0.2601921260356903,
        0.20798249542713165,
        -0.01644257828593254,
        0.25541648268699646,
        0.16031479835510254,
        0.1490403413772583,
        0.11340465396642685,
        -0.031044702976942062,
        -0.029884232208132744,
        0.1346464306116104,
        -0.24414919316768646,
        0.023737844079732895,
        0.07296276092529297,
        0.10663837194442749,
        0.09219025820493698,
        -0.010619211941957474,
        -0.024447714909911156,
        0.00800070445984602,
        -0.1643671989440918,
        0.19210658967494965,
        -0.008705373853445053,
        -0.10751934349536896,
        -0.18878872692584991,
        -0.08300714939832687,
        0.10608368366956711,
        -0.049145545810461044,
        0.1393960416316986,
        -0.14562958478927612,
        0.05139582231640816,
        0.0027368830051273108,
        -0.1440790593624115,
        0.11293356120586395,
        0.14470767974853516,
        -0.13679181039333344,
        -0.04485633224248886,
        -0.19143879413604736,
        0.1875048130750656,
        -0.17236535251140594,
        0.14846764504909515,
        -0.16106213629245758,
        -0.1071280837059021,
        0.05830768123269081,
        -0.0019647448789328337,
        -0.09992936998605728,
        -0.09774855524301529,
        -0.04166631028056145,
        0.09567879140377045,
        -0.06226886063814163,
        -0.08356885612010956,
        0.18401291966438293,
        0.10072555392980576,
        -0.06190535053610802,
        0.050688039511442184,
        0.27344217896461487,
        -0.05075780302286148,
        -0.1614704728126526,
        -0.14849954843521118,
        0.027096524834632874,
        -0.017991961911320686,
        -0.23107506334781647,
        -0.020041104406118393,
        -0.059787265956401825,
        -0.2438984513282776,
        0.1605841964483261,
        0.17615048587322235,
        0.08907197415828705,
        -0.09599397331476212,
        -0.20941215753555298,
        -0.0014658381696790457,
        -0.18514637649059296,
        0.01592090353369713,
        -0.21926037967205048,
        -0.23880471289157867,
        -0.133899986743927,
        -0.17068104445934296,
        0.011674625799059868,
        -0.021154826506972313,
        0.04116661101579666,
        -0.37115591764450073,
        0.08728320896625519,
        -0.014783837832510471,
        -0.06944853067398071,
        -0.22719129920005798,
        -0.10743223875761032,
        0.020754680037498474,
        0.13274453580379486,
        0.05120287835597992,
        0.22614699602127075,
        -0.10744136571884155,
        0.1431693732738495,
        -0.1445995718240738,
        -0.1687983274459839,
        0.056497637182474136,
        -0.06395310908555984,
        -0.1706424504518509,
        -0.08501487225294113,
        -0.002499840222299099,
        0.025337697938084602,
        0.008116028271615505,
        -0.083658866584301,
        -0.027499090880155563,
        0.21749046444892883,
        0.011087139137089252,
        0.021172642707824707,
        0.02822856418788433,
        -0.08892526477575302,
        -0.26157861948013306,
        0.21225781738758087,
        -0.3717384934425354,
        0.1829957216978073,
        0.07571599632501602,
        0.004803038667887449,
        0.11145443469285965,
        0.09272458404302597,
        0.032662492245435715,
        0.004913954064249992,
        -0.17046742141246796,
        -0.1656070053577423,
        0.06891562044620514,
        0.1376325637102127,
        0.10935576260089874,
        -0.02377544529736042,
        0.15005174279212952,
        0.06995797157287598,
        0.15281513333320618,
        -0.0017673746915534139,
        -0.021213527768850327,
        0.11413273960351944,
        -0.15407569706439972,
        0.09331756830215454,
        -0.0304460097104311,
        0.008447454310953617,
        0.1905970275402069,
        0.07010907679796219,
        -0.10428920388221741,
        0.03764793276786804,
        -0.16524866223335266,
        0.12287373095750809,
        0.16059018671512604,
        0.11118023842573166,
        0.1764436960220337,
        0.0866517648100853,
        0.10312902927398682,
        -0.019077777862548828,
        0.15831558406352997,
        0.06691288203001022,
        -0.04305571690201759,
        -0.19788019359111786,
        -0.11872804164886475,
        0.04603125900030136,
        -0.026988549157977104,
        -0.12965497374534607,
        -0.0018573757261037827,
        -0.24647244811058044,
        -0.020619524642825127,
        -0.06901312619447708,
        0.13183924555778503,
        0.22850270569324493,
        -0.033111460506916046,
        0.05783914029598236,
        0.07497331500053406,
        0.0634315088391304,
        -0.18354427814483643,
        -0.14262305200099945,
        0.09757640957832336,
        0.013927550986409187,
        0.1994699239730835,
        -0.09326890110969543,
        -0.20401637256145477,
        -0.0021451222710311413,
        -0.17093797028064728,
        0.32746368646621704,
        -0.16915062069892883,
        -0.18758335709571838,
        -0.14532434940338135,
        -0.0779760405421257,
        0.204954132437706,
        -0.0671953409910202,
        -0.15222693979740143,
        0.009045235812664032,
        -0.19589242339134216,
        0.01644204370677471,
        0.06736385822296143,
        -0.2421928495168686,
        -0.03230111300945282,
        0.1916622817516327,
        0.02422686107456684,
        -0.12309285998344421,
        0.061174992471933365,
        0.01277515571564436,
        0.05185556039214134,
        0.08586443215608597,
        0.014992853626608849,
        0.2550339102745056,
        -0.0025503728538751602,
        -0.08687165379524231,
        0.10273903608322144,
        -0.27186834812164307,
        0.01861877180635929,
        0.1233411580324173,
        -0.09360910952091217,
        -0.02873903699219227,
        0.1464167982339859,
        0.07117608934640884,
        0.019876642152667046,
        -0.18406271934509277,
        0.026716412976384163,
        0.14473837614059448,
        -0.12775231897830963,
        0.03579606115818024,
        0.09064240008592606,
        -0.3207797110080719,
        -0.13710594177246094,
        -0.09758774191141129,
        -0.09922757744789124,
        0.31690236926078796,
        0.03602665290236473,
        -0.08986382186412811,
        0.007960627786815166,
        -0.07253703474998474,
        0.14577557146549225,
        0.17143401503562927,
        0.0199830811470747,
        -0.10325560718774796,
        0.10468742996454239,
        0.3227927088737488,
        0.1486700475215912,
        0.10116688162088394,
        -0.04211234301328659,
        0.004760964307934046,
        -0.06878753006458282,
        0.07570495456457138,
        0.08645273745059967,
        -0.18036232888698578,
        0.04061536490917206,
        0.24462206661701202,
        -0.07381415367126465,
        -0.22712406516075134,
        -0.2195558100938797,
        -0.07494858652353287,
        0.047592345625162125,
        -0.17342530190944672,
        -0.07049226015806198,
        -0.040343038737773895,
        0.0478513278067112,
        0.03640348091721535,
        -0.039026807993650436,
        -0.25120416283607483,
        0.17832060158252716,
        0.0564705953001976,
        -0.15286040306091309,
        0.22207464277744293,
        -0.1769905984401703,
        -0.23572416603565216,
        0.014911501668393612,
        0.021965907886624336,
        0.15320082008838654,
        -0.08048470318317413,
        0.014675015583634377,
        0.10513240098953247,
        -0.10723986476659775,
        0.004712522029876709,
        -0.0863022729754448,
        -0.11104898154735565,
        -0.10052552074193954,
        -0.1891913115978241,
        -0.21367011964321136,
        0.014056035317480564,
        -0.21683137118816376,
        0.06656824797391891,
        0.03593873605132103,
        -0.051943350583314896,
        0.11324029415845871,
        -0.17274120450019836,
        -0.05522380769252777,
        -0.20746640861034393,
        0.06662920862436295,
        -0.07444632053375244,
        0.08054477721452713,
        -0.10049593448638916,
        -0.24633963406085968,
        0.19119253754615784,
        0.12569837272167206,
        0.13266171514987946,
        -0.2489514797925949,
        0.2344086468219757,
        -0.0951157957315445,
        -0.05250175669789314,
        0.12411599606275558,
        0.23752231895923615,
        0.18319933116436005,
        0.1949516087770462,
        0.016317574307322502,
        0.04973441734910011,
        -0.15255242586135864,
        0.07037370651960373,
        0.07206849753856659,
        -0.19753219187259674,
        0.0762082114815712,
        -0.01810031570494175,
        -0.15754716098308563,
        -0.14349275827407837,
        -0.026820534840226173,
        0.056862037628889084,
        -0.04147273302078247,
        -0.01008311752229929,
        0.015896456316113472,
        -0.09649517387151718,
        -0.15053381025791168,
        0.12977318465709686,
        -0.1514509916305542,
        0.03436087444424629,
        0.04497702047228813,
        0.04054299369454384,
        -0.3170662224292755,
        -0.28013306856155396,
        -0.14683747291564941,
        0.007241830229759216,
        -0.3262828290462494,
        -0.08079810440540314,
        -0.04327503591775894,
        0.03723745420575142,
        -0.015800071880221367,
        -0.16483908891677856,
        0.1603722721338272,
        0.12054354697465897,
        0.06385361403226852,
        -0.018474744632840157,
        0.049391210079193115,
        0.07309010624885559,
        -0.3463342785835266,
        -0.10603562742471695,
        0.0705542266368866,
        -0.07113998383283615,
        0.18418608605861664,
        0.08405137807130814,
        -0.15059277415275574,
        -0.012734286487102509,
        0.14321088790893555,
        0.1761082261800766,
        0.16320542991161346,
        -0.17532360553741455,
        0.04573526978492737,
        0.16220101714134216,
        0.052374064922332764,
        0.15988311171531677,
        -0.12500052154064178,
        0.08100483566522598,
        -0.025873171165585518,
        -0.1225016638636589,
        0.03217912092804909,
        -0.19841395318508148,
        -0.04358518123626709,
        0.06129244714975357,
        -0.14864970743656158,
        -0.0447295717895031,
        0.10827117413282394,
        0.01738821715116501,
        0.06532515585422516,
        -0.1028234139084816,
        0.030092306435108185,
        0.05566589906811714,
        0.2706173360347748,
        0.06401509046554565,
        -0.1026846170425415,
        0.14374704658985138,
        0.13095180690288544,
        -0.037264127284288406,
        0.08214569836854935,
        0.0848625972867012,
        0.182585209608078,
        -0.16583338379859924,
        -0.0434977151453495,
        -0.046128857880830765,
        0.09620033949613571,
        -0.21245795488357544,
        0.01494582835584879,
        -0.02493569441139698,
        -0.04945863038301468,
        0.15621548891067505,
        -0.08596091717481613,
        0.173862487077713,
        -0.027696238830685616,
        -0.3048630356788635,
        0.11888458579778671,
        0.13017337024211884,
        0.0059258537366986275,
        -0.24458830058574677,
        -0.1139085590839386,
        -0.04829444736242294,
        0.3535279333591461,
        0.11801017075777054,
        0.15660761296749115,
        0.30278685688972473,
        0.2041860669851303,
        -0.11112694442272186,
        0.04655671492218971,
        0.047776997089385986,
        0.010805642232298851,
        0.08191971480846405,
        0.10963018238544464,
        0.20510287582874298,
        -0.08354547619819641,
        -0.1167210265994072,
        0.08448608219623566,
        0.018082110211253166,
        -0.02125680074095726,
        0.04586280882358551,
        -0.12826022505760193,
        0.014751307666301727,
        -0.038684818893671036,
        0.049852728843688965,
        0.014786473475396633,
        0.19124802947044373,
        -0.20294277369976044,
        -0.042405109852552414,
        0.05624996870756149,
        0.33385178446769714,
        -0.008579318411648273,
        -0.028835488483309746,
        0.1830500364303589,
        0.04495092108845711,
        0.13536156713962555,
        0.16197144985198975,
        0.18338027596473694,
        0.22917863726615906,
        0.14592985808849335,
        0.22527939081192017,
        0.1595408022403717,
        -0.07093650102615356,
        -0.10564849525690079,
        -0.0756441056728363,
        -0.15663407742977142,
        0.05325540527701378,
        0.2827913761138916,
        0.08963550627231598,
        0.026033198460936546,
        0.11830932646989822,
        0.19083860516548157,
        0.01256517693400383,
        0.2554273009300232,
        0.21449483931064606,
        -0.010777757503092289,
        0.06375554203987122,
        -0.17238500714302063,
        0.1864694058895111,
        -0.05724704638123512,
        -0.07450298219919205,
        -0.029107142239809036,
        -0.14263318479061127,
        0.10622846335172653,
        0.0152992382645607,
        -0.22023184597492218,
        -0.23175166547298431,
        -0.12145591527223587,
        0.16084884107112885,
        -0.0572265200316906,
        0.08309006690979004,
        -0.23162107169628143,
        -0.23199045658111572,
        0.08376578986644745,
        0.0899723693728447,
        -0.03117501176893711,
        0.012867875397205353,
        0.25451892614364624,
        0.000995212933048606,
        0.05161557346582413,
        0.15340891480445862,
        -0.09446560591459274,
        -0.0503840334713459,
        -0.03349767252802849,
        -0.1540389508008957,
        0.07005957514047623,
        -0.0038011670112609863,
        0.2650807797908783,
        -0.015255293808877468,
        -0.13343296945095062,
        -0.03589072450995445,
        0.04539181664586067,
        -0.12229173630475998,
        0.17691752314567566,
        -0.06730473041534424,
        0.10051558911800385,
        -0.016271118074655533,
        -0.12616916000843048,
        -0.13749009370803833,
        0.11059407889842987,
        -0.12228123098611832,
        -0.009149529039859772,
        -0.23563453555107117,
        0.04722796753048897,
        -0.10207585245370865,
        0.05526889115571976,
        -0.18794727325439453,
        0.03433174639940262,
        0.027639595791697502,
        0.11832413822412491,
        -0.13843123614788055,
        -0.14629754424095154,
        0.17140570282936096,
        -0.1926100105047226,
        0.01837492547929287,
        0.1738807111978531,
        0.04094766080379486,
        -0.08792097121477127,
        -0.1462392657995224,
        0.1599152535200119,
        0.16827119886875153,
        0.1828257292509079,
        0.10419312864542007,
        -0.1217634305357933,
        0.04925525188446045,
        0.23283889889717102,
        -0.10569440573453903,
        -0.2843404710292816,
        -0.08699700981378555,
        -0.0042741685174405575,
        -0.03174282982945442,
        0.058723147958517075,
        0.219927579164505,
        0.25289785861968994,
        -0.04550169035792351,
        -0.021018698811531067,
        -0.19612300395965576,
        -0.16073057055473328,
        0.09426423162221909,
        -0.17780430614948273,
        0.04421760141849518,
        0.11360130459070206,
        -0.18654006719589233,
        0.010618465021252632,
        -0.0844559296965599,
        0.12853150069713593,
        -0.01343822106719017,
        0.02837979793548584,
        -0.022992033511400223,
        0.08534563332796097,
        -0.2136974036693573,
        -0.10414019227027893,
        0.07821230590343475,
        0.06417243927717209,
        -0.07918509840965271,
        -0.16009309887886047,
        0.17080903053283691,
        -0.032974496483802795,
        0.0357484444975853,
        -0.21492800116539001,
        -0.18573488295078278,
        -0.21399736404418945,
        0.08987345546483994,
        -0.06016327813267708,
        0.11542902886867523,
        0.04492569342255592,
        -0.12297132611274719,
        -0.02623375877737999,
        -0.06494913250207901,
        -0.1443226933479309,
        -0.12323622405529022,
        -0.26919126510620117,
        -0.09731271117925644,
        0.1981225609779358,
        -0.08261462301015854,
        -0.12606856226921082,
        -0.09281802922487259,
        0.06140972301363945,
        -0.04614162817597389,
        0.03005692921578884,
        0.12669295072555542,
        0.13251246511936188,
        0.06550624221563339,
        -0.0748034343123436,
        -0.12247652560472488,
        -0.11875192821025848,
        -0.00039732095319777727,
        0.20946983993053436,
        -0.15317481756210327,
        -0.33907780051231384,
        0.08714855462312698,
        0.0740351751446724,
        0.1308329850435257,
        0.09500987082719803,
        0.001965915085747838,
        -0.0779162049293518,
        -0.25177744030952454,
        0.09267653524875641,
        0.13335418701171875,
        0.07143015414476395,
        0.0005971412174403667,
        0.23273789882659912,
        -0.08936598896980286,
        -0.16609375178813934,
        -0.017059432342648506,
        -0.08356969803571701,
        -0.22040335834026337,
        -0.21551227569580078,
        -0.07713136821985245,
        -0.07999777048826218,
        0.19965915381908417,
        0.09420615434646606,
        -0.2519519627094269,
        -0.18498173356056213,
        -0.11195418238639832,
        0.23488274216651917,
        -0.013770382851362228,
        -0.1656152307987213,
        0.06692972779273987,
        0.018694836646318436,
        0.1620711088180542,
        -0.0021323938854038715,
        0.24079899489879608,
        -0.04254302754998207,
        -0.0972507894039154,
        -0.06234635040163994,
        0.029195930808782578,
        0.06212398409843445,
        -0.010987703688442707,
        0.09422317147254944,
        0.06112189218401909,
        0.28058475255966187,
        0.0028133646119385958,
        -0.14466336369514465,
        -0.2415752112865448,
        -0.2817339599132538,
        0.07363565266132355,
        -0.1543625295162201,
        -0.0656634047627449,
        0.00635958556085825,
        0.19671659171581268,
        0.14930416643619537,
        -0.26552125811576843,
        -0.19673557579517365,
        0.09053857624530792,
        0.04996570944786072,
        0.1568412333726883
      ]
    },
    {
      "architecture": "normalization",
      "bias": [
        -0.4048960208892822,
        0.8487384915351868,
        0.2937758266925812,
        -0.5630049705505371,
        -0.49935710430145264,
        -0.27939265966415405,
        0.14187487959861755,
        -0.35571449995040894,
        -0.24068036675453186,
        0.4363073408603668,
        -0.2630031704902649,
        -0.008999262005090714,
        0.25564199686050415,
        0.2978014051914215,
        0.42359188199043274,
        0.22667261958122253,
        -0.3324340283870697,
        0.37446749210357666,
        -0.2584918439388275,
        0.6460364460945129,
        0.10399467498064041,
        -0.2996753454208374,
        0.2841379940509796,
        -0.060572072863578796,
        -0.38229718804359436,
        -0.24085909128189087,
        -1.150629997253418,
        -0.19007131457328796,
        -0.6240483522415161,
        -0.7146075963973999,
        0.579277515411377,
        0.11449701339006424,
        0.18282172083854675,
        -0.3582676351070404,
        -0.1046079695224762,
        0.21025212109088898,
        0.10798843204975128,
        -0.4708039164543152,
        -0.6078426241874695,
        0.31908804178237915,
        0.10117802023887634,
        0.5259252786636353,
        0.41956037282943726,
        -0.06409532576799393,
        0.04947076737880707,
        0.22290727496147156,
        -0.030610889196395874,
        0.7894983887672424,
        -0.3379588723182678,
        -0.5187507271766663,
        -0.16245423257350922,
        -0.5829890370368958,
        0.0211525596678257,
        -0.15384627878665924,
        0.14143945276737213,
        0.3585722744464874,
        0.019019052386283875,
        -1.0851868391036987,
        -0.08486253023147583,
        -0.2526095509529114,
        0.23947954177856445,
        -0.0029315948486328125,
        -0.49975207448005676,
        0.16868004202842712,
        -0.7703584432601929,
        -0.3265458345413208,
        -0.6428884267807007,
        -0.04701978713274002,
        -0.025105085223913193,
        -0.19375059008598328,
        -0.706261157989502,
        0.11265148222446442,
        0.5366067290306091,
        0.8794413208961487,
        0.10582920163869858,
        0.09552113711833954,
        -0.5732971429824829,
        0.9052942395210266,
        -1.4640337228775024,
        -0.08064107596874237,
        0.28395897150039673,
        0.43142664432525635,
        -0.138193279504776,
        -0.30333268642425537,
        0.17311282455921173,
        0.0737144947052002,
        0.229705810546875,
        -0.8028431534767151,
        -0.10000693798065186,
        -0.2703847289085388,
        0.1327231228351593,
        -0.007098785601556301,
        -0.48027303814888,
        0.055934030562639236,
        0.4092065989971161,
        -0.2095315158367157,
        1.118895411491394,
        -1.1640034914016724,
        -0.17447641491889954,
        0.5459693670272827
      ],
      "weights": [
        1.4963979721069336,
        1.4868605136871338,
        1.4907082319259644,
        1.2900649309158325,
        1.4237250089645386,
        1.7182062864303589,
        1.7252742052078247,
        1.7305285930633545,
        1.779265284538269,
        1.3805586099624634,
        1.4417797327041626,
        1.507343053817749,
        1.512980341911316,
        1.4339783191680908,
        1.3528931140899658,
        1.262927532196045,
        1.3915159702301025,
        1.5402846336364746,
        1.2802494764328003,
        1.2100509405136108,
        1.7196425199508667,
        1.8941999673843384,
        1.599422812461853,
        1.6665124893188477,
        1.674813151359558,
        1.7546594142913818,
        0.9897905588150024,
        1.5983703136444092,
        1.5689154863357544,
        1.784380316734314,
        1.434197187423706,
        1.3500142097473145,
        1.5660263299942017,
        1.831856608390808,
        1.5933983325958252,
        1.164118766784668,
        1.3856033086776733,
        1.5883275270462036,
        1.2735135555267334,
        1.6345539093017578,
        1.6827749013900757,
        1.7784621715545654,
        1.3681325912475586,
        1.383309245109558,
        1.3124780654907227,
        1.6647593975067139,
        1.6621383428573608,
        1.6571650505065918,
        1.1634514331817627,
        1.5748194456100464,
        1.5565567016601562,
        1.7894201278686523,
        1.4396209716796875,
        1.681909203529358,
        1.5048786401748657,
        1.6499817371368408,
        1.311012625694275,
        1.1782852411270142,
        1.244460105895996,
        1.4608476161956787,
        1.295937180519104,
        1.5720359086990356,
        1.4105842113494873,
        2.0404531955718994,
        1.430326223373413,
        1.5704244375228882,
        1.359665036201477,
        1.4724880456924438,
        1.7151339054107666,
        1.6641292572021484,
        1.6307717561721802,
        1.6628239154815674,
        1.3792468309402466,
        1.7860490083694458,
        1.4148364067077637,
        1.7148029804229736,
        1.8688727617263794,
        1.4046821594238281,
        1.232855200767517,
        1.4636386632919312,
        1.6208171844482422,
        1.2592324018478394,
        1.3185977935791016,
        1.649355411529541,
        1.6242809295654297,
        1.5580657720565796,
        1.7602298259735107,
        1.491274118423462,
        1.60595703125,
        1.5206257104873657,
        1.7466596364974976,
        1.8498589992523193,
        1.5528193712234497,
        1.5505661964416504,
        1.3974460363388062,
        1.4065686464309692,
        1.164010763168335,
        1.4769716262817383,
        1.4257203340530396,
        1.4631248712539673
      ]
    },
    {
      "activation": "rectified",
      "architecture": "dense",
      "bias": [],
      "weights": []
    },
    {
      "activation": "linear",
      "architecture": "dense",
      "bias": [
        0.0022053844295442104,
        0.013823380693793297,
        0.007340974640101194,
        -0.004002679605036974,
        -0.0117788789793849,
        -0.008716876618564129,
        0.011883726343512535,
        -0.010176832787692547,
        0.0018839412368834019,
        0.0001008383696898818,
        0.024469545111060143,
        0.0047348192892968655,
        0.017457319423556328,
        -0.010182294994592667,
        -0.002346332184970379,
        -0.0028911323752254248,
        0.0044110496528446674,
        -0.012440797872841358,
        -0.01174903567880392,
        0.0207840446382761,
        0.004743192810565233,
        0.031856466084718704,
        -0.002184536773711443,
        -0.012869883328676224,
        -0.04628533497452736,
        -0.0499846450984478,
        -0.05943182855844498,
        -0.032977208495140076,
        0.04438542574644089,
        0.044800765812397
      ],
      "weights": [
        -0.19059453904628754,
        -0.031989213079214096,
        -0.09971477836370468,
        -0.24707967042922974,
        0.19496729969978333,
        -0.012414822354912758,
        0.06220930442214012,
        0.26224464178085327,
        0.12024679780006409,
        0.32505902647972107,
        -0.18335892260074615,
        0.19383470714092255,
        0.2259102165699005,
        -0.043907228857278824,
        -0.07731162756681442,
        -0.08284499496221542,
        -0.2448200136423111,
        -0.2216072976589203,
        -0.08051139116287231,
        -0.12502415478229523,
        -0.03080039843916893,
        -0.03668037801980972,
        0.13609342277050018,
        -0.2918092608451843,
        0.05532559007406235,
        0.14415684342384338,
        0.1775205284357071,
        -0.049274563789367676,
        0.10449708998203278,
        -0.09712262451648712,
        -0.12259888648986816,
        -0.20207802951335907,
        0.16434046626091003,
        -0.1006522849202156,
        -0.04071811959147453,
        -0.1827513575553894,
        0.1774713099002838,
        -0.1437656283378601,
        0.21267914772033691,
        -0.20417647063732147,
        -0.02089874818921089,
        -0.05782195180654526,
        -0.16845817863941193,
        0.28028109669685364,
        -0.11300494521856308,
        -0.13540834188461304,
        -0.0019109871936962008,
        -0.3111805319786072,
        -0.13930660486221313,
        -0.14407944679260254,
        0.14405564963817596,
        -0.1617850661277771,
        0.01087826769798994,
        -0.2091408520936966,
        0.002112078946083784,
        -0.1631307452917099,
        0.18904034793376923,
        0.10908105969429016,
        0.2514857053756714,
        0.11991488933563232,
        0.32550087571144104,
        -0.14942997694015503,
        -0.014495324343442917,
        -0.1933114379644394,
        0.07584681361913681,
        0.14153531193733215,
        0.10638148337602615,
        -0.08234884589910507,
        0.1299033910036087,
        -0.0517447404563427,
        -0.0744260773062706,
        -0.03185519948601723,
        0.29709774255752563,
        -0.0009468226926401258,
        0.0622684620320797,
        -0.0155686279758811,
        -0.10388699918985367,
        0.115973100066185,
        0.1465175747871399,
        -0.10189710557460785,
        0.21960867941379547,
        0.05562533065676689,
        0.032478127628564835,
        -0.11698523908853531,
        0.023945337161421776,
        -0.2167617380619049,
        0.0016188749577850103,
        0.14432889223098755,
        -0.06754704564809799,
        -0.2878188490867615,
        0.018513577058911324,
        -0.07851221412420273,
        0.14306090772151947,
        0.1376168429851532,
        -0.09772927314043045,
        -0.013211686164140701,
        -0.01352230366319418,
        0.10611861944198608,
        0.06839831918478012,
        -0.17952902615070343,
        0.0321001261472702,
        -0.2839435636997223,
        0.04096764326095581,
        -0.10305920243263245,
        0.2135251760482788,
        -0.22751913964748383,
        -0.1606176346540451,
        -0.3764134645462036,
        0.041547663509845734,
        0.038437195122241974,
        0.08595912158489227,
        0.18528571724891663,
        0.09761745482683182,
        0.009773504920303822,
        0.28048408031463623,
        -0.16708433628082275,
        0.09664789587259293,
        -0.010096772573888302,
        0.0379219688475132,
        -0.11297760903835297,
        -0.32505854964256287,
        -0.08356541395187378,
        0.3484068810939789,
        -0.05607452616095543,
        0.10296457260847092,
        0.19132596254348755,
        -0.15323315560817719,
        0.30871903896331787,
        -0.0468076691031456,
        0.08566302806138992,
        0.11000170558691025,
        0.01039385236799717,
        0.20690618455410004,
        -0.018109234049916267,
        -0.06599133461713791,
        0.1653158962726593,
        -0.19982261955738068,
        -0.15361659228801727,
        -0.05189136043190956,
        -0.18719851970672607,
        -0.20993538200855255,
        0.013275885954499245,
        -0.12195701152086258,
        -0.25836116075515747,
        -0.08955793082714081,
        -0.11630302667617798,
        -0.0618230439722538,
        -0.03686250001192093,
        0.06248779594898224,
        -0.19367507100105286,
        -0.19775588810443878,
        0.24663877487182617,
        0.021302809938788414,
        -0.043455835431814194,
        -0.1795705258846283,
        -0.2646997570991516,
        -0.029452772811055183,
        0.12345827370882034,
        -0.04616493359208107,
        0.06468648463487625,
        0.10591531544923782,
        0.15865427255630493,
        -0.0019015086581930518,
        -0.09382224828004837,
        0.023046918213367462,
        -0.1333075910806656,
        0.12325391173362732,
        -0.20306943356990814,
        0.1342112123966217,
        -0.22887784242630005,
        -0.14424565434455872,
        -0.22247058153152466,
        0.24618573486804962,
        -0.12421078234910965,
        0.018707722425460815,
        -0.00439614150673151,
        -0.10150878131389618,
        0.20806670188903809,
        0.0883893147110939,
        0.19393204152584076,
        0.014007051475346088,
        -0.14220453798770905,
        -0.09350951761007309,
        0.18339066207408905,
        -0.24025945365428925,
        0.17076539993286133,
        0.13561037182807922,
        0.07864892482757568,
        0.06670482456684113,
        -0.07862893491983414,
        -0.2622486650943756,
        0.1763853281736374,
        -0.11467915028333664,
        -0.04604220390319824,
        0.16089218854904175,
        -0.10355600714683533,
        0.09241082519292831,
        -0.2162853479385376,
        0.14759714901447296,
        0.18903231620788574,
        -0.04953058436512947,
        0.1563405990600586,
        0.16001306474208832,
        0.19694046676158905,
        -0.14239110052585602,
        -0.05896621569991112,
        0.03622369468212128,
        0.18130619823932648,
        -0.015289501287043095,
        -0.1650077849626541,
        -0.01942473277449608,
        0.12406317889690399,
        0.26921775937080383,
        -0.10939787328243256,
        0.32518309354782104,
        0.2233666330575943,
        0.21069836616516113,
        0.10890792310237885,
        -0.11842533200979233,
        0.1832331269979477,
        -0.09016229957342148,
        -0.29689714312553406,
        -0.12182418256998062,
        0.19747541844844818,
        0.15318666398525238,
        -0.31672266125679016,
        -0.02358817122876644,
        0.2075774371623993,
        -0.08799341320991516,
        -0.12105783075094223,
        0.18138040602207184,
        -0.06088562682271004,
        0.1038103848695755,
        0.10995322465896606,
        0.0050429776310920715,
        -0.15023867785930634,
        -0.352641224861145,
        0.1321718990802765,
        -0.256626695394516,
        -0.0038650596980005503,
        -0.09181459993124008,
        0.017096716910600662,
        0.13106916844844818,
        -0.2443494200706482,
        -0.052059683948755264,
        -0.2042429894208908,
        0.01751294918358326,
        0.03437415510416031,
        0.052746083587408066,
        -0.026423973962664604,
        0.23092378675937653,
        0.13009706139564514,
        -0.24004438519477844,
        0.1614801585674286,
        0.318406343460083,
        0.11885134130716324,
        -0.022493263706564903,
        0.07194115966558456,
        -0.37234413623809814,
        0.2155277281999588,
        -0.005550938658416271,
        0.2199871689081192,
        0.12830056250095367,
        -0.05285349115729332,
        0.0813077986240387,
        0.005961104296147823,
        0.21814867854118347,
        0.09191621840000153,
        0.20201177895069122,
        0.08738914877176285,
        0.08128021657466888,
        0.11858891695737839,
        0.1611509919166565,
        0.12717050313949585,
        -0.18230286240577698,
        0.04629576951265335,
        -0.07712631672620773,
        -0.19532498717308044,
        0.07968611270189285,
        -0.15288041532039642,
        0.133563831448555,
        -0.0972379669547081,
        0.20181134343147278,
        -0.09257660061120987,
        0.15449140965938568,
        -0.06480710953474045,
        -0.06220721825957298,
        0.16312140226364136,
        0.16562965512275696,
        -0.032610706984996796,
        0.11461077630519867,
        -0.04427983611822128,
        -0.16904233396053314,
        0.13320505619049072,
        -0.14864037930965424,
        -0.17197811603546143,
        0.1693093478679657,
        -0.1826046109199524,
        -0.05608915537595749,
        -0.05770280957221985,
        -0.13692593574523926,
        0.1214531660079956,
        -0.023230746388435364,
        -0.14207330346107483,
        -0.07849733531475067,
        0.06285141408443451,
        -0.12456098198890686,
        0.13316474854946136,
        -0.13713370263576508,
        -0.11320536583662033,
        -0.008092266507446766,
        0.1281106173992157,
        -0.17204059660434723,
        -0.024596594274044037,
        -0.17092318832874298,
        -0.15491420030593872,
        -0.03889651224017143,
        0.30219992995262146,
        0.0909423828125,
        0.30785658955574036,
        0.19044359028339386,
        0.04784306883811951,
        0.008934879675507545,
        -0.0679273009300232,
        0.0787191241979599,
        -0.12538927793502808,
        -0.0017733308486640453,
        0.06691480427980423,
        0.10785559564828873,
        -0.039863601326942444,
        -0.15350951254367828,
        -0.0868939682841301,
        -0.3715568482875824,
        -0.055386729538440704,
        0.16033101081848145,
        0.12034227699041367,
        -0.007990597747266293,
        0.053812116384506226,
        0.22065211832523346,
        0.25975215435028076,
        0.19718106091022491,
        0.03513391688466072,
        0.0761859193444252,
        0.32726237177848816,
        0.09308823943138123,
        -0.16917471587657928,
        -0.059095289558172226,
        -0.03521160036325455,
        -0.19193308055400848,
        -0.20931431651115417,
        0.17357587814331055,
        -0.20260915160179138,
        0.1341446191072464,
        -0.18715068697929382,
        -0.035163845866918564,
        0.01799815520644188,
        0.07043568044900894,
        -0.0496736615896225,
        0.050874851644039154,
        0.0013038404285907745,
        -0.16140826046466827,
        0.1282774955034256,
        -0.11248823255300522,
        -0.06429742276668549,
        0.09049098193645477,
        -0.23058518767356873,
        -0.16639645397663116,
        -0.12311206758022308,
        -0.1349489986896515,
        0.017961295321583748,
        -0.21948766708374023,
        0.04189126566052437,
        0.05782563239336014,
        -0.09187071770429611,
        0.057335976511240005,
        -0.1964946836233139,
        -0.31027838587760925,
        0.09103377908468246,
        0.26519954204559326,
        0.17645664513111115,
        0.1356430947780609,
        -0.060693345963954926,
        0.15422414243221283,
        -0.09418649971485138,
        -0.06769438832998276,
        -0.008311111479997635,
        0.2014387995004654,
        -0.31730908155441284,
        -0.23926949501037598,
        -0.03061276115477085,
        -0.1287563443183899,
        0.11925014108419418,
        0.03262639790773392,
        0.12047810852527618,
        -0.0010935323080047965,
        0.05303182452917099,
        -0.12345439195632935,
        -0.09883043169975281,
        0.05744786188006401,
        -0.21300935745239258,
        -0.131656676530838,
        -0.08501091599464417,
        -0.14801670610904694,
        0.1074763759970665,
        -0.08701909333467484,
        0.007805759087204933,
        -0.0348062738776207,
        0.08488434553146362,
        0.02515600062906742,
        -0.05576808378100395,
        0.008819276466965675,
        -0.11440566927194595,
        -0.05030962452292442,
        -0.07491150498390198,
        -0.05052759870886803,
        0.12551014125347137,
        -0.042260412126779556,
        -0.13903634250164032,
        0.02004452422261238,
        -0.18289661407470703,
        -0.17132103443145752,
        0.15170122683048248,
        0.19467635452747345,
        0.23833127319812775,
        -0.0831003189086914,
        0.04578069970011711,
        0.034287501126527786,
        -0.21608185768127441,
        -0.0357617624104023,
        0.09140872210264206,
        0.13123726844787598,
        0.005144302733242512,
        -0.2963554263114929,
        -0.06248997896909714,
        0.0650402382016182,
        0.02645265683531761,
        0.01524735614657402,
        -0.046916741877794266,
        -0.14467857778072357,
        -0.24401380121707916,
        0.1706874817609787,
        -0.28510406613349915,
        -0.06099817901849747,
        -0.28664565086364746,
        0.156622976064682,
        -0.036556340754032135,
        -0.08427643775939941,
        -0.3000654876232147,
        -0.0179623793810606,
        -0.04732134938240051,
        -0.26304829120635986,
        0.08282160013914108,
        0.22956310212612152,
        -0.01229704450815916,
        -0.017472391948103905,
        0.18881694972515106,
        -0.000627408386208117,
        -0.007923661731183529,
        -0.20598047971725464,
        0.009875686839222908,
        0.11281539499759674,
        -0.04246849939227104,
        0.027392202988266945,
        -0.2625828683376312,
        -0.03578338399529457,
        0.2210206240415573,
        -0.34642842411994934,
        0.045932069420814514,
        -0.08545837551355362,
        0.1406734585762024,
        0.09511874616146088,
        0.15234892070293427,
        -0.0498802550137043,
        -0.04768067225813866,
        0.16617369651794434,
        0.0543108694255352,
        0.031238950788974762,
        -0.3036730885505676,
        -0.09876023977994919,
        0.3078061044216156,
        0.15060187876224518,
        -0.10290594398975372,
        0.15099890530109406,
        0.09772036224603653,
        -0.0719040259718895,
        0.11058028042316437,
        -0.054852768778800964,
        -0.22733327746391296,
        0.06614796817302704,
        0.005387221463024616,
        -0.040835730731487274,
        -0.04152616485953331,
        0.2198677510023117,
        -0.15528221428394318,
        -0.08486440032720566,
        0.10612024366855621,
        -0.053381238132715225,
        0.010934288613498211,
        0.08091479539871216,
        -0.014806991443037987,
        0.12776333093643188,
        0.33146169781684875,
        0.233900249004364,
        -0.2042689323425293,
        0.07961735874414444,
        -0.014229562133550644,
        -0.19902430474758148,
        0.1942840814590454,
        0.03037586249411106,
        0.21221359074115753,
        -0.3392035961151123,
        0.24443402886390686,
        0.04906197637319565,
        0.03745068237185478,
        -0.21480947732925415,
        0.2430788278579712,
        -0.04144466295838356,
        0.09869637340307236,
        -0.2879107594490051,
        0.063563272356987,
        0.2592320442199707,
        -0.16651718318462372,
        -0.01455764751881361,
        0.14420263469219208,
        -0.24608036875724792,
        0.128186896443367,
        0.15551020205020905,
        0.048670101910829544,
        -0.02556372433900833,
        0.015347015112638474,
        -0.012637065723538399,
        -0.14671309292316437,
        -0.040567152202129364,
        -0.045708175748586655,
        0.05731158331036568,
        -0.29168060421943665,
        -0.1347392052412033,
        -0.17788580060005188,
        -0.17217788100242615,
        0.00891327764838934,
        -0.17385557293891907,
        0.12605173885822296,
        0.07802402228116989,
        0.02941017784178257,
        -0.06544771045446396,
        0.0712060034275055,
        0.1279812902212143,
        -0.10735630244016647,
        -0.038921844214200974,
        -0.014359504915773869,
        -0.08946773409843445,
        0.15886905789375305,
        -0.06419671326875687,
        -0.2703920900821686,
        0.03659091889858246,
        -0.16957445442676544,
        0.021567577496170998,
        0.2524222135543823,
        -0.02005368284881115,
        -0.21746079623699188,
        0.08146585524082184,
        0.010491934604942799,
        0.1412668228149414,
        -0.019228670746088028,
        0.005389451049268246,
        0.15267394483089447,
        0.0053251623176038265,
        -0.05487167462706566,
        -0.057592906057834625,
        0.055661823600530624,
        0.09332320839166641,
        -0.07752086222171783,
        -0.10502350330352783,
        0.053525038063526154,
        0.10417144000530243,
        0.0941099151968956,
        -0.12737923860549927,
        -0.028592489659786224,
        0.25099942088127136,
        -0.16840356588363647,
        -0.02587638795375824,
        -0.23833414912223816,
        -0.01040589064359665,
        0.13125942647457123,
        -0.19024014472961426,
        0.02066865935921669,
        -0.053998518735170364,
        -0.11097349971532822,
        0.27848756313323975,
        -0.08770368248224258,
        -0.10650981962680817,
        0.02189423330128193,
        -0.01345013827085495,
        -0.20476692914962769,
        -0.1789001226425171,
        0.02161443792283535,
        -0.13397091627120972,
        0.20888005197048187,
        -0.1314515620470047,
        -0.14531615376472473,
        -0.015934767201542854,
        -0.0702366828918457,
        0.18928363919258118,
        -0.015942465513944626,
        0.10916668176651001,
        0.17680825293064117,
        -0.13783515989780426,
        -0.001943374052643776,
        0.17505551874637604,
        -0.08650124818086624,
        -0.017980976030230522,
        -0.15710948407649994,
        0.04251156374812126,
        0.0836327001452446,
        0.15010634064674377,
        -0.005446391645818949,
        0.26664796471595764,
        -0.14599019289016724,
        0.12308362126350403,
        0.2689845860004425,
        0.3237040638923645,
        0.11300509423017502,
        0.12192270159721375,
        -0.06407954543828964,
        0.2784848213195801,
        -0.05318152531981468,
        0.17946414649486542,
        0.04789203777909279,
        -0.26080891489982605,
        -0.1633443683385849,
        -0.02859039418399334,
        -0.0009509894298389554,
        0.19812177121639252,
        -0.04698986932635307,
        -0.1698649376630783,
        -0.021310295909643173,
        -0.12067096680402756,
        0.0556270107626915,
        -0.06196011230349541,
        -0.03661809489130974,
        -0.17155934870243073,
        0.11935468018054962,
        -0.30684155225753784,
        -0.18696051836013794,
        -0.3249911963939667,
        -0.0690956711769104,
        -0.1719764769077301,
        0.1530711054801941,
        -0.16877615451812744,
        -0.20894910395145416,
        0.10799655318260193,
        -0.24619075655937195,
        -0.05681819096207619,
        0.008294225670397282,
        -0.04927980899810791,
        -0.11151399463415146,
        0.0037337851244956255,
        -0.13460692763328552,
        -0.0658288523554802,
        0.15861202776432037,
        0.03953005000948906,
        -0.004213154781609774,
        0.19645048677921295,
        0.3423500061035156,
        0.060114502906799316,
        0.04389028251171112,
        0.07692302018404007,
        0.07711849361658096,
        0.19109772145748138,
        0.10785245895385742,
        0.15183258056640625,
        0.2748306393623352,
        -0.1993969827890396,
        -0.12435397505760193,
        0.15134431421756744,
        0.2428889274597168,
        -0.17236556112766266,
        0.29306450486183167,
        -0.18247196078300476,
        0.15206190943717957,
        0.19116832315921783,
        -0.12150795012712479,
        -0.13376134634017944,
        -0.01266438513994217,
        -0.2819978892803192,
        -0.11523035168647766,
        -0.06083812192082405,
        0.010698570869863033,
        -0.04307117685675621,
        0.17312656342983246,
        -0.2818838655948639,
        0.1612863838672638,
        -0.07963339239358902,
        -0.025724995881319046,
        0.2893800437450409,
        0.11844006925821304,
        -0.10964944958686829,
        -0.029906494542956352,
        0.09918529540300369,
        -0.04264814034104347,
        -0.2295190840959549,
        -0.20409560203552246,
        -0.31908586621284485,
        -0.010872014798223972,
        0.019066305831074715,
        -0.155587837100029,
        -0.09372912347316742,
        -0.15931463241577148,
        0.050897516310214996,
        -0.18498936295509338,
        0.03392786905169487,
        0.25265419483184814,
        0.221231147646904,
        0.13988550007343292,
        0.12302446365356445,
        -0.13036280870437622,
        -0.27476176619529724,
        0.12435373663902283,
        -0.007007901556789875,
        0.27096670866012573,
        -0.07152441889047623,
        -0.01146186888217926,
        -0.034097906202077866,
        0.01277465745806694,
        0.18780773878097534,
        -0.10017445683479309,
        -0.03538148105144501,
        -0.19105245172977448,
        -0.06853701919317245,
        0.10060684382915497,
        -0.3234208822250366,
        0.012877029366791248,
        0.1886850893497467,
        -0.23960714042186737,
        -0.21504239737987518,
        -0.04338681697845459,
        -0.018369946628808975,
        -0.12002412974834442,
        -0.3543727993965149,
        -0.12554539740085602,
        -0.04157314449548721,
        -0.12531885504722595,
        -0.30607226490974426,
        -0.011983455158770084,
        0.05717895179986954,
        -0.27032002806663513,
        0.025988347828388214,
        0.04053531214594841,
        0.003055162727832794,
        0.03692014515399933,
        0.08334304392337799,
        0.1467878222465515,
        0.2427312731742859,
        0.14699412882328033,
        0.1052732765674591,
        -0.07197275012731552,
        0.18996448814868927,
        -0.12096017599105835,
        0.0037845629267394543,
        -0.088156558573246,
        0.040108006447553635,
        0.003310196800157428,
        -0.09680715948343277,
        0.18154482543468475,
        0.09939834475517273,
        -0.20859414339065552,
        0.05129479989409447,
        0.10062102973461151,
        0.1914052814245224,
        0.1880992203950882,
        0.12171557545661926,
        0.12337613105773926,
        0.07317400723695755,
        -0.11122813820838928,
        0.006707512307912111,
        0.2859859764575958,
        -0.06587547063827515,
        0.10511980205774307,
        0.009267251938581467,
        -0.04488249495625496,
        -0.09850989282131195,
        0.2802208364009857,
        0.22601361572742462,
        0.2096109837293625,
        0.002127168234437704,
        -0.3432687222957611,
        -0.15747852623462677,
        -0.0002722936915233731,
        -0.2080448567867279,
        -0.25810331106185913,
        -0.2742931842803955,
        0.009352429769933224,
        0.1313067525625229,
        0.2315407544374466,
        -0.01902165822684765,
        0.17163333296775818,
        -0.10119235515594482,
        0.08001431077718735,
        0.26137882471084595,
        0.01980145275592804,
        -0.11500433087348938,
        -0.05651015043258667,
        0.035466089844703674,
        -0.16856949031352997,
        -0.11107855290174484,
        -0.13171905279159546,
        -0.10078717023134232,
        0.29107481241226196,
        0.08040675520896912,
        0.15324684977531433,
        0.19227352738380432,
        0.16273611783981323,
        0.03175542503595352,
        0.1620013564825058,
        0.10818913578987122,
        -0.27954062819480896,
        0.057845089584589005,
        0.0207052119076252,
        0.04623756557703018,
        0.05749092623591423,
        0.07562435418367386,
        -0.2411724478006363,
        -0.05138009414076805,
        -0.17386022210121155,
        -0.012422867119312286,
        -0.12373381108045578,
        0.03362980857491493,
        -0.15656998753547668,
        -0.10168643295764923,
        -0.2389659583568573,
        0.07437139004468918,
        -0.2862433195114136,
        0.05455480143427849,
        0.13596408069133759,
        -0.06005379185080528,
        -0.0603383369743824,
        0.17551404237747192,
        0.11094249784946442,
        0.0738537609577179,
        -0.13713234663009644,
        0.11405386030673981,
        0.13392749428749084,
        -0.16765977442264557,
        -0.0022552197333425283,
        0.12128935009241104,
        -0.1867087036371231,
        0.0278998464345932,
        0.004773285239934921,
        -0.2710825800895691,
        -0.18751651048660278,
        0.05936537683010101,
        -0.19071215391159058,
        0.07630856335163116,
        0.14738601446151733,
        0.10430946201086044,
        -0.1681603491306305,
        0.050915565341711044,
        0.026219410821795464,
        -0.17959627509117126,
        0.1810707002878189,
        0.15141627192497253,
        -0.08550699800252914,
        0.2913377583026886,
        0.08880606293678284,
        -0.06373497098684311,
        -0.08470273017883301,
        0.07885569334030151,
        0.12440693378448486,
        0.2794976234436035,
        -0.034293752163648605,
        -0.17358596622943878,
        -0.18091849982738495,
        0.30021122097969055,
        -0.18160401284694672,
        -0.24493125081062317,
        0.10381574928760529,
        0.17194071412086487,
        0.03821061924099922,
        0.1952366828918457,
        0.19985666871070862,
        0.08131740242242813,
        0.25301921367645264,
        -0.1250070482492447,
        -0.340036541223526,
        -0.19468361139297485,
        0.08747890591621399,
        0.04735492542386055,
        -0.23977693915367126,
        -0.09746452420949936,
        -0.1371794193983078,
        0.23296967148780823,
        0.12789657711982727,
        0.1671866476535797,
        -0.13834328949451447,
        -0.2568868100643158,
        -0.12545640766620636,
        0.17167676985263824,
        -0.1247464120388031,
        0.08559628576040268,
        0.22422604262828827,
        -0.09658057987689972,
        0.008204805664718151,
        0.015689287334680557,
        -0.021047517657279968,
        -0.2581039071083069,
        -0.24964283406734467,
        0.15787355601787567,
        0.2057923972606659,
        -0.06207166612148285,
        -0.11801224201917648,
        -0.25928905606269836,
        -0.1817319244146347,
        0.0786791741847992,
        0.09657469391822815,
        -0.1575888991355896,
        0.09235334396362305,
        0.030956633388996124,
        -0.04219518229365349,
        -0.10731926560401917,
        0.12035512179136276,
        -0.16496656835079193,
        0.06638600677251816,
        0.12403935194015503,
        -0.29025304317474365,
        -0.15873770415782928,
        0.0051115634851157665,
        -0.15504272282123566,
        0.30554619431495667,
        -0.07550350576639175,
        0.015392997302114964,
        -0.10221481323242188,
        -0.040780581533908844,
        -0.20503680408000946,
        0.12436413019895554,
        -0.24007725715637207,
        0.041816748678684235,
        -0.26072126626968384,
        0.07624728232622147,
        0.05954305827617645,
        0.010027429088950157,
        -0.34526950120925903,
        0.23613294959068298,
        0.16869927942752838,
        -0.08137726038694382,
        0.1649758219718933,
        -0.11851062625646591,
        0.15547102689743042,
        -0.15554213523864746,
        0.12324032932519913,
        0.1389288753271103,
        -0.22503486275672913,
        0.062404803931713104,
        -0.19473712146282196,
        0.0828118845820427,
        -0.0988716334104538,
        0.11581740528345108,
        -0.030205052345991135,
        0.007137945853173733,
        0.10769329965114594,
        0.3768403232097626,
        -0.20837591588497162,
        0.0550096221268177,
        -0.016784826293587685,
        0.08247628062963486,
        -0.3022714853286743,
        0.10331381857395172,
        0.2902053892612457,
        0.04229503497481346,
        0.08996636420488358,
        -0.02103862166404724,
        0.11735718697309494,
        -0.1742396354675293,
        -0.1121879369020462,
        0.18355494737625122,
        -0.1904212236404419,
        0.1217091754078865,
        0.1773083359003067,
        -0.19409792125225067,
        0.13045106828212738,
        -0.16448837518692017,
        -0.02632642351090908,
        0.10335508733987808,
        0.16894976794719696,
        0.17154575884342194,
        0.0913519486784935,
        -0.12164077162742615,
        -0.29688283801078796,
        -0.018559768795967102,
        0.029848920181393623,
        -0.06855025887489319,
        -0.10388848930597305,
        0.19280114769935608,
        0.11518823355436325,
        0.03211545944213867,
        0.05474736541509628,
        0.14392146468162537,
        0.12966232001781464,
        -0.21481569111347198,
        -0.030096551403403282,
        -0.03166816756129265,
        -0.041636768728494644,
        0.2593387961387634,
        0.09299694746732712,
        -0.14555832743644714,
        0.13791412115097046,
        0.2804793119430542,
        0.115338534116745,
        0.09016583114862442,
        0.14585186541080475,
        0.11895512044429779,
        0.07581200450658798,
        -0.009067527018487453,
        -0.12715521454811096,
        -0.2608289122581482,
        -0.24182897806167603,
        0.006861931178718805,
        0.20943473279476166,
        -0.33823052048683167,
        -0.058026980608701706,
        0.06250040978193283,
        -0.010502646677196026,
        -0.09572357684373856,
        -0.10006193816661835,
        0.15223249793052673,
        0.030411070212721825,
        -0.11214715987443924,
        -0.18316146731376648,
        0.02968583256006241,
        0.1670122593641281,
        0.18146958947181702,
        0.12209093570709229,
        0.08500810712575912,
        0.0140524348244071,
        -0.2096329629421234,
        -0.02452835626900196,
        -0.11982189863920212,
        0.11760019510984421,
        -0.23710373044013977,
        0.026494640856981277,
        -0.20273984968662262,
        -0.2444111853837967,
        0.19884748756885529,
        0.08264768123626709,
        -0.04163395240902901,
        0.1834227740764618,
        0.06608238816261292,
        -0.14801843464374542,
        -0.17527563869953156,
        0.2251921445131302,
        0.15471196174621582,
        0.22229817509651184,
        -0.14636093378067017,
        0.007382362615317106,
        0.22327248752117157,
        0.003849707543849945,
        -0.04591837897896767,
        -0.13669787347316742,
        -0.03372815251350403,
        -0.12329700589179993,
        0.2004106044769287,
        0.0970691591501236,
        0.11788769066333771,
        0.10688216984272003,
        -0.03709305077791214,
        -0.15242302417755127,
        -0.060297589749097824,
        -0.26912426948547363,
        -0.16768862307071686,
        -0.08734758198261261,
        0.13021625578403473,
        0.048297181725502014,
        -0.06777717918157578,
        -0.12637543678283691,
        -0.07718902826309204,
        0.08854983747005463,
        0.06651328504085541,
        -0.3026444911956787,
        -0.04006720706820488,
        0.17480836808681488,
        -0.15725447237491608,
        -0.13770844042301178,
        -0.03045041859149933,
        0.13209494948387146,
        0.19068416953086853,
        -0.18707393109798431,
        0.17111176252365112,
        0.08324574679136276,
        -0.2677854001522064,
        0.22017471492290497,
        -0.19155804812908173,
        -0.18882113695144653,
        -0.10926694422960281,
        0.0307663232088089,
        0.05351117625832558,
        -0.15319056808948517,
        0.08047021180391312,
        0.20489422976970673,
        0.04368004947900772,
        0.07828983664512634,
        0.1833799183368683,
        -0.045909736305475235,
        0.11231544613838196,
        0.11642538011074066,
        0.05545516312122345,
        0.1236071065068245,
        -0.09821534901857376,
        -0.32735511660575867,
        0.13755878806114197,
        0.13662922382354736,
        -0.02751312404870987,
        -0.18984878063201904,
        -0.06466503441333771,
        -0.2165432721376419,
        -0.12860803306102753,
        -0.08820633590221405,
        0.04939815774559975,
        -0.17858631908893585,
        0.05064922198653221,
        0.09114155918359756,
        0.256763219833374,
        0.1906738430261612,
        -0.11431427299976349,
        -0.1220102533698082,
        0.13583973050117493,
        -0.13153934478759766,
        0.025149185210466385,
        0.1491612195968628,
        0.2228243350982666,
        -0.12058725953102112,
        0.18565651774406433,
        -0.12176118046045303,
        0.08623120188713074,
        0.13409031927585602,
        0.027429893612861633,
        -0.20541192591190338,
        -0.05149926617741585,
        -0.08367180079221725,
        0.141543447971344,
        0.12074537575244904,
        -0.05137725546956062,
        -0.11563640087842941,
        0.2311684936285019,
        -0.08736322075128555,
        -0.12484247237443924,
        -0.09714803099632263,
        0.033043354749679565,
        0.13755014538764954,
        0.013016708195209503,
        -0.25048577785491943,
        -0.10498499870300293,
        -0.029158953577280045,
        -0.12773734331130981,
        -0.15988269448280334,
        -0.09549638628959656,
        0.0283979382365942,
        -0.08352120965719223,
        -0.24167002737522125,
        0.2731597125530243,
        0.007228561211377382,
        -0.002753238193690777,
        -0.19845882058143616,
        0.17910830676555634,
        0.020932013168931007,
        -0.09383604675531387,
        -0.10717054456472397,
        0.23336252570152283,
        -0.06791087985038757,
        0.039846476167440414,
        0.14452290534973145,
        -0.11955256760120392,
        0.0038008475676178932,
        0.007854250259697437,
        -0.06497057527303696,
        0.2339983582496643,
        -0.02553144097328186,
        -0.10397463291883469,
        0.021177083253860474,
        -0.09637327492237091,
        -0.07389538735151291,
        -0.02293982543051243,
        0.10371631383895874,
        0.14231763780117035,
        -0.13623328506946564,
        0.13259603083133698,
        0.0417725034058094,
        0.11345162987709045,
        -0.08067695796489716,
        -0.24669738113880157,
        0.11474653333425522,
        -0.3027481138706207,
        0.1484888195991516,
        -0.13635168969631195,
        0.1841396689414978,
        0.05780728906393051,
        -0.0015109899686649442,
        0.026468785479664803,
        0.080940842628479,
        -0.1688692718744278,
        0.13141416013240814,
        0.09407532215118408,
        -0.10579672455787659,
        -0.1879967898130417,
        -0.22976525127887726,
        -0.23610681295394897,
        0.1856778860092163,
        0.057078998535871506,
        0.23313811421394348,
        -0.001042987802065909,
        -0.02319522574543953,
        -0.15253858268260956,
        -0.1665252447128296,
        -0.13558439910411835,
        0.21776004135608673,
        -0.18095529079437256,
        0.054215289652347565,
        0.17191681265830994,
        -0.04392431676387787,
        -0.09614414721727371,
        -0.10465846210718155,
        0.21077971160411835,
        0.0646590068936348,
        -0.007809972856193781,
        0.22472438216209412,
        -0.13401679694652557,
        -0.040613796561956406,
        -0.26645684242248535,
        0.02269146963953972,
        -0.15579374134540558,
        0.1058572381734848,
        -0.12368161976337433,
        0.20176035165786743,
        0.28241798281669617,
        -0.23673933744430542,
        -0.08373475819826126,
        -0.13595804572105408,
        -0.176044300198555,
        0.008005499839782715,
        0.12073157727718353,
        -0.10243438929319382,
        -0.07443027198314667,
        -0.05666746571660042,
        0.01346204150468111,
        -0.10612934827804565,
        0.23027768731117249,
        0.13867616653442383,
        -0.058679837733507156,
        -0.17441190779209137,
        -0.20025503635406494,
        0.12275353819131851,
        -0.014760961756110191,
        0.10031523555517197,
        0.013454626314342022,
        -0.027417954057455063,
        0.14529462158679962,
        -8.118673576973379e-05,
        -0.1789158433675766,
        -0.16360408067703247,
        -0.02424515411257744,
        0.014869656413793564,
        0.21212798357009888,
        -0.10889662057161331,
        0.09745672345161438,
        -0.04181377589702606,
        -0.057795532047748566,
        0.20768678188323975,
        -0.1819804608821869,
        0.046738721430301666,
        0.07119881361722946,
        -0.11738455295562744,
        0.03676007315516472,
        0.19602222740650177,
        0.22212429344654083,
        0.10363639146089554,
        0.03736316040158272,
        0.07118391245603561,
        0.11418933421373367,
        0.0593881756067276,
        -0.10683085024356842,
        -0.20245352387428284,
        0.011204580776393414,
        0.059475675225257874,
        0.0342489518225193,
        -0.022110069170594215,
        0.14139091968536377,
        0.08979874849319458,
        -0.06822185963392258,
        -0.2892299294471741,
        -0.13358986377716064,
        0.04310014098882675,
        -0.19079062342643738,
        -0.3367317020893097,
        0.09834329038858414,
        -0.027871625497937202,
        0.21377214789390564,
        -0.15305976569652557,
        0.17565694451332092,
        -0.19642138481140137,
        -0.004040807951241732,
        0.017632948234677315,
        0.12284332513809204,
        -0.025067295879125595,
        0.0701577290892601,
        -0.21912595629692078,
        -0.08069701492786407,
        0.02539592608809471,
        0.16211390495300293,
        0.07543402910232544,
        -0.15066993236541748,
        0.19292229413986206,
        -0.12056481093168259,
        0.12531596422195435,
        -0.08260904997587204,
        -0.11516709625720978,
        -0.08681859076023102,
        -0.15132060647010803,
        -0.12995193898677826,
        -0.027828140184283257,
        0.16688717901706696,
        -0.03519758954644203,
        -0.11036522686481476,
        0.12039096653461456,
        0.17901945114135742,
        0.04736047983169556,
        -0.11004742980003357,
        -0.06139586865901947,
        0.06718143820762634,
        -0.03852124139666557,
        -0.1323486864566803,
        -0.17772406339645386,
        0.06828512996435165,
        0.10877972096204758,
        0.03024730645120144,
        -0.1057269424200058,
        -0.2608439028263092,
        0.18228605389595032,
        0.12143004685640335,
        -0.0007628413732163608,
        0.025123897939920425,
        -0.07856660336256027,
        0.24056139588356018,
        0.26605895161628723,
        -0.14396882057189941,
        -0.18709784746170044,
        0.06986565887928009,
        0.13717134296894073,
        0.020985618233680725,
        -0.10218559205532074,
        0.012701893225312233,
        -0.039475034922361374,
        0.1780901849269867,
        0.26779624819755554,
        0.10188386589288712,
        0.028092272579669952,
        0.22752505540847778,
        0.18024702370166779,
        0.004464172292500734,
        -0.06187112629413605,
        0.05371743440628052,
        -0.12211445719003677,
        -0.11375448107719421,
        -0.1860976368188858,
        0.16113904118537903,
        0.14199790358543396,
        0.1521255075931549,
        0.12990064918994904,
        -0.1446545124053955,
        0.12110316753387451,
        -0.008295683190226555,
        0.005846873391419649,
        -0.11688794195652008,
        0.0777636393904686,
        0.13283424079418182,
        0.28585171699523926,
        -0.1418289840221405,
        0.25251027941703796,
        -0.09223546832799911,
        -0.021688830107450485,
        -0.21698394417762756,
        -0.12807050347328186,
        0.07764218747615814,
        -0.417660117149353,
        0.01049368642270565,
        0.017406482249498367,
        0.19741035997867584,
        0.24229943752288818,
        -0.07594142854213715,
        -0.10672824829816818,
        -0.018557224422693253,
        -0.04578835517168045,
        0.0562923289835453,
        0.2632398009300232,
        0.06243623420596123,
        0.18384668231010437,
        -0.322717547416687,
        -0.019227810204029083,
        0.0460948571562767,
        0.2703644335269928,
        -0.163596510887146,
        -0.017476188018918037,
        0.0730714350938797,
        0.18624575436115265,
        -0.23369036614894867,
        -0.04303259029984474,
        0.2163543403148651,
        -0.11081484705209732,
        -0.12514203786849976,
        -0.20637239515781403,
        0.17452560365200043,
        0.20216456055641174,
        0.18879522383213043,
        -0.04283446446061134,
        -0.03232773393392563,
        0.19524416327476501,
        -0.11953537911176682,
        0.04733533039689064,
        0.09431105852127075,
        0.14559541642665863,
        -0.03303864598274231,
        -0.11440549790859222,
        -0.07869396358728409,
        -0.1349668800830841,
        0.014636785723268986,
        0.08882607519626617,
        -0.19986383616924286,
        0.113033227622509,
        0.02381831407546997,
        0.1180037409067154,
        -0.06316287815570831,
        -0.07297825813293457,
        -0.2863740026950836,
        -0.04055981710553169,
        -0.2276707887649536,
        0.09334942698478699,
        -0.0629461407661438,
        0.18963024020195007,
        -0.040081124752759933,
        0.2633157968521118,
        0.21559284627437592,
        -0.054376911371946335,
        0.04948362335562706,
        -0.05028087645769119,
        -0.29416367411613464,
        0.07380995899438858,
        -0.11967339366674423,
        -0.016161944717168808,
        -0.05149530991911888,
        0.20667609572410583,
        -0.19582915306091309,
        0.11688344925642014,
        0.044125717133283615,
        0.10662488639354706,
        -0.2553825378417969,
        0.050934746861457825,
        -0.211363285779953,
        0.09337785840034485,
        0.08944668620824814,
        0.13756251335144043,
        -0.011431563645601273,
        -0.13510647416114807,
        -0.11799945682287216,
        -0.19260984659194946,
        0.16551373898983002,
        0.24956722557544708,
        0.1524236798286438,
        0.21681973338127136,
        0.025507375597953796,
        0.17487303912639618,
        -0.012703051790595055,
        0.09852220863103867,
        -0.09969072788953781,
        0.044154297560453415,
        -0.08649399876594543,
        -0.09359010308980942,
        -0.02597789838910103,
        0.11703474819660187,
        -0.2815171182155609,
        -0.173932746052742,
        0.010029355064034462,
        -0.24524876475334167,
        -0.1487872302532196,
        0.14694449305534363,
        0.10007711499929428,
        0.2166430503129959,
        0.2666744291782379,
        0.09451768547296524,
        -0.0566633976995945,
        -0.1826482117176056,
        -0.31223082542419434,
        0.08613462746143341,
        -0.1228117048740387,
        0.05538232624530792,
        -0.022883960977196693,
        -0.028379058465361595,
        0.16888095438480377,
        0.08562635630369186,
        0.18319125473499298,
        -0.10706932842731476,
        -0.19359485805034637,
        0.26032763719558716,
        -0.12473566085100174,
        -0.041168808937072754,
        0.09047216176986694,
        -0.12932740151882172,
        0.20137009024620056,
        0.11884771287441254,
        0.15368027985095978,
        0.18568262457847595,
        -0.1776503622531891,
        0.16568289697170258,
        -0.03733926638960838,
        0.1783342808485031,
        -0.09711979329586029,
        -0.09235244244337082,
        -0.24748539924621582,
        -0.22786398231983185,
        0.09687008708715439,
        0.03498013690114021,
        -0.22551515698432922,
        0.06198442727327347,
        0.10622113943099976,
        0.07035813480615616,
        -0.07550665736198425,
        0.12586019933223724,
        -0.1761390119791031,
        -0.14339585602283478,
        0.19685493409633636,
        0.0374772772192955,
        0.26932647824287415,
        0.05154682695865631,
        0.060042284429073334,
        0.11411996185779572,
        -0.02442142181098461,
        -0.17177091538906097,
        0.12746518850326538,
        -0.11051878333091736,
        -0.363673597574234,
        -0.17270304262638092,
        -0.055581048130989075,
        0.11923877149820328,
        0.21412600576877594,
        -0.014372000470757484,
        -0.05679406225681305,
        -0.18699054419994354,
        -0.009781907312572002,
        0.11081809550523758,
        0.06457510590553284,
        -0.04777686670422554,
        -0.13959048688411713,
        0.2703033685684204,
        -0.24243512749671936,
        -0.09363901615142822,
        -0.21541549265384674,
        -0.010579247958958149,
        -0.13529689610004425,
        0.07167328149080276,
        -0.05919674038887024,
        -0.032257162034511566,
        0.06835722923278809,
        -0.10771875828504562,
        -0.1876126080751419,
        0.2438841313123703,
        0.24900777637958527,
        -0.12365162372589111,
        -0.06371654570102692,
        -0.020364103838801384,
        0.06509188562631607,
        -0.18883705139160156,
        0.13450275361537933,
        0.187875896692276,
        0.22012528777122498,
        -0.15959766507148743,
        0.013438258320093155,
        0.10341062396764755,
        -0.046155352145433426,
        -0.13669729232788086,
        -0.1382325142621994,
        -0.19843485951423645,
        0.12993933260440826,
        -0.1431286334991455,
        -0.17663215100765228,
        -0.007527909241616726,
        -0.16794365644454956,
        0.10413949936628342,
        -0.1161784678697586,
        0.13460837304592133,
        0.03377160057425499,
        -0.04315415769815445,
        0.01218532957136631,
        -0.24094657599925995,
        -0.013093505054712296,
        -0.2210484892129898,
        -0.31980612874031067,
        0.1748482882976532,
        0.12600857019424438,
        0.14154507219791412,
        0.06753020733594894,
        0.0052661472000181675,
        -0.03171490505337715,
        0.019941046833992004,
        0.2227669656276703,
        -0.28450044989585876,
        -0.1308678537607193,
        -0.010828038677573204,
        -0.12364853173494339,
        0.0025314022786915302,
        -0.40320640802383423,
        -0.22426925599575043,
        0.11539611220359802,
        0.12181065231561661,
        -0.06564343720674515,
        0.34606054425239563,
        -0.09325152635574341,
        0.04677899181842804,
        -0.18397891521453857,
        0.08563914149999619,
        -0.05119846761226654,
        -0.07409057766199112,
        -0.07220776379108429,
        0.13094884157180786,
        0.24984771013259888,
        -0.22688791155815125,
        0.10102754086256027,
        -0.11286254227161407,
        -0.123279869556427,
        0.02561900205910206,
        -0.051212698221206665,
        -0.22084274888038635,
        0.11771778017282486,
        0.10174473375082016,
        -0.09447505325078964,
        -0.1804976612329483,
        -0.001288805273361504,
        0.2221391797065735,
        -0.002556419698521495,
        0.18236806988716125,
        -0.20065559446811676,
        -0.08976990729570389,
        -0.17453308403491974,
        -0.04038733243942261,
        0.11623997241258621,
        -0.13323862850666046,
        -0.275564581155777,
        -0.2154339700937271,
        0.1510341316461563,
        -0.10405601561069489,
        -0.026840297505259514,
        0.000740152201615274,
        0.14968988299369812,
        0.00783208105713129,
        0.30172958970069885,
        -0.08795996755361557,
        -0.15121527016162872,
        0.06275332719087601,
        -0.19539809226989746,
        -0.18463771045207977,
        0.3243228495121002,
        -0.12787947058677673,
        -0.09121772646903992,
        -0.04430742934346199,
        -0.14744769036769867,
        -0.02891690470278263,
        -0.023165974766016006,
        0.009082511067390442,
        -0.18212859332561493,
        -0.007895578630268574,
        -0.19472746551036835,
        0.0425521545112133,
        0.2022244781255722,
        -0.19316209852695465,
        -0.013660222291946411,
        0.10509994626045227,
        -0.11176052689552307,
        0.0071267979219555855,
        -0.19910310208797455,
        0.09914588183164597,
        0.0735253319144249,
        -0.16643667221069336,
        0.06361111253499985,
        -0.1546975076198578,
        0.14114823937416077,
        0.2081131637096405,
        0.12404338270425797,
        0.07821334898471832,
        -0.1494719535112381,
        0.062154289335012436,
        0.29020243883132935,
        -0.04961685836315155,
        -0.12734471261501312,
        -0.11793174594640732,
        -0.06588844954967499,
        -0.0014198711141943932,
        0.13542035222053528,
        -0.12667380273342133,
        -0.09460394829511642,
        -0.06673935800790787,
        -0.11042273789644241,
        -0.23792608082294464,
        -0.18391229212284088,
        0.18271496891975403,
        -0.1225755512714386,
        -0.1182083785533905,
        -0.06778166443109512,
        -0.03407859802246094,
        -0.13172295689582825,
        0.1528378427028656,
        0.13473276793956757,
        0.08924366533756256,
        0.23231889307498932,
        -0.06303899735212326,
        0.06165030226111412,
        0.17834271490573883,
        -0.2654695212841034,
        0.2206861972808838,
        -0.1450580209493637,
        -0.18461723625659943,
        0.21087892353534698,
        0.15179304778575897,
        0.020428692921996117,
        0.032316382974386215,
        0.04372388496994972,
        0.044780001044273376,
        0.22558759152889252,
        -0.1012313961982727,
        0.14092706143856049,
        0.060200564563274384,
        0.12991918623447418,
        -0.3160451054573059,
        -0.04913746193051338,
        0.015036818571388721,
        0.16524048149585724,
        0.002734268084168434,
        0.0839916467666626,
        -0.013710152357816696,
        -0.24984166026115417,
        -0.22196099162101746,
        0.16541750729084015,
        -0.10638217628002167,
        -0.10640053451061249,
        0.18403196334838867,
        0.0164754968136549,
        0.24215558171272278,
        0.051259446889162064,
        -0.0029871277511119843,
        -0.0784655213356018,
        0.07126253843307495,
        0.10856249928474426,
        -0.13437023758888245,
        -0.26363423466682434,
        0.11183828860521317,
        0.1401464194059372,
        0.21051982045173645,
        0.1603652685880661,
        0.08337483555078506,
        0.20767085254192352,
        0.05008101463317871,
        0.11108773946762085,
        -0.21916960179805756,
        0.010690348222851753,
        -0.12685789167881012,
        -0.08006864041090012,
        0.26004165410995483,
        0.0177681352943182,
        0.06704744696617126,
        -0.017576975747942924,
        -0.19126147031784058,
        0.14888130128383636,
        -0.24052751064300537,
        -0.19027003645896912,
        0.06541767716407776,
        -0.12535147368907928,
        -0.057547587901353836,
        -0.178487628698349,
        -0.02786896750330925,
        -0.012766704894602299,
        -0.2919866740703583,
        0.006810108665376902,
        0.022455258294939995,
        -0.19606854021549225,
        -0.07499691843986511,
        0.051389601081609726,
        -0.17750047147274017,
        -0.026463445276021957,
        0.1188349723815918,
        -0.012648684903979301,
        -0.05562892556190491,
        0.21664023399353027,
        0.22325997054576874,
        -0.05390512943267822,
        0.18735407292842865,
        -0.003271161112934351,
        0.04052142798900604,
        -0.09582346677780151,
        0.04934773966670036,
        -0.19292990863323212,
        0.11110301315784454,
        -0.28381067514419556,
        0.045603666454553604,
        -0.026950564235448837,
        -0.23395951092243195,
        0.107391856610775,
        -0.13322457671165466,
        -0.11394772678613663,
        -0.31742382049560547,
        0.03060426004230976,
        0.035650886595249176,
        -0.16408948600292206,
        -0.12712129950523376,
        -0.034342020750045776,
        -0.33198973536491394,
        -0.03400472179055214,
        -0.1355101466178894,
        0.05961490049958229,
        -0.02759527787566185,
        -0.12683232128620148,
        0.28806865215301514,
        0.09668292105197906,
        0.20639440417289734,
        0.17287778854370117,
        -0.22827129065990448,
        0.1633414626121521,
        -0.19358734786510468,
        0.09832707047462463,
        0.42433080077171326,
        0.04707444831728935,
        0.11055435240268707,
        0.03658813238143921,
        -0.07281013578176498,
        -0.09780038893222809,
        -0.07167014479637146,
        -0.09713461995124817,
        -0.20570720732212067,
        -0.01490909792482853,
        0.11307481676340103,
        0.10371111333370209,
        -0.034920863807201385,
        -0.14650173485279083,
        -0.4312993288040161,
        -0.10923171788454056,
        -0.03022204525768757,
        -0.08293236792087555,
        0.039941463619470596,
        -0.005655220244079828,
        -0.11926465481519699,
        0.06714513152837753,
        0.1796206533908844,
        -0.10668183863162994,
        0.17621682584285736,
        0.19777053594589233,
        0.07145766913890839,
        -0.054403651505708694,
        0.14291682839393616,
        0.16069172322750092,
        -0.27012935280799866,
        0.08845736086368561,
        -0.1171603873372078,
        -0.1308709979057312,
        -0.029976116493344307,
        -0.06863544136285782,
        0.25792768597602844,
        -0.017613686621189117,
        0.014907076954841614,
        -0.16978274285793304,
        -0.1044916883111,
        -0.07634226232767105,
        -0.1694871336221695,
        -0.04789473116397858,
        0.11030538380146027,
        -0.015875691547989845,
        0.2294936180114746,
        0.11714500933885574,
        0.061828646808862686,
        -0.10628658533096313,
        0.024127433076500893,
        -0.009570189751684666,
        -0.06444942951202393,
        -0.10878894478082657,
        -0.34528711438179016,
        0.12974442541599274,
        0.1454278826713562,
        -0.2534659504890442,
        0.027367612347006798,
        0.13804514706134796,
        -0.1556081771850586,
        -0.011707669124007225,
        0.013438434340059757,
        -0.2762455940246582,
        -0.006600771099328995,
        -0.02696963958442211,
        -0.039518091827631,
        0.09943971037864685,
        -0.10675521939992905,
        -0.07622870057821274,
        0.0069380635395646095,
        0.2285117506980896,
        0.020116064697504044,
        0.05269443988800049,
        -0.09607761353254318,
        -0.0607505664229393,
        -0.1670825034379959,
        -0.07503389567136765,
        -0.19183844327926636,
        0.05077432841062546,
        -0.279347687959671,
        0.10692179948091507,
        -0.09563078731298447,
        0.08792688697576523,
        0.1531338095664978,
        -0.12268876284360886,
        0.06263779103755951,
        0.07686538994312286,
        -0.12830406427383423,
        -0.18436385691165924,
        0.09059791266918182,
        -0.10971227288246155,
        -0.09609312564134598,
        0.17985698580741882,
        -0.006435061804950237,
        0.012676128186285496,
        0.10306371003389359,
        0.07984428852796555,
        -0.11092859506607056,
        -0.0144707215949893,
        0.16728168725967407,
        -0.21055708825588226,
        -0.1724618822336197,
        -0.05881614238023758,
        -0.21150615811347961,
        0.20323121547698975,
        0.12872011959552765,
        0.026468686759471893,
        -0.09578654170036316,
        0.18484528362751007,
        0.0733647421002388,
        -0.055175915360450745,
        0.08341008424758911,
        -0.14641787111759186,
        -0.276766300201416,
        0.1274142861366272,
        0.11959382891654968,
        -0.04963089898228645,
        -0.07152590900659561,
        0.26865696907043457,
        -0.14179101586341858,
        -0.027655549347400665,
        0.06913311034440994,
        -0.08380027860403061,
        -0.12890632450580597,
        0.20269905030727386,
        0.08129622042179108,
        -0.38115057349205017,
        -0.019558770582079887,
        -0.062085527926683426,
        0.030788341537117958,
        0.03728301450610161,
        -0.16101351380348206,
        -0.1748313158750534,
        0.00586276687681675,
        -0.31201261281967163,
        -0.08644871413707733,
        0.15310050547122955,
        0.12256970256567001,
        0.002155453898012638,
        0.08009286969900131,
        -0.11041237413883209,
        0.12452132999897003,
        -0.10955436527729034,
        0.15298841893672943,
        0.21049347519874573,
        -0.06873422116041183,
        0.014142573811113834,
        0.06938052177429199,
        0.004558687098324299,
        0.2608743906021118,
        -0.1632625162601471,
        -0.24157753586769104,
        0.09200115501880646,
        -0.06528293341398239,
        0.2510136663913727,
        0.3169236481189728,
        0.10778500884771347,
        -0.030756166204810143,
        -0.16033706068992615,
        0.23725394904613495,
        0.1541978418827057,
        -0.08643803745508194,
        -0.09441656619310379,
        -0.11760615557432175,
        0.05645744130015373,
        0.01879092864692211,
        -0.13995525240898132,
        0.036869242787361145,
        -0.07699413597583771,
        -0.07289347052574158,
        0.1650053858757019,
        -0.02490607462823391,
        -0.2143007069826126,
        -0.07145456224679947,
        -0.2563273310661316,
        -0.20526814460754395,
        0.10117136687040329,
        0.2534122169017792,
        0.000818286556750536,
        -0.018857594579458237,
        -0.07756330817937851,
        -0.06509312242269516,
        -0.13106195628643036,
        -0.14835594594478607,
        -0.035874973982572556,
        0.10495548695325851,
        -0.06151634454727173,
        0.17263220250606537,
        -0.11825654655694962,
        -0.017453165724873543,
        0.23118838667869568,
        -0.1247134804725647,
        -0.17927199602127075,
        0.23892751336097717,
        -0.5433144569396973,
        -0.03065430000424385,
        -0.06518393009901047,
        0.23482577502727509,
        0.0511486642062664,
        -0.07195030897855759,
        -0.16538746654987335,
        0.23436850309371948,
        -0.2916841208934784,
        0.05577101558446884,
        0.04365977644920349,
        -0.0715440884232521,
        -0.037622928619384766,
        0.04341336339712143,
        0.1376330554485321,
        -0.20571383833885193,
        -0.19752909243106842,
        0.2073349803686142,
        0.020334657281637192,
        -0.24006998538970947,
        0.2477162927389145,
        -0.06782087683677673,
        0.19420646131038666,
        0.038467276841402054,
        -0.08705034106969833,
        -0.12578566372394562,
        0.35426461696624756,
        -0.09128743410110474,
        -0.042718999087810516,
        0.06597945839166641,
        0.18160612881183624,
        0.23937836289405823,
        -0.007047376595437527,
        -0.22747977077960968,
        0.05159613862633705,
        -0.025376511737704277,
        0.229121133685112,
        0.3281163275241852,
        -0.10094042867422104,
        0.06463400274515152,
        -0.18513056635856628,
        0.08078185468912125,
        -0.03671060502529144,
        0.014089771546423435,
        0.05363227427005768,
        -0.10071641206741333,
        0.18495896458625793,
        0.2916638255119324,
        -0.16812023520469666,
        0.13055099546909332,
        -0.13680407404899597,
        -0.03440261259675026,
        0.06102540343999863,
        0.17505809664726257,
        0.11905477195978165,
        -0.07054970413446426,
        0.2499111294746399,
        0.09782413393259048,
        -0.12130273878574371,
        -0.07000936567783356,
        0.0052688345313072205,
        -0.04213200509548187,
        0.011751766316592693,
        0.21046730875968933,
        -0.08761990070343018,
        -0.2575416564941406,
        0.2441745400428772,
        0.3224320411682129,
        -0.01507712434977293,
        0.0739448070526123,
        -0.29403072595596313,
        0.10612012445926666,
        0.10331444442272186,
        0.14464136958122253,
        0.04193075746297836,
        -0.06675051152706146,
        0.16364048421382904,
        0.05374225229024887,
        -0.005505762062966824,
        0.014695728197693825,
        0.1047816127538681,
        -0.09846483916044235,
        0.3085831105709076,
        -0.14875376224517822,
        0.1384068727493286,
        0.0879039391875267,
        -0.04048614203929901,
        -0.09068523347377777,
        -0.12110141664743423,
        0.05049775913357735,
        -0.03026450052857399,
        0.32773545384407043,
        -0.21946674585342407,
        0.11681751161813736,
        -0.18899662792682648,
        0.2794022262096405,
        0.09447605907917023,
        0.07130420953035355,
        -0.0791788175702095,
        -0.13784627616405487,
        -0.02916969358921051,
        0.3095000982284546,
        -0.03676140308380127,
        0.081751748919487,
        -0.15545177459716797,
        0.05204787850379944,
        0.14763143658638,
        0.0811963602900505,
        0.0018498067511245608,
        -0.14173246920108795,
        -0.12173672020435333,
        0.029030906036496162,
        -0.06499582529067993,
        -0.013298952020704746,
        0.05062976852059364,
        -0.08785872161388397,
        0.11073358356952667,
        0.053736839443445206,
        -0.22102168202400208,
        0.2055479735136032,
        0.29304060339927673,
        -0.12741002440452576,
        0.2562180459499359,
        0.10730964690446854,
        -0.14749248325824738,
        0.014416227117180824,
        -0.05882401391863823,
        0.10183586180210114,
        0.11324713379144669,
        0.09269910305738449,
        -0.01914648897945881,
        -0.06949824094772339,
        0.03508799895644188,
        0.023871079087257385,
        -0.0804152712225914,
        0.1719799041748047,
        -0.18406055867671967,
        0.07369164377450943,
        -0.024214860051870346,
        -0.06848913431167603,
        -0.08349449932575226,
        -0.025947457179427147,
        -0.17245838046073914,
        -0.03476683422923088,
        -0.07528979331254959,
        -0.047462355345487595,
        0.12858453392982483,
        -0.0979338064789772,
        0.26217490434646606,
        0.22411370277404785,
        0.26159539818763733,
        0.10379479825496674,
        -0.18903420865535736,
        0.17608582973480225,
        0.1420677900314331,
        0.02303718775510788,
        0.037529654800891876,
        0.04928050935268402,
        0.19117873907089233,
        -0.03418030962347984,
        -0.021155843511223793,
        -0.13955584168434143,
        -0.250448614358902,
        0.12035878747701645,
        -0.15209010243415833,
        -0.0013883191859349608,
        -0.09382623434066772,
        0.17101545631885529,
        -0.30265772342681885,
        -0.32586538791656494,
        0.17550362646579742,
        -0.08856061846017838,
        -0.18755656480789185,
        0.11052221059799194,
        -0.10766410827636719,
        0.09254724532365799,
        0.17870071530342102,
        0.17812715470790863,
        -0.15371881425380707,
        -0.14869937300682068,
        0.004302963614463806,
        0.01935884729027748,
        0.07580230385065079,
        0.12443943321704865,
        0.113487608730793,
        0.17686982452869415,
        -0.21187718212604523,
        0.12740525603294373,
        -0.0045066457241773605,
        -0.2451639622449875,
        -0.08177898824214935,
        0.014075210317969322,
        -0.13265250623226166,
        0.06333506107330322,
        -0.09235906600952148,
        0.04963180422782898,
        -0.007458929903805256,
        0.23670624196529388,
        -0.2046893686056137,
        0.04033094644546509,
        -0.2744044363498688,
        -0.09015117585659027,
        -0.0847778469324112,
        -0.13029268383979797,
        0.002271630335599184,
        0.057436954230070114,
        -0.3086877763271332,
        -0.016391955316066742,
        -0.01909664086997509,
        0.0569613054394722,
        0.1667729616165161,
        -0.10557527840137482,
        0.18313392996788025,
        0.17916283011436462,
        0.07497450709342957,
        -0.09626239538192749,
        0.18277837336063385,
        -0.09799056500196457,
        -0.007577759213745594,
        -0.13361342251300812,
        -0.019043704494833946,
        0.0934375524520874,
        0.08513046056032181,
        -0.1371774673461914,
        -0.044393390417099,
        0.1374882608652115,
        0.1402464359998703,
        0.112090565264225,
        0.15919427573680878,
        -0.14749136567115784,
        -0.08434303849935532,
        0.0310386773198843,
        0.12882304191589355,
        0.16488517820835114,
        0.15042239427566528,
        -0.39432886242866516,
        0.24198558926582336,
        0.13725890219211578,
        0.18896517157554626,
        0.010528972372412682,
        -0.22111943364143372,
        -0.11224354058504105,
        0.006726471707224846,
        0.1350969523191452,
        -0.0379292294383049,
        -0.22416077554225922,
        0.0596144013106823,
        -0.05043705180287361,
        -0.0483747273683548,
        0.1094391867518425,
        -0.04894199222326279,
        0.1916988641023636,
        0.08324331045150757,
        -0.20916804671287537,
        0.0851488783955574,
        -0.24936382472515106,
        0.18766124546527863,
        -0.11189424991607666,
        -0.30220746994018555,
        0.13755403459072113,
        -0.1407068371772766,
        -0.04950733482837677,
        -0.10140389949083328,
        0.2881757616996765,
        0.008536634035408497,
        0.0523470938205719,
        0.025208527222275734,
        0.28260180354118347,
        0.13096223771572113,
        -0.12377127259969711,
        0.06872741132974625,
        0.1413010209798813,
        0.0858287438750267,
        0.22338946163654327,
        -0.11678659170866013,
        -0.23701538145542145,
        -0.009557520970702171,
        -0.12735232710838318,
        0.03356552869081497,
        -0.03485327586531639,
        0.07681157439947128,
        0.3031066656112671,
        -0.11423282325267792,
        0.07714040577411652,
        0.00857668649405241,
        0.02606869861483574,
        0.07641742378473282,
        0.09707091748714447,
        0.2644210755825043,
        0.25445812940597534,
        0.08694618940353394,
        -0.3085247278213501,
        0.06579579412937164,
        -0.04626404494047165,
        0.16760048270225525,
        0.07365113496780396,
        -0.13727128505706787,
        0.052278339862823486,
        0.11685103178024292,
        -0.06112634763121605,
        0.23137909173965454,
        0.18927346169948578,
        0.16439799964427948,
        0.02379928156733513,
        -0.2007099688053131,
        -0.13770058751106262,
        0.11209774762392044,
        -0.13548727333545685,
        -0.13048513233661652,
        -0.2508500814437866,
        0.03582769259810448,
        -0.0678490474820137,
        -0.26616594195365906,
        0.006740919314324856,
        -0.08040725439786911,
        0.2766242027282715,
        0.18449443578720093,
        0.16028067469596863,
        -0.08651161193847656,
        -0.006872848141938448,
        0.2157444804906845,
        0.04485590010881424,
        0.1291070282459259,
        0.031777892261743546,
        -0.05034390464425087,
        0.30416133999824524,
        -0.004602179862558842,
        0.12613585591316223,
        -0.24102887511253357,
        -0.19116100668907166,
        -0.08395890146493912,
        -0.021340802311897278,
        0.10059187561273575,
        0.07152995467185974,
        -0.14047834277153015,
        0.20994527637958527,
        -0.03269680216908455,
        0.06556906551122665,
        -0.021428368985652924,
        -0.23481114208698273,
        -0.11822787672281265,
        0.15490329265594482,
        0.013919604942202568,
        -0.11529482156038284,
        -0.014626205898821354,
        0.1069701537489891,
        -0.16462691128253937,
        -0.02625482715666294,
        0.14098405838012695,
        -0.17346157133579254,
        0.2819938659667969,
        0.03440709784626961,
        -0.4633540213108063,
        -0.10090786218643188,
        0.1842801570892334,
        0.05750051140785217,
        0.15449421107769012,
        0.10389413684606552,
        0.026618685573339462,
        -0.17425133287906647,
        -0.13595278561115265,
        0.09936503320932388,
        0.09305790066719055,
        0.1942538619041443,
        -0.1460973620414734,
        0.21343474090099335,
        -0.0016095893224701285,
        -0.1301712989807129,
        -0.02360469661653042,
        0.11722176522016525,
        0.013801708817481995,
        -0.06404232233762741,
        0.03663330897688866,
        0.19790329039096832,
        0.0759260505437851,
        0.12171044945716858,
        0.04861106351017952,
        -0.11500486731529236,
        -0.18648022413253784,
        -0.38186579942703247,
        0.09869570285081863,
        0.0001263019221369177,
        0.03726789355278015,
        0.2001975029706955,
        0.005598004441708326,
        0.054692648351192474,
        -0.09770999848842621,
        -0.06486152857542038,
        -0.08973050862550735,
        -0.21521779894828796,
        -0.0926145687699318,
        -0.06796824932098389,
        -0.013973300345242023,
        -0.1449442058801651,
        0.1322277933359146,
        0.09586449712514877,
        0.10539821535348892,
        0.06390978395938873,
        0.09947200119495392,
        0.05371050164103508,
        -0.04137049987912178,
        0.009364722296595573,
        -0.03258579224348068,
        0.17910736799240112,
        0.024231480434536934,
        -0.12628865242004395,
        -0.17599274218082428,
        -0.09238961338996887,
        -0.23397445678710938,
        0.09651483595371246,
        -0.1389165073633194,
        -0.16440820693969727,
        -0.15454357862472534,
        0.04874446988105774,
        0.25978606939315796,
        -0.015491651371121407,
        -0.026542454957962036,
        0.09509052336215973,
        -0.05414420738816261,
        -0.09563755989074707,
        -0.06722509115934372,
        0.19197019934654236,
        0.17536957561969757,
        -0.3532754182815552,
        0.27173349261283875,
        -0.11385670304298401,
        0.12031006067991257,
        -0.07070638239383698,
        -0.07739650458097458,
        0.1963769942522049,
        0.0829610824584961,
        0.08907875418663025,
        -0.12619800865650177,
        -0.08565893769264221,
        0.20910443365573883,
        0.13839049637317657,
        0.1586194932460785,
        -0.1268388330936432,
        -0.1794678419828415,
        0.1417040079832077,
        0.06799595803022385,
        -0.14218640327453613,
        0.10842037945985794,
        0.28121936321258545,
        -0.10086256265640259,
        -0.0019386271014809608,
        -0.23665456473827362,
        0.15674462914466858,
        0.01873903162777424,
        0.202210932970047,
        0.09584607183933258,
        -0.24858996272087097,
        -0.1195213794708252,
        -0.12692837417125702,
        0.20933489501476288,
        0.3454994261264801,
        -0.21701253950595856,
        0.2392575889825821,
        0.2908826470375061,
        0.022054191678762436,
        0.16075831651687622,
        -0.2818392217159271,
        0.16015785932540894,
        -0.18777385354042053,
        -0.13374128937721252,
        -0.17337390780448914,
        -0.04629385471343994,
        0.18538224697113037,
        0.194728285074234,
        0.09328608214855194,
        -0.008897359482944012,
        0.3013027608394623,
        0.06825252622365952,
        0.1841268241405487,
        -0.06909336149692535,
        -0.28502923250198364,
        0.2226235568523407,
        -0.4116394519805908,
        0.12672321498394012,
        0.015139847993850708,
        -0.18224476277828217,
        -0.17664822936058044,
        0.14256800711154938,
        -0.07552176713943481,
        -0.004684368148446083,
        -0.16172374784946442,
        -0.05975756049156189,
        -0.08883805572986603,
        -0.20187734067440033,
        0.07360231131315231,
        -0.04194137454032898,
        0.013801258988678455,
        -0.016208533197641373,
        0.14989104866981506,
        0.07203482836484909,
        -0.20538584887981415,
        -0.18445298075675964,
        -0.24886825680732727,
        0.054374296218156815,
        -0.04943184554576874,
        -0.0455307811498642,
        0.23873601853847504,
        0.24364440143108368,
        0.029511235654354095,
        -0.06497067958116531,
        -0.04329713061451912,
        0.13871082663536072,
        -0.23126262426376343,
        -0.019318386912345886,
        -0.16658169031143188,
        0.15477460622787476,
        -0.1420813947916031,
        0.17507703602313995,
        -0.27533653378486633,
        0.02941191755235195,
        -0.11843353509902954,
        0.1471920758485794,
        -0.2074190378189087,
        0.12087786197662354,
        0.14549620449543,
        0.1452436000108719,
        -0.09512700885534286,
        0.08926323801279068,
        0.2670367360115051,
        -0.06022410839796066,
        0.09163188934326172,
        -0.0734105184674263,
        0.27176859974861145,
        -0.16305918991565704,
        -0.34295952320098877,
        0.14234064519405365,
        -0.0791964903473854,
        0.054749585688114166,
        0.13990458846092224,
        -0.07345924526453018,
        -0.1781708300113678,
        -0.27724865078926086,
        -0.07572609186172485,
        0.008970847353339195,
        -0.22085067629814148,
        0.09754092991352081,
        0.14618204534053802,
        0.014804692007601261,
        -0.19064544141292572,
        -0.151288241147995,
        0.1046844869852066,
        -0.27606096863746643,
        -0.0033591515384614468,
        -0.04233618453145027,
        -0.15091560781002045,
        0.20284248888492584,
        0.01678205095231533,
        0.10060859471559525,
        -0.11259352415800095,
        -0.21281620860099792,
        0.3518417179584503,
        -0.11537656933069229,
        -0.0511411689221859,
        -0.08188176155090332,
        -0.1841338872909546,
        0.07836790382862091,
        0.1118377223610878,
        -0.23569457232952118,
        0.24057641625404358,
        -0.2401764839887619,
        -0.2847624719142914,
        0.06619839370250702,
        -0.22324326634407043,
        0.05074971541762352,
        0.036484263837337494,
        -0.07661687582731247,
        0.20340150594711304,
        -0.14493931829929352,
        -0.16602523624897003,
        0.10657314211130142,
        -0.11052090674638748,
        0.021857596933841705,
        0.10812883079051971,
        -0.08430702984333038,
        -0.2576807737350464,
        -0.11279992759227753,
        0.11507265269756317,
        -0.1114220842719078,
        -0.10687660425901413,
        -0.09665986895561218,
        -0.28397229313850403,
        -0.007527576759457588,
        0.19489195942878723,
        0.10725615173578262,
        0.010314753279089928,
        0.003972216043621302,
        0.042345594614744186,
        0.0636654794216156,
        0.04633136838674545,
        -0.16592499613761902,
        0.06126999855041504,
        -0.12285225838422775,
        0.12948423624038696,
        -0.14199981093406677,
        0.09913159161806107,
        -0.09018392860889435,
        0.16202235221862793,
        0.23952960968017578,
        0.09381943941116333,
        0.10664323717355728,
        -0.10262846946716309,
        -0.04462069645524025,
        0.044210247695446014,
        -0.2896130084991455,
        0.1674346625804901,
        -0.13334013521671295,
        0.2058326005935669,
        -0.16030937433242798,
        0.12581492960453033,
        -0.12338857352733612,
        -0.0173894464969635,
        -0.14671683311462402,
        -0.2271716296672821,
        -0.2341364026069641,
        0.18806135654449463,
        0.2718212604522705,
        0.03290382772684097,
        -0.15224626660346985,
        0.0567527711391449,
        -0.11824564635753632,
        -0.05053889378905296,
        0.21149414777755737,
        0.11850862205028534,
        -0.044451452791690826,
        0.022688955068588257,
        -0.23970651626586914,
        0.011083700694143772,
        0.024869835004210472,
        0.2084495574235916,
        -0.013947058469057083,
        -0.19701530039310455,
        -0.05658910796046257,
        0.32042601704597473,
        0.07043882459402084,
        0.05603090301156044,
        -0.19135823845863342,
        0.04393967613577843,
        0.053688086569309235,
        0.07587216049432755,
        0.2640238106250763,
        -0.1615889072418213,
        -0.05401582643389702,
        0.18686453998088837,
        0.023099837824702263,
        -0.21614333987236023,
        -0.020785946398973465,
        -0.18745332956314087,
        -0.004544783849269152,
        0.27524036169052124,
        0.03785738721489906,
        0.12905728816986084,
        0.002399120246991515,
        0.12504708766937256,
        -0.07330013066530228,
        0.026496270671486855,
        0.06115316227078438,
        -0.2067389041185379,
        0.13986264169216156,
        0.24574127793312073,
        0.28537699580192566,
        -0.09171300381422043,
        0.1549011766910553,
        -0.08235588669776917,
        0.013324805535376072,
        -0.16165243089199066,
        0.12830255925655365,
        -0.20762552320957184,
        -0.27053102850914,
        -0.2590235471725464,
        0.11728408187627792,
        -0.04458806291222572,
        0.2633393406867981,
        -0.12404152750968933,
        -0.1614457219839096,
        0.17842212319374084,
        -0.08478181809186935,
        0.10511530190706253,
        0.11502356082201004,
        -0.1561463475227356,
        0.002342551713809371,
        0.03419128432869911,
        0.010354440659284592,
        0.09920629858970642,
        -0.13730831444263458,
        0.0959077924489975,
        -0.1299489289522171,
        -0.07327643036842346,
        -0.14535130560398102,
        0.3527514934539795,
        0.0674760565161705,
        0.08034548163414001,
        0.16305938363075256,
        0.09271850436925888,
        -0.027698934078216553,
        0.20161627233028412,
        0.17845924198627472,
        -0.047177016735076904,
        0.09898167848587036,
        -0.09692878276109695,
        0.12436654418706894,
        -0.17567040026187897,
        0.04527463763952255,
        0.34991517663002014,
        0.22959305346012115,
        0.13412871956825256,
        0.10559047758579254,
        -0.1760067492723465,
        -0.07793969660997391,
        0.031657423824071884,
        0.23693956434726715,
        0.19230131804943085,
        0.19209249317646027,
        0.08849950134754181,
        -0.11461430788040161,
        0.10373590141534805,
        0.040174443274736404,
        -0.027976641431450844,
        -0.009940385818481445,
        -0.02174788899719715,
        -0.010261794552206993,
        0.09513916075229645,
        -0.24488091468811035,
        0.0583062469959259,
        0.2001231461763382,
        -0.05092989653348923,
        0.2475777566432953,
        0.02431703358888626,
        -0.1337081640958786,
        -0.08259657025337219,
        0.04713720455765724,
        -0.2669354975223541,
        0.08137499541044235,
        -0.12231961637735367,
        0.0957309901714325,
        -0.05663830786943436,
        0.12725260853767395,
        -0.1447022706270218,
        0.1925523281097412,
        -0.039941608905792236,
        0.02956455945968628,
        0.09928903728723526,
        -0.2925302982330322,
        -0.1474694013595581,
        -0.19646528363227844,
        0.15814237296581268,
        -0.2219458967447281,
        -0.20843489468097687,
        -0.06693568080663681,
        0.036964625120162964,
        0.23387259244918823,
        0.17754410207271576,
        -0.15551753342151642,
        0.001051325467415154,
        0.04183202236890793,
        0.01637720875442028,
        0.039354100823402405,
        -0.3392655551433563,
        0.09681076556444168,
        0.16923145949840546,
        -0.3213452100753784,
        0.18165281414985657,
        -0.11310353130102158,
        0.16700544953346252,
        -0.26084423065185547,
        0.07255728542804718,
        0.0079256072640419,
        -0.15948063135147095,
        -0.04043697938323021,
        -0.2432759553194046,
        0.12020209431648254,
        -0.12759153544902802,
        0.02848024293780327,
        -0.2576337158679962,
        -0.11656105518341064,
        0.05505317822098732,
        -0.19683070480823517,
        -0.05341636762022972,
        0.28369879722595215,
        -0.08678658306598663,
        0.07414156198501587,
        -0.23334713280200958,
        0.10607350617647171,
        0.08709680289030075,
        0.14215117692947388,
        -0.11089044064283371,
        -0.09800226986408234,
        0.11344766616821289,
        -0.09831240028142929,
        -0.16405455768108368,
        0.034148961305618286,
        0.26245445013046265,
        -0.2646053731441498,
        0.04849956929683685,
        0.19512878358364105,
        0.09946504235267639,
        -0.2068386822938919,
        0.0073806592263281345,
        0.1044507548213005,
        0.09021133184432983,
        0.28911659121513367,
        -0.04639067128300667,
        0.10063858330249786,
        -0.25775495171546936,
        -0.03257543966174126,
        0.025685550644993782,
        -0.051047153770923615,
        -0.19813375174999237,
        -0.24733608961105347,
        0.19172677397727966,
        0.06193762272596359,
        -0.190730482339859,
        0.1936573088169098,
        -0.1345914602279663,
        -0.049277666956186295,
        -0.21069176495075226,
        0.2106458842754364,
        -0.23186509311199188,
        0.04336835443973541,
        0.051741160452365875,
        -0.008793964982032776,
        -0.11302311718463898,
        0.034558456391096115,
        0.1487090289592743,
        0.1534159630537033,
        0.17163285613059998,
        -0.0645730122923851,
        -0.14145135879516602,
        -0.20032361149787903,
        -0.24697281420230865,
        0.19415295124053955,
        0.18982180953025818,
        0.0869366005063057,
        -0.08840832114219666,
        -0.07195515930652618,
        0.027080917730927467,
        -0.21536792814731598,
        -0.29414933919906616,
        0.10448186099529266,
        0.07453256845474243,
        0.03565983846783638,
        0.2822893559932709,
        0.22639401257038116,
        -0.23063457012176514,
        0.12578514218330383,
        0.0350792370736599,
        0.08727049082517624,
        -0.1481625884771347,
        0.024942979216575623,
        0.2221354842185974,
        -0.19718950986862183,
        -0.13300161063671112,
        -0.16189895570278168,
        -0.09345877170562744,
        0.14848697185516357,
        0.15616697072982788,
        -0.0014552290085703135,
        -0.21193571388721466,
        -0.28587374091148376,
        0.04073159769177437,
        0.10174501687288284,
        -0.1109238862991333,
        -0.1180209144949913,
        0.0585990734398365,
        -0.0580105185508728,
        -0.07572903484106064,
        -0.08249291777610779,
        0.18549449741840363,
        0.03798772022128105,
        0.027399687096476555,
        0.17484381794929504,
        0.17461353540420532,
        -0.20686161518096924,
        0.07039051502943039,
        0.21957235038280487,
        0.1782558411359787,
        -0.057673558592796326,
        0.2204529196023941,
        -0.019599242135882378,
        -0.09331163763999939,
        -0.021317683160305023,
        0.13325507938861847,
        0.09745369851589203,
        0.06547746062278748,
        0.029652683064341545,
        -0.09572990983724594,
        -0.13010334968566895,
        0.04492281749844551,
        -0.08972107619047165,
        -0.09431394189596176,
        -0.04123547300696373,
        -0.26463210582733154,
        -0.07758145779371262,
        0.08851973712444305,
        0.19322045147418976,
        -0.23379965126514435,
        0.03125375509262085,
        -0.043269120156764984,
        -0.03689508140087128,
        -0.0865708738565445,
        0.2061595618724823,
        0.1298820972442627,
        0.2001846432685852,
        -0.22274836897850037,
        0.04309741035103798,
        -0.19307759404182434,
        0.004960671067237854,
        -0.2466547042131424,
        0.07192862778902054,
        0.14268463850021362,
        0.05182964354753494,
        0.19700488448143005,
        0.02272798679769039,
        -0.1500052511692047,
        0.07613816857337952,
        0.17070773243904114,
        -0.18402259051799774,
        -0.24742288887500763,
        -0.01829049177467823,
        0.026570476591587067,
        0.116141676902771,
        0.025097334757447243,
        -0.004204154945909977,
        0.17374621331691742,
        0.35387495160102844,
        0.2614407241344452,
        -0.11649087816476822,
        -0.0917198434472084,
        -0.23236598074436188,
        0.058740146458148956,
        0.22567366063594818,
        -0.08365245908498764,
        -0.13191157579421997,
        -0.25544700026512146,
        0.020168647170066833,
        0.10922423005104065,
        -0.10097628831863403,
        -0.026060037314891815,
        0.017803380265831947,
        0.3132723867893219,
        0.25582852959632874,
        0.11031567305326462,
        -0.014803163707256317,
        -0.11083652079105377,
        -0.17007549107074738,
        0.1052265390753746,
        -0.12108080834150314,
        -0.03965906798839569,
        -0.20999294519424438,
        0.06561677902936935,
        0.23634138703346252,
        0.012449766509234905,
        -0.22531701624393463,
        -0.21132037043571472,
        0.13687345385551453,
        0.19747616350650787,
        0.005539959762245417,
        -0.08338459581136703,
        -0.04589928314089775,
        -0.06364202499389648,
        0.005130041856318712,
        -0.16123704612255096,
        0.03688640519976616,
        -0.11871980875730515,
        -0.05610115826129913,
        0.0260428786277771,
        0.23031732439994812,
        0.048963721841573715,
        -0.1497419774532318,
        -0.1650514155626297,
        -0.1433771699666977,
        0.22727788984775543,
        0.08257033675909042,
        0.02224160172045231,
        -0.20120356976985931,
        -0.011566748842597008,
        0.22240783274173737,
        0.18670500814914703,
        0.19154764711856842
      ]
    },
    {
      "architecture": "normalization",
      "bias": [
        0.3894433081150055,
        0.3662969470024109,
        -0.7060797810554504,
        0.1630544364452362,
        0.6692056655883789,
        0.37102025747299194,
        -0.37958642840385437,
        0.2082674205303192,
        -0.11043379455804825,
        0.3031657338142395,
        0.05381504446268082,
        0.1394577920436859,
        0.3087339401245117,
        -0.5699959397315979,
        -0.03132059425115585,
        0.4311836361885071,
        0.9631796479225159,
        -0.06723648309707642,
        0.7538292407989502,
        0.25039470195770264,
        -0.6558046340942383,
        -0.14821425080299377,
        -0.18697696924209595,
        -0.40729567408561707,
        -0.24081233143806458,
        1.0144016742706299,
        -0.08035097271203995,
        -0.0981588363647461,
        -0.21327799558639526,
        -0.2159694880247116
      ],
      "weights": [
        1.893626093864441,
        2.464810848236084,
        1.9952503442764282,
        1.6193907260894775,
        2.049032688140869,
        2.6150074005126953,
        2.331137180328369,
        2.184054136276245,
        1.9407175779342651,
        2.5601277351379395,
        2.237287759780884,
        3.481250762939453,
        2.462735652923584,
        1.7691348791122437,
        2.8596408367156982,
        2.5402681827545166,
        1.9274872541427612,
        2.234753370285034,
        2.1220481395721436,
        1.8332672119140625,
        2.026623249053955,
        2.2653720378875732,
        1.9178032875061035,
        2.0685720443725586,
        2.1421279907226562,
        2.2951161861419678,
        2.7105512619018555,
        1.6897432804107666,
        2.62099027633667,
        1.8003405332565308
      ]
    },
    {
      "activation": "rectified",
      "architecture": "dense",
      "bias": [],
      "weights": []
    },
    {
      "activation": "softmax",
      "architecture": "dense",
      "bias": [
        -0.05366777256131172,
        0.03433604910969734,
        0.027459148317575455
      ],
      "weights": [
        -0.01770322024822235,
        -0.5580258369445801,
        0.30479860305786133,
        0.44789689779281616,
        0.6286791563034058,
        -0.04006405919790268,
        -0.964121401309967,
        -0.6051939725875854,
        0.15822644531726837,
        0.5878276824951172,
        0.6118371486663818,
        -0.6781670451164246,
        -0.600939154624939,
        -0.26770442724227905,
        0.5920680165290833,
        0.3436468243598938,
        -0.5645032525062561,
        -0.5246303081512451,
        0.5871934294700623,
        -0.8693499565124512,
        0.27346524596214294,
        0.4793330430984497,
        0.5171158313751221,
        -0.6336204409599304,
        -0.32757773995399475,
        -0.7119239568710327,
        0.054679956287145615,
        0.3040151596069336,
        -0.2908199727535248,
        -0.020806049928069115,
        -0.6083940267562866,
        -0.3906596302986145,
        -0.494174987077713,
        -0.33765438199043274,
        0.11213920265436172,
        0.164896622300148,
        0.020104121416807175,
        0.24328617751598358,
        0.25787055492401123,
        0.46573972702026367,
        -0.2554386556148529,
        -0.2922401428222656,
        -0.5995540022850037,
        0.5516172051429749,
        0.5812311172485352,
        0.2848201394081116,
        -0.4770704209804535,
        0.46446067094802856,
        0.11886250227689743,
        -0.34314337372779846,
        0.06010698527097702,
        -0.367313951253891,
        0.28680163621902466,
        0.6547605991363525,
        0.45173180103302,
        0.6415090560913086,
        0.345609188079834,
        0.2307911515235901,
        -0.3335258364677429,
        -0.6987757682800293,
        0.3551817238330841,
        0.5023340582847595,
        0.7590456008911133,
        0.4648909270763397,
        0.09332352131605148,
        -0.650239109992981,
        0.4076026976108551,
        -0.0024653514847159386,
        -0.6662644743919373,
        -0.1269250214099884,
        0.03118637017905712,
        0.5908675193786621,
        0.5423232316970825,
        -0.1281292736530304,
        -0.2706710696220398,
        -0.8250782489776611,
        0.3807579278945923,
        0.15434180200099945,
        0.026430469006299973,
        0.6416985988616943,
        0.6647229194641113,
        -0.15663273632526398,
        -0.45005613565444946,
        0.0884125605225563,
        -0.15019512176513672,
        0.15906177461147308,
        -0.7127140164375305,
        -0.5979722142219543,
        0.5918571949005127,
        0.6078090071678162
      ]
    }
  ],
  "nodes": [
    {
      "layer_index": 2,
      "sources": [
        4
      ],
      "type": "feed_forward"
    },
    {
      "layer_index": 5,
      "sources": [
        5
      ],
      "type": "feed_forward"
    },
    {
      "layer_index": 8,
      "sources": [
        6
      ],
      "type": "feed_forward"
    },
    {
      "layer_index": 11,
      "sources": [
        7
      ],
      "type": "feed_forward"
    },
    {
      "layer_index": 1,
      "sources": [
        8
      ],
      "type": "feed_forward"
    },
    {
      "layer_index": 4,
      "sources": [
        9
      ],
      "type": "feed_forward"
    },
    {
      "layer_index": 7,
      "sources": [
        10
      ],
      "type": "feed_forward"
    },
    {
      "layer_index": 10,
      "sources": [
        11
      ],
      "type": "feed_forward"
    },
    {
      "layer_index": 0,
      "sources": [
        13
      ],
      "type": "feed_forward"
    },
    {
      "layer_index": 3,
      "sources": [
        0
      ],
      "type": "feed_forward"
    },
    {
      "layer_index": 6,
      "sources": [
        1
      ],
      "type": "feed_forward"
    },
    {
      "layer_index": 9,
      "sources": [
        2
      ],
      "type": "feed_forward"
    },
    {
      "layer_index": 12,
      "sources": [
        3
      ],
      "type": "feed_forward"
    },
    {
      "size": 36,
      "sources": [
        0
      ],
      "type": "input"
    }
  ],
  "outputs": {
    "DL1": {
      "labels": [
        "pu",
        "pc",
        "pb"
      ],
      "node_index": 12
    }
  }
}
